node {
  name: "global_step/Initializer/zeros"
  op: "Const"
  attr {
    key: "_class"
    value {
      list {
        s: "loc:@global_step"
      }
    }
  }
  attr {
    key: "_output_shapes"
    value {
      list {
        shape {
        }
      }
    }
  }
  attr {
    key: "dtype"
    value {
      type: DT_INT64
    }
  }
  attr {
    key: "value"
    value {
      tensor {
        dtype: DT_INT64
        tensor_shape {
        }
        int64_val: 0
      }
    }
  }
}
node {
  name: "global_step"
  op: "VariableV2"
  attr {
    key: "_class"
    value {
      list {
        s: "loc:@global_step"
      }
    }
  }
  attr {
    key: "_output_shapes"
    value {
      list {
        shape {
        }
      }
    }
  }
  attr {
    key: "container"
    value {
      s: ""
    }
  }
  attr {
    key: "dtype"
    value {
      type: DT_INT64
    }
  }
  attr {
    key: "shape"
    value {
      shape {
      }
    }
  }
  attr {
    key: "shared_name"
    value {
      s: ""
    }
  }
}
node {
  name: "global_step/Assign"
  op: "Assign"
  input: "global_step"
  input: "global_step/Initializer/zeros"
  attr {
    key: "T"
    value {
      type: DT_INT64
    }
  }
  attr {
    key: "_class"
    value {
      list {
        s: "loc:@global_step"
      }
    }
  }
  attr {
    key: "_output_shapes"
    value {
      list {
        shape {
        }
      }
    }
  }
  attr {
    key: "use_locking"
    value {
      b: true
    }
  }
  attr {
    key: "validate_shape"
    value {
      b: true
    }
  }
}
node {
  name: "global_step/read"
  op: "Identity"
  input: "global_step"
  attr {
    key: "T"
    value {
      type: DT_INT64
    }
  }
  attr {
    key: "_class"
    value {
      list {
        s: "loc:@global_step"
      }
    }
  }
  attr {
    key: "_output_shapes"
    value {
      list {
        shape {
        }
      }
    }
  }
}
node {
  name: "global_step/IsVariableInitialized"
  op: "IsVariableInitialized"
  input: "global_step"
  attr {
    key: "_class"
    value {
      list {
        s: "loc:@global_step"
      }
    }
  }
  attr {
    key: "_output_shapes"
    value {
      list {
        shape {
        }
      }
    }
  }
  attr {
    key: "dtype"
    value {
      type: DT_INT64
    }
  }
}
node {
  name: "global_step/cond/Switch"
  op: "Switch"
  input: "global_step/IsVariableInitialized"
  input: "global_step/IsVariableInitialized"
  attr {
    key: "T"
    value {
      type: DT_BOOL
    }
  }
  attr {
    key: "_output_shapes"
    value {
      list {
        shape {
        }
        shape {
        }
      }
    }
  }
}
node {
  name: "global_step/cond/switch_t"
  op: "Identity"
  input: "global_step/cond/Switch:1"
  attr {
    key: "T"
    value {
      type: DT_BOOL
    }
  }
  attr {
    key: "_output_shapes"
    value {
      list {
        shape {
        }
      }
    }
  }
}
node {
  name: "global_step/cond/switch_f"
  op: "Identity"
  input: "global_step/cond/Switch"
  attr {
    key: "T"
    value {
      type: DT_BOOL
    }
  }
  attr {
    key: "_output_shapes"
    value {
      list {
        shape {
        }
      }
    }
  }
}
node {
  name: "global_step/cond/pred_id"
  op: "Identity"
  input: "global_step/IsVariableInitialized"
  attr {
    key: "T"
    value {
      type: DT_BOOL
    }
  }
  attr {
    key: "_output_shapes"
    value {
      list {
        shape {
        }
      }
    }
  }
}
node {
  name: "global_step/cond/read"
  op: "Identity"
  input: "global_step/cond/read/Switch:1"
  attr {
    key: "T"
    value {
      type: DT_INT64
    }
  }
  attr {
    key: "_output_shapes"
    value {
      list {
        shape {
        }
      }
    }
  }
}
node {
  name: "global_step/cond/read/Switch"
  op: "RefSwitch"
  input: "global_step"
  input: "global_step/cond/pred_id"
  attr {
    key: "T"
    value {
      type: DT_INT64
    }
  }
  attr {
    key: "_class"
    value {
      list {
        s: "loc:@global_step"
      }
    }
  }
  attr {
    key: "_output_shapes"
    value {
      list {
        shape {
        }
        shape {
        }
      }
    }
  }
}
node {
  name: "global_step/cond/Switch_1"
  op: "Switch"
  input: "global_step/Initializer/zeros"
  input: "global_step/cond/pred_id"
  attr {
    key: "T"
    value {
      type: DT_INT64
    }
  }
  attr {
    key: "_class"
    value {
      list {
        s: "loc:@global_step"
      }
    }
  }
  attr {
    key: "_output_shapes"
    value {
      list {
        shape {
        }
        shape {
        }
      }
    }
  }
}
node {
  name: "global_step/cond/Merge"
  op: "Merge"
  input: "global_step/cond/Switch_1"
  input: "global_step/cond/read"
  attr {
    key: "N"
    value {
      i: 2
    }
  }
  attr {
    key: "T"
    value {
      type: DT_INT64
    }
  }
  attr {
    key: "_output_shapes"
    value {
      list {
        shape {
        }
        shape {
        }
      }
    }
  }
}
node {
  name: "global_step/add/y"
  op: "Const"
  attr {
    key: "_output_shapes"
    value {
      list {
        shape {
        }
      }
    }
  }
  attr {
    key: "dtype"
    value {
      type: DT_INT64
    }
  }
  attr {
    key: "value"
    value {
      tensor {
        dtype: DT_INT64
        tensor_shape {
        }
        int64_val: 0
      }
    }
  }
}
node {
  name: "global_step/add"
  op: "Add"
  input: "global_step/cond/Merge"
  input: "global_step/add/y"
  attr {
    key: "T"
    value {
      type: DT_INT64
    }
  }
  attr {
    key: "_output_shapes"
    value {
      list {
        shape {
        }
      }
    }
  }
}
node {
  name: "dnn/input_from_feature_columns/input_layer/coefficients/Const"
  op: "Const"
  attr {
    key: "_output_shapes"
    value {
      list {
        shape {
          dim {
            size: 5000
          }
          dim {
            size: 25
          }
        }
      }
    }
  }
  attr {
    key: "dtype"
    value {
      type: DT_FLOAT
    }
  }
  attr {
    key: "value"
    value {
      tensor {
        dtype: DT_FLOAT
        tensor_shape {
          dim {
            size: 5000
          }
          dim {
            size: 25
          }
        }
        tensor_content: "\000\000\000\000\000\000\000\000\000\000\000\000\000\000\000\000\000\000\000\000\000\000\000\000\000\000\000\000\000\000\000\000\000\000\000\000\000\000\000\000\000\000\000\000\000\000\000\000\000\000\000\000\000\000\000\000\000\000\000\000\000\000\000\000\000\000\000\000\000\000\000\000\000\000\000\000\000\000\000\000\000\000\000\000\000\000\000\000\000\000\000\000\000\000\000\000\000\000\000\000\\]w?}\232\201>\306\017@=\013d\350;&\204s:\032<\3448:FC7)\256\232539\3453\250! 2\275?T0M\036\206.\324G\242,\000\000\000\000\000\000\000\000\000\000\000\000\000\000\000\000\000\000\000\000\000\000\000\000\000\000\000\000\000\000\000\000\000\000\000\000\000\000\000\000\000\000\000\000\000\000\000\000\312\014p?\000\000\000\000\260\263\241>\000\000\000\000\333g\005>\000\000\000\000k\007h=\000\000\000\000\221\303\316<\000\000\000\000\020\335:<\000\000\000\000\\o\252;\000\000\000\000\376t\034;\000\000\000\000qP\220:\000\000\000\000!\233\005:\000\000\000\000q\034x9\000\000\000\000\025\355\3468\000\000\000\000\201[W8\0022r?7G\266=\020\330\235>\033,\211<\224\374\'=W)\342:_$b;\007\250\0009\372\321^9Y\230\3376`.-7i1\2354\020I\3364\207\23092*\373r2\353\335\274/;K\347/S\340(-\005\355@-\000\000\000\000\000\000\000\000\000\000\000\000\000\000\000\000\000\000\000\000\000\000\000\000\000\000\000\000\000\000\000\000\000\000\000\000\000\000\000\000\000\000\000\000\000\000\000\000\000\000\000\000\000\000\000\000\000\000\000\000\000\000\000\000\000\000\000\000\000\000\000\000\000\000\000\000\000\000\000\000\000\000\000\000\000\000\000\000\000\000\000\000\000\000\000\000\000\000\000\000\000\000\000\000\000\000\000\000\000\000\000\000\000\000\000\000\000\000\000\000\000\000\000\0007\321^?\002\321\352>a\373.>\304\356T=Kf`<\211\204S;\004\0016:\275\375\0209>\027\3307\212\321\2276\347`J5d\234\0004(\201\2342\361\37161\333$\316/\266^`.\351s\354,\000\000\000\000\000\000\000\000\000\000\000\000\000\000\000\000\000\000\000\000\000\000\000\000\000\000\000\000\000\000\000\000Nuu?\000\000\000\000\276\225\210>\000\000\000\000\333*\272=\000\000\000\000\316\274\005=\000\000\000\000I\344D<\000\000\000\000\213\375\222;\000\000\000\000\331~\335:\000\000\000\000r\366\':\000\000\000\000=\365\1779\000\000\000\000u\277\3038\000\000\000\000\024$\0268\000\000\000\000\274\336f7\000\000\000\000\343\332\2616\0216D?m+\n??\360\242>W}\004>\377\364\\=1+\213<l\201\275;\372\300\311:\305\353\3559cc\3378K\237\3537(\034\3106\313\255\3005\242\206\2264M/\20635.C2\030\301\"1\032`\336/\200\323\256.\260\362a-\256v(,\000\000\000\000\000\000\000\000\000\000\000\000\000\000\000\000\000\000\000\000\000\000\000\000\000\000\200?\000\000\000\000\000\000\000\000\000\000\000\000\000\000\000\000\000\000\000\000\000\000\000\000\000\000\000\000\000\000\000\000\000\000\000\000\000\000\000\000\000\000\000\000\000\000\000\000\000\000\000\000\000\000\000\000\000\000\000\000\000\000\000\000\000\000\000\000\000\000\000\000\000\000\000\000\000\000\000\000\000\000\000\000\000\000\000\000\002\300o?\032\250\255>\214\342\261=f\307\224<8\207W;\212\241\013:c(\2458.\33447\206C\2715\332\35324\271\355\2432\3433\0171\374\212o/\003}\300-\347\014\025,\000\000\000\000\000\000\000\000\000\000\000\000\000\000\000\000\000\000\000\000\000\000\000\000\000\000\000\000\000\000\000\000\000\000\000\000\000\000\000\000x\332}?\000\000\000\000\356\253\002>\000\000\000\000\341\302\244<\000\000\000\000K\373Z;\000\000\000\000\301\035\025:\000\000\000\000\215\366\3158\000\000\000\000<\215\2177\000\000\000\000_fI6\000\000\000\000\031\365\r5\000\000\000\000\261\333\3103\000\000\000\000-\204\2162\000\000\000\000t\271J1\000\000\000\000Px\0200?\2635>)J{?\310\205\254<\016\301\211=\305\277\205:\021r%;\206(\0038V\036\2118\353F<5\033\227\2555=1U2\013\314\2612]UG/\357\352\230/\033\271\036,\371oB,\000\000\000\000\000\000\000\000\000\000\000\000\000\000\000\000\000\000\000\000\000\000\000\000\000\000\000\000\000\000\000\000\000\000\000\000\000\000\000\000\000\000\000\000\000\000\000\000\000\000\000\000\000\000\000\000\000\000\000\000\000\000\000\000\000\000\000\000\000\000\000\000\000\000\000\000\000\000\000\000\000\000\000\000\000\000\000\000\000\000\000\000\000\000\000\000\000\000\000\000\000\000\000\000\000\000\000\000\000\000\000\000\000\000\000\000\000\000\000\000\000\000\000\000\000\000\000\000\000\000\000\000\000\000\000\000W@U?\263\350\000?rg\\>\016\330\231=\312\376\271<F \311;\312\211\306:\030r\2659`\035\2338\313\nz7\2260?6\336b\0135\350\225\3023t~\2022\211\250(1\305\227\322/\233\232~.\244O\025-\3239\233+\000\000\000\000\000\000\000\000\000\000\000\000\000\000\000\000\000\000\000\000\000\000\000\000\246e|?\000\000\000\000\014\232\'>\000\000\000\000\234N\010=\000\000\000\000W\264\351;\000\000\000\000\277K\315:\000\000\000\000\024\346\2669\000\000\000\000hr\2448\000\000\000\000G\320\2247\000\000\000\000\366O\2076\000\000\000\000S\373v5\000\000\000\000\374\020b4\000\000\000\000\243jO3\000\000\000\000\274\256>2\'\230^?\340\2568>\260\267\344>\263\036[=Y\342\277=Te\016<\356\240K<\267l\177:\301)\236:\242\367\2568#\317\3018\301\356\3016\230\031\3046.\200\2644\221\372\2504\010\314\2202?\231}2\350\037L0\233\207(0HP\000.\016\001\311-\000\000\000\000\000\000\000\000\000\000\000\000\000\000\000\000\000\000\000\000\000\000\000\000\000\000\000\000\000\000\000\000\000\000\000\000\000\000\000\000\000\000\000\000\000\000\000\000\000\000\000\000\000\000\000\000\000\000\000\000\000\000\200?\000\000\000\000\000\000\000\000\000\000\000\000\000\000\000\000\000\000\000\000\000\000\000\000\000\000\000\000\000\000\000\000\000\000\000\000\000\000\000\000\000\000\000\000\000\000\000\000\000\000\000\000\267\315#?:\313\032?\347\336\316>!\274a>\231Q\325=\266M4=\254\036\213<\265\302\306;\205\320\004;\201X\':\326\010H9+\373c83\305x7#g\2026\035\275\2035R\223\2004\277\001s3\276\310^2h}F1\315 ,0\355|\021/\301\003\360-Fm\301,\000\000\000\000\000\000\000\000d\321h?\000\000\000\000J\020\271>\000\000\000\000W*4>\000\000\000\000m\342\270=\000\000\000\000\230iB=\000\000\000\000\326T\317<\000\000\000\000\215%_<\000\000\000\000\016\271\361;\000\000\000\000\371\214\203;\000\000\000\000\361\266\017;\000\000\000\000\343v\235:\000\000\000\000%\361,:\000\000\000\000<Q\2769/X\360>\370\315_?\317s\254=[m\271=X\020\312;>K\250;u\275\2259p\316R9\310o\"7u\255\3116\004\377\2124s\031\0344\212k\3041\240\351J1\232b\354.-Vc.\234\264\035,\000\000\000\000\000\000\000\000\000\000\000\000\000\000\000\000\000\000\000\000\000\000\000\000\000\000\000\000\000\000\000\000\000\000\000\000\000\000\000\000\000\000\000\000\000\000\000\000\000\000\000\000\000\000\000\000\000\000\000\000\000\000\000\000\000\000\000\000\000\000\000\000\000\000\000\000\000\000\000\000\000\000\000\000\000\000\000\000\000\000\000\000\000\000\000\000\000\000\000\000\000\000\000\000\000\000\000\000\000\000\000\000\000\000\000\000\000\000\000\000\000\000\000\000\000\000\000\000\000\000\000\000w]~?\353X\346=)\200\023<\264<\032:w\254\0138\220C\3425\275L\2473\007\re1\243\253\022/\357\267\256,\000\000\000\000\000\000\000\000\000\000\000\000\000\000\000\000\000\000\000\000\000\000\000\000\000\000\000\000\000\000\000\000\000\000\000\000\000\000\000\000\000\000\000\000\000\000\000\000\000\000\000\000\000\000\000\000\000\000\000\0005L{?\000\000\000\000\377\005>>\000\000\000\000\271\373/=\000\000\000\000\354\313+<\000\000\000\000\336\331+;\000\000\000\000\022X.:\000\000\000\000\335\20029\000\000\000\000\345\36178\000\000\000\000 v>7\000\000\000\000\031\360E6\000\000\000\000\333ON5\000\000\000\000\333\215W4\000\000\000\000 \250a3\261\024l?\375\256\264>\214\322\035>\222y\013=ZJ,<\260\341\353:\025\351\3559x\244\2118Ntp7\327_\3655t\263\2774\267\36203\022e\3741\\MV0\034\200\r/E\311Y-\221\206\352+\000\000\000\000\000\000\000\000\000\000\000\000\000\000\000\000\000\000\000\000\000\000\000\000\000\000\000\000\000\000\000\000\000\000\000\000\000\000\000\000\000\000\000\000\000\000\000\000\000\000\000\000\000\000\000\000\000\000\000\000\000\000\000\000\000\000\000\000\000\000\000\000\000\000\000\000\000\000\000\000\000\000\000\000\000\000\000\000\000\000\000\000\000\000\000\000\000\000\000\000\000\000\000\000\000\000\000\000\000\000\000\000\000\000\000\000\000\000\000\000\000\000\000\000\000\000\000\000\000\000\000\000\211\3269?\224\275\024?0\\\250>\006\231\033>\346\022y=\211N\262<\203\014\351;N\000\r;\221\231\037:\366Q*9\344n,8\301r&7\261\324\0316\246\227\0105f\277\3513\3208\3012\203\246\2321}*p0\336:5/\362\033\005.\207\224\276,\000\000\000\000\000\000\000\000\000\000\000\000\000\000\000\000x\221R?\000\000\000\000\266I\333>\000\000\000\000\302\330\213>\000\000\000\000\201\004<>\000\000\000\000\006\203\001>\000\000\000\000&\364\264=\000\000\000\000\225(\177=\000\000\000\000\225\0175=\000\000\000\000\350\030\001=\000\000\000\000J\306\270<\000\000\000\000\335\236\204<\000\000\000\000j\324><\000\000\000\000\350\220\t<\270k}?\244\375\020>\216\375\3629\273\207 8-<\2763\362\262\3021.c<-\000\000\000\000\000\000\000\000\000\000\000\000\000\000\000\000\000\000\000\000\000\000\000\000\000\000\000\000\000\000\000\000\000\000\000\000\000\000\000\000\000\000\000\000\000\000\000\000\000\000\000\000\000\000\000\000\000\000\000\000\000\000\000\000\000\000\000\000\000\000\000\000\000\000\000\000\000\000\000\000\000\000\000\000\000\000\000\000\000\000\000\000\000\000\000\000\000\000\000\000\000\000\000\000\000\000\000\000\000\000\000\000\000\000\000\000\000\000\000\000\000\000\000\000\000\000\000\000\000\000\000\000\000\000\000\000\000\000\000\000\000\000\000\000\000\000\000\000\000\000\000\000\000\000\000\000\000\000\000\000\000\000\000\000\000\000\000\000\000\000\000\000{n ?2\031\033?\377\014\324>,\267l>\264\330\344=\331\341E=\3742\234<\370L\344;\006\021\034;\327+I:5\001v9>j\2178\254\030\2407\355\264\2536\314u\2615\366/\2614\024L\2533\211\250\2402To\2221*\351\2010\214\252`/\361\225=.\373M\034-}\301\373+\000\000\000\000.\315R?\000\000\000\000\206\036\333>\000\000\000\000%z\213>\000\000\000\000L+;>\000\000\000\000\206\257\000>\000\000\000\000Yv\263=\000\000\000\000\300\224|=\000\000\000\000W\3452=\000\000\000\000\003\241\376<\000\000\000\000\230\341\265<\000\000\000\000\224L\202<\000\000\000\000K#;<\000\000\000\000\325\246\006<\2130\021>\2671y?\207Z3=\364\2711>u\346\264;w\332\212<\277\313\3469u\270\225:\235\204\3277\325\231v8\324\277\2365\315M$6!\034A3\304\331\2673\365\r\3100\215O11(z4.dA\226.i\314\351+\000\000\000\000\000\000\000\000\000\000\000\000\000\000\000\000\000\000\000\000\000\000\000\000\000\000\000\000\000\000\000\000\000\000\000\000\000\000\000\000\000\000\000\000\000\000\000\000\000\000\000\000\000\000\000\000\000\000\000\000\000\000\000\000\000\000\000\000\000\000\000\000\000\000\000\000\000\000\000\000\000\000\000\000\000\000\000\000\000\000\000\000\000\000\000\000\000\000\000\000\000\000\000\000\000\000\000\000\000\000\000\000\000\000\000\000\000\000\000\000\000\000\000\000bz{?)\351=>S\322\312<\204\3340;\330\217\2059\347m\2647o\201\3365$\n\3763\261\247\0072x\227\0100\030z\002.\340\253\355+\000\000\000\000\000\000\000\000\000\000\000\000\000\000\000\000\000\000\000\000\000\000\000\000\000\000\000\000\000\000\000\000\000\000\000\000\000\000\000\000\000\000\000\000\000\000\000\000\000\000\000\000\272\305]?\000\000\000\000\343G\317>\000\000\000\000\005Gm>\000\000\000\000W\'\017>\000\000\000\000\375\377\260=\000\000\000\000\373\363]=\000\000\000\000\261q\014=\000\000\000\000\372\342\262<\000\000\000\000\311\361d<\000\000\000\000\360\013\023<\000\000\000\000\367q\275;\000\000\000\000\341\246t;\000\000\000\000PI\036;W\336\246>;\360`?\257n=>\320m\223>\333\225/=i\263S=p\335\315;E\306\321;|\2510:\222\302\036:\207+o89jB8\270\256\2056\010\353G6\342\211~4d/14C\006S2\317\373\t2\007\360\0320\266\250\277/\017*\314-\3049p-\000\000\000\000\000\000\000\000\000\000\000\000\000\000\000\000\000\000\000\000\000\000\000\000\000\000\000\000\000\000\000\000\000\000\000\000\000\000\000\000\000\000\000\000\000\000\000\000\000\000\000\000\000\000\000\000\000\000\000\000\000\000\000\000\000\000\000\000\000\000\000\000\000\000\000\000\000\000\000\000\000\000\000\000\000\000\000\000\000\000\000\000\000\000\000\000\000\000\000\000\000\000\000\000\000\000\000\000\000\000\000\000M\342\177?\034\213\366<\004\370\':\254\337:7_\r44=*\0331R\"\364-\000\000\000\000\000\000\000\000\000\000\000\000\000\000\000\000\000\000\000\000\000\000\000\000\000\000\000\000\000\000\000\000\000\000\000\000\000\000\000\000\000\000\000\000\000\000\000\000\000\000\000\000\000\000\000\000\000\000\000\000\000\000\000\000\000\000\000\000\000\000\000\000\235*j?\000\000\000\000Z]\265>\000\000\000\000\354\t,>\000\000\000\000\027\005\254=\000\000\000\000\243?0=\000\000\000\000\220$\267<\000\000\000\000\215\017@<\000\000\000\000q\267\312;\000\000\000\000d\375V;\000\000\000\000Y\331\344:\000\000\000\000-Qt:\000\000\000\000\032\272\002:\000\000\000\000u,\2149a7\n?(\016L?C\263P>\305\3431>|\246\000=\200\341\251<s\240H;\370\346\337:\271\377d9Qc\3418\231.N7\320\216\26764I\0315\235\017{4\267\032\3022T\373\0232\250\nV0KH\231/^\007\321-\275\226\r-\000\000\000\000\000\000\000\000\000\000\000\000\000\000\000\000\000\000\000\000\000\000\000\000\000\000\000\000\000\000\000\000\000\000\000\000\000\000\000\000\000\000\000\000\000\000\000\000\000\000\000\000\000\000\000\000\000\000\000\000\000\000\000\000\000\000\000\000\000\000\000\000\000\000\000\000\000\000\000\000\000\000\000\000\000\000\000\000\000\000\000\000\000\000\000\000\000\000\000\000\000\000\000\000\000\000\000\000\000\000\000\000\000\000\000\000\000\000\000\000\r\227:?\342e\024?\372\350\246>7H\031>\267\320s=Ap\255<\233@\341;\025l\007;\313P\030:\306\204!9\003}\"8N\333\0337\225!\0176u\223\3744K\277\3263\237d\2602\304I\2141\360{X0\223S\"/\'\361\354-\225\214\250,\000\000\000\000\000\000\000\000\000\000\000\000\000\000\000\000\003\037z?\000\000\000\000\317\276R>\000\000\000\000\327yY=\000\000\000\000\236\217l<\000\000\000\000v\326\203;\000\000\000\000\214\010\225:\000\000\000\000O\006\2529\000\000\000\000_:\3038\000\000\000\000\024>\3417\000\000\000\000\204j\0027\000\000\000\000Tw\0276\000\000\000\000\212U05\000\000\000\000#\261M4`\222\376>\371\206N?e/k>\360P\\>yg1=\230\272\000=\350D\251;\033\235O;\035l\3549\312\274\1779?=\0028M\334~7\307\367\3545\007GU5\017\230\2673`\324\0313+\274w1\342\372\3020\322\005\024/hf\\.h\351\261,\000\000\000\000\000\000\000\000\000\000\000\000\000\000\000\000\000\000\000\000\000\000\000\000\000\000\000\000\000\000\000\000\000\000\000\000\000\000\000\000\000\000\000\000\000\000\000\000\000\000\000\000\000\000\000\000\000\000\000\000\000\000\000\000\000\000\000\000\000\000\000\000\000\000\000\000\000\000\000\000\000\000\000\000\000\000\000\000\000\000\000\000\000\000\000\000\000\000\000\000\000\000\000\000\000\000\000\000\000\000\000\000\000\000\000\000\301.u?\027\030\220>\363\205o=\202\213\"<B\016\277:\353\333H9M\304\3007\373F+6\300Z\2164/\031\3372W\331%1\t\033k/\014\214\237-n\014\247+\000\000\000\000\000\000\000\000\000\000\000\000\000\000\000\000\000\000\000\000\000\000\000\000\000\000\000\000\000\000\000\000\000\000\000\000\000\000\000\000\000\000\000\000\202=r?\000\000\000\000D\213\230>\000\000\000\000zL\353=\000\000\000\000LJ?=\000\000\000\000gZ\237<\000\000\000\000\225\241\006<\000\000\000\000\375\225e;\000\000\000\000\333\005\305:\000\000\000\000\253\343):\000\000\000\000\274\010\2239\000\000\000\0003A\3778\000\000\000\000\357\027^8\000\000\000\000\232\237\3017&\344\267>Zhc?\302\010&>\272\026m>\324\315\364<\037c\007=\347Gd;kfU;\233\316\2339\244s\2009q\304\2477O7z7\321)\2255Q\244L5\371\343a3\347@\0203\240\362\0241\013\262\2620)\364\255.\036/F.\342P6,\000\000\000\000\000\000\000\000\000\000\000\000\000\000\000\000\000\000\000\000\000\000\000\000\000\000\000\000\000\000\000\000\000\000\000\000\000\000\000\000\000\000\000\000\000\000\000\000\000\000\000\000\000\000\000\000\000\000\000\000\000\000\000\000\000\000\000\000\000\000\000\000\000\000\000\000\000\000\000\000\000\000\000\000\000\000\000\000\000\000\000\000\000\000\000\000\000\000\000\000\000\000\000\000\000\000\000\000\000\000\200?\000\000\000\000\306\025[?\330\206\364>Q\374@>\347\267x=\367\314\212<[\220\212;\345\214|:w\024U9\312*(8\334B\3726\326\250\2605%\315m4\377<\0313\226\276\2751\265fb0e}\002/\252\244\221-\245\263\030,\000\000\000\000\000\000\000\000\000\000\000\000\000\000\000\000\000\000\000\000\000\000\000\000\000\000\000\000}1~?\000\000\000\000\026R\360=\000\000\000\000W\"\213<\000\000\000\000\214\321);\000\000\000\000wc\3249\000\000\000\000\361\262\2068\000\000\000\000\000n,7\000\000\000\000i(\3365\000\000\000\000\326\314\2174\000\000\000\0004\331:3\000\000\000\000/\177\3631\000\000\000\000\372\t\2370\000\000\000\000\305)P/$po?\344\253\210>\263\210i>W\354\031=X\372\271<\364\345=;FW\273:g\253!9\333\037\2128\177>\3226H\251 6\3033]4\242N\2323\323m\3031Fn\3740)\320\024/\275\3153.,\374F,\000\000\000\000\000\000\000\000\000\000\000\000\000\000\000\000\000\000\000\000\000\000\000\000\000\000\000\000\000\000\000\000\000\000\000\000\000\000\000\000\000\000\000\000\000\000\000\000\000\000\000\000\000\000\000\000\000\000\000\000\000\000\000\000\000\000\000\000\000\000\000\000\000\000\000\000\000\000\000\000\000\000\000\000\000\000\000\000\000\000\000\000\000\000\000\000\000\000\000\000\000\000\000\000\000\000\000\000\000\000\000\000\000\000\000\000\000\000\000\000\000\000\000\000\000\000\000\000FR^?\230*\354>\367d1>\365\227Y=\347$g<\314\235[;\236{>:c\365\0309|\311\34577\273\2426\310\250Z5^\021\0144\371\316\2532gyJ1\004\357\345/[C|.\202\374\005-\000\000\000\000\000\000\000\000\000\000\000\000\000\000\000\000\000\000\000\000\000\000\000\000\000\000\000\000\000\000\000\000\320^w?\000\000\000\000N}z>\000\000\000\000\265S\233=\000\000\000\000\002\016\313<\000\000\000\000g\000\010<\000\000\000\000\027\3048;\000\000\000\000*T}:\000\000\000\000}\312\2569\000\000\000\000;\\\3628\000\000\000\000k\245(8\000\000\000\000\321dk7\000\000\000\000\023\254\2446\000\000\000\000V\332\3465\270)\t?J\237U?\254\307\303=\330\n\260=\347*\344;\204\353\236;\236-\2509j\377E9\340u57\215h\2746Nq\2324*\014\0214\014\024\3311-\211;1_\354\001/\247\373P.\271\332\373+\000\000\000\000\000\000\000\000\000\000\000\000\000\000\000\000\000\000\000\000\000\000\000\000\000\000\000\000\000\000\000\000\000\000\000\000\000\000\000\000\000\000\000\000\000\000\000\000\000\000\000\000\000\000\000\000\000\000\000\000\000\000\000\000\000\000\000\000\000\000\000\000\000\000\000\000\000\000\000\000\000\000\000\000\000\000\000\000\000\000\000\000\000\000\000\000\000\000\000\000\000\000\000\000\000\000\000\000\000\000\000\000\000\000\000\000\000\000\000\000\000\000\000\000\000\000\000\000\000\000\000\000\350}C?\327\220\017?\212\032\225>\237\340\374=s\2659=^\367s<\212I\222;\216k\242:p\257\25098,\2458\005o\2317a\345\2076:zf5\215\306;4\235k\0233\201\240\3371N:\2440\221\002j/B\006\".\263a\332,\000\000\000\000\000\000\000\000\000\000\000\000\000\000\000\000\000\000\000\000p\253R?\000\000\000\000\0067\333>\000\000\000\000\263\257\213>\000\000\000\000)\246;>\000\000\000\000\030\'\001>\000\000\000\000\030N\264=\000\000\000\000o\t~=\000\000\000\000?\0364=\000\000\000\000\020R\000=\000\000\000\000h\203\267<\000\000\000\000\251\233\203<\000\000\000\000\3717=<\000\000\000\000&K\010<PAm?h\234\265>Z\272\366=D\024\332<\357~\321;\251n\217:R\001a9Z2\0028\004\341\2606\324\20645\324\\\3333O\203J2X\243\3400\307\303>/\321\350\303-\037\325\032,\000\000\000\000\000\000\000\000\000\000\000\000\000\000\000\000\000\000\000\000\000\000\000\000\000\000\000\000\000\000\000\000\000\000\000\000\000\000\000\000\000\000\000\000\000\000\000\000\000\000\000\000\000\000\000\000\000\000\000\000\000\000\000\000\000\000\000\000\000\000\000\000\000\000\000\000\000\000\000\000\000\000\000\000\000\000\000\000\000\000\000\000\000\000\000\000\000\000\000\000\000\000\000\000\000\000\000\000\000\000\000\000\000\000\000\000\000\000\000\000\000\000\000\000\000\000\000\000\000\000\000\000\000\000\000\000nwQ?j\256\004?\030\266m>\252\335\255=\016C\334<r\224\371;|\024\001;\3779\3679\016w\3358\277\n\2737\350\334\2256\350\370d5Xy\'4\022`\3532\373b\2371}\212P0T\030\004/\033Y\242-{\350A,\000\000\000\000\000\000\000\000\000\000\000\000\000\000\000\000\000\000\000\000\000\000\000\000[~\177?\000\000\000\000\373_\200=\000\000\000\000\350\377\235;\000\000\000\000\311\372\3149\000\000\000\000y?\0108\000\000\000\000\323\26176\000\000\000\000Y\362y4\000\000\000\000\273%\2532\000\000\000\000k\201\3530\000\000\000\000\250\241\"/\000\000\000\0007Fa-\000\000\000\000\204a\234+\000\000\000\000\000\000\000\000\270;,?(D=?m\010\277<\215fr<\307\000\2559\235\n*9\002.F6\r\240\2445p)\2462\215u\3631\005\312\333.\244,\022.\000\000\000\000\000\000\000\000\000\000\000\000\000\000\000\000\000\000\000\000\000\000\000\000\000\000\000\000\000\000\000\000\000\000\000\000\000\000\000\000\000\000\000\000\000\000\000\000\000\000\000\000\000\000\000\000\000\000\000\000\000\000\000\000\000\000\000\000\000\000\000\000\000\000\000\000\000\000\000\000\000\000\000\000\000\000\000\000\000\000\000\000\000\000\000\000\000\000\000\000\000\000\000\000\000\000\000\000\000\000\000\000\000\000\000\000\000\000\000\000\000\000\000\000\000\000\000\000\000\000\000\000\000\000\000\000\000\000\000\000\000\000\000\000\000\000\000\000\000\000\000\000\317\203??\034\350\021?\'4\235>dK\n>\213\270R= \227\217<7\244\262;*\303\315:\236\261\3359\3002\3418\332\004\3317pg\30763k\2575\263C\2244\243\202q3\275\007>2\215\306\0201\177\002\326/H\270\231.w\360V-\024\361\016,\000\000\000\000\000\000\000\000\000\000\000\000\000\000\000\000\305\021Z?\000\000\000\000\3164\324>\000\000\000\000\'\351|>\000\000\000\000\'\335\036>\000\000\000\000\271\201\314=\000\000\000\000\261\177\205=\000\000\000\000\364\345/=\000\000\000\000\222C\351<\000\000\000\0007i\233<\000\000\000\000g\331O<\000\000\000\000\020f\013<\000\000\000\000\255m\273;\000\000\000\000\234\201|;\356\320\030?|\316L?;\354B=}\323\026=\264\001\313:fYs:\250\267\0058\\x\2077\266\356\0005zef4\275 \3041\270\201\0361SYv.\344#\267-\000\000\000\000\000\000\000\000\000\000\000\000\000\000\000\000\000\000\000\000\000\000\000\000\000\000\000\000\000\000\000\000\000\000\000\000\000\000\000\000\000\000\000\000\000\000\000\000\000\000\000\000\000\000\000\000\000\000\000\000\000\000\000\000\000\000\000\000\000\000\000\000\000\000\000\000\000\000\000\000\000\000\000\000\000\000\000\000\000\000\000\000\000\000\000\000\000\000\000\000\000\000\000\000\000\000\000\000\000\000\000\000\000\000\000\000\000\000\000\000\000\000\000\000\000\000\000\000\000\000\000\000\000\000\000\000\000\000\000\000\000\000\000\000\335\214`?\325\361\345>b\200&>\311\340D=\223\233I<\306\2478;yd\032:\347\006\3578\364\023\2557\177Pl6\201\014\0315\246\004\2753\255\200_2\035\351\3750<\373\212/\325\374\022.mK\226,\000\000\000\000\000\000\000\000\000\000\000\000\000\000\000\000\000\000\000\000\000\000\000\000\000\000\000\000\000\000\000\000,\372\177?\000\000\000\000\222pZ<\000\000\000\000\005Md9\000\000\000\000\227\203{6\000\000\000\000\017\367\2153\000\000\000\000\022\211\2420\000\000\000\000.\315\273-\000\000\000\000\000\000\000\000\000\000\000\000\000\000\000\000\000\000\000\000\000\000\000\000\000\000\000\000\000\000\000\000\000\000\000\000\000\000\000\000\000\000\000\000\000\000\000\0008\003o?\346\037\233>\034\262?>v\251\017=\374\020{<\264\276\021;\221\367O:G\020\3148\026,\3747\1778Z6\2132q5)\314\2743\225~\27627)\t1\267 \0000(\305+.\026G\025-\000\000\000\000\000\000\000\000\000\000\000\000\000\000\000\000\000\000\000\000\000\000\000\000\000\000\000\000\000\000\000\000\000\000\000\000\000\000\000\000\000\000\000\000\000\000\000\000\000\000\000\000\000\000\000\000\000\000\000\000\000\000\000\000\000\000\000\000\000\000\000\000\000\000\000\000\000\000\000\000\000\000\000\000\000\000\000\000\000\000\000\000\000\000\000\000\000\000\000\000\000\000\000\000\000\000\000\000\000\000\000\000\000\000\000\000\000\000\000\000\000\000\000\000\000\000\000\000\000\000\000\000\204p\177?\223L\207=`\262J;\227\361\3678,T\2036\237\336\3703\211BW1\257`\254.\344{\376+\000\000\000\000\000\000\000\000\000\000\000\000\000\000\000\000\000\000\000\000\000\000\000\000\000\000\000\000\000\000\000\000\000\000\000\000\000\000\000\000\000\000\000\000\000\000\000\000\000\000\000\000\000\000\000\000\000\000\000\000\000\000\000\000?\357\177?\000\000\000\000s%\271<\000\000\000\000\363\t$:\000\000\000\000\0203\2317\000\000\000\000\r\234\0225\000\000\000\000\032K\2162\000\000\000\000\213`\0130\000\000\000\000~g\211-\000\000\000\000\000\000\000\000\000\000\000\000\000\000\000\000\000\000\000\000\000\000\000\000\000\000\000\000\000\000\000\000\000\000\000\000\000\000\000\000 \307F?\276\021\333>B>\334>K#\014>0?\307=cg\304<\275\000d<\265\362=;F\367\276:\177N\2149CU\3748\014\262\2477\020\250\t7>N\2505T\321\3774\307\226\2213I\377\3162\000Q]1\273U\2240Q\004\026/[\306>.J\205\267,\000\000\000\000\000\000\000\000\000\000\000\000\000\000\000\000\000\000\000\000\000\000\000\000\000\000\000\000\000\000\000\000\000\000\000\000\000\000\000\000\000\000\000\000\000\000\000\000\000\000\000\000\000\000\000\000\000\000\000\000\000\000\000\000\000\000\000\000\000\000\000\000\000\000\000\000\000\000\000\000\000\000\000\000\000\000\000\000\000\000\000\000\000\000\000\000\000\000\000\000\000\000\000\000\000\000\000\000\000\000\000\0009\037X?\252\213\373>\375\005O>\247\035\213=\355\352\241<\234\217\250;\r0\240:\034\360\2149B\374g8\215\00147|\201\0046]\000\2724\232\372y3\033d!2I\320\3100\261dq/\302z\014.\200\237\236,\000\000\000\000\000\000\000\000\000\000\000\000\000\000\000\000\000\000\000\000\000\000\000\000\000\000\000\000A\363m?\000\000\000\000\266t\251>\000\000\000\000\254\314\023>\000\000\000\000G\342\207=\000\000\000\000\231\003\000=\000\000\000\000\026\237t<\000\000\000\000\214\340\353;\000\000\000\000\345\352d;\000\000\000\000\227:\337:\000\000\000\000}|Z:\000\000\000\000\366x\3269\000\000\000\000\027\tS9\000\000\000\000\262\020\3208\276\304\177?\341\234-=\356\231Y;0\216\2528^(\2276;\213\2673\222\321\2041\202M\210.\374\r-,\000\000\000\000\000\000\000\000\000\000\000\000\000\000\000\000\000\000\000\000\000\000\000\000\000\000\000\000\000\000\000\000\000\000\000\000\000\000\000\000\000\000\000\000\000\000\000\000\000\000\000\000\000\000\000\000\000\000\000\000\000\000\000\000\000\000\000\000\000\000\000\000\000\000\000\000\000\000\000\000\000\000\000\000\000\000\000\000\000\000\000\000\000\000\000\000\000\000\000\000\000\000\000\000\000\000\000\000\000\000\000\000\000\000\000\000\000\000\000\000\000\000\000\000\000\000\000\000\000\000\000\000\000\000\000\000\000\000\000\000\000\000\000\000\000\000\000\000\000\000\000\000\000\000\000\000\000\000\000\000\000\000\000\000\273m\034?bC\033?\200\360\331>\250\307y>D\353\367=\354\027\\=\341]\262<\371\323\005<\363\331;;:\232x:\000\017\2349\277\317\2728\261\032\3267\372\301\3536k(\3725\3637\0005\317\206\3763`\026\3652^Y\3451\253\345\3200\206s\271/L\253\240.\217\377\207-\257+a,\000\000\000\000\232\375T?\000\000\000\0009b\331>\000\000\000\000\215\335\207>\000\000\000\000\357\0043>\000\000\000\000m\264\361=\000\000\000\000\027|\245=\000\000\000\000\\\260d=\000\000\000\000\t\n\037=\000\000\000\000\335C\336<\000\000\000\000*\343\233<\000\000\000\000\315N[<\000\000\000\0003\242\032<\000\000\000\000\376~\332;\321\343\177?s/\360<\236\216\013:\267A\0277P\224\3703\333\260\3200#\004\214-\000\000\000\000\000\000\000\000\000\000\000\000\000\000\000\000\000\000\000\000\000\000\000\000\000\000\000\000\000\000\000\000\000\000\000\000\000\000\000\000\000\000\000\000\000\000\000\000\000\000\000\000\000\000\000\000\000\000\000\000\000\000\000\000\000\000\000\000\000\000\000\000\000\000\000\000\000\000\000\000\000\000\000\000\000\000\000\000\000\000\000\000\000\000\000\000\000\000\000\000\000\000\000\000\000\000\000\000\000\000\000\000\000\000\000\000\000\000\000\000\000\000\000\000\000\000\000\000\000\000\000\000\000\000\000\000\000\000\000\000\000\000\000\000\000\000\000\000\000\000\000\000\000\000\000\000\000\000\000\000\000\000\000\000\000\000\000\000\000\000\000\000\305\244\177?}\346W=I\356\000;\224v{8\255^\3245Lk 3\321<]0|=\215-\000\000\000\000\000\000\000\000\000\000\000\000\000\000\000\000\000\000\000\000\000\000\000\000\000\000\000\000\000\000\000\000\000\000\000\000\000\000\000\000\000\000\000\000\000\000\000\000\000\000\000\000\000\000\000\000\000\000\000\000\000\000\000\000\000\000\000\000\270\005y?\000\000\000\000\323\331c>\000\000\000\000\204U\177=\000\000\000\000\020\316\226<\000\000\000\000\013\211\266;\000\000\000\000}\023\340:\000\000\000\000\217\315\n:\000\000\000\000$\023-9\000\000\000\000\375\327X8\000\000\000\000\306W\2107\000\000\000\000,\365\2536\000\000\000\000\326d\3315\000\000\000\000\261\260\t5\252\312|?\206\252 >E\374\212<\377\377\313:\225\221\37189\337\r7\242\266\r5\256+\0103A\227\3530%\245\307.T\320\231,\000\000\000\000\000\000\000\000\000\000\000\000\000\000\000\000\000\000\000\000\000\000\000\000\000\000\000\000\000\000\000\000\000\000\000\000\000\000\000\000\000\000\000\000\000\000\000\000\000\000\000\000\000\000\000\000\000\000\000\000\000\000\000\000\000\000\000\000\000\000\000\000\000\000\000\000\000\000\000\000\000\000\000\000\000\000\000\000\000\000\000\000\000\000\000\000\000\000\000\000\000\000\000\000\000\000\000\000\000\000\000\000\000\000\000\000\000\000\000\000\000\000\000\000\000\000\000\000\000\000\000\000\000\000\000\000\000\000\000\000\000\000\000\000\000\000\000\000\000\000\000\000\000\000\000\000\2471\"?Z\365\032?>^\321>\374\370f>6\253\334=:\221<=\233\030\223<\263w\324;\374\210\017;\263\3276:L\366\\9 \232~8\344o\2147\277\331\2246y\007\2305\264\002\2264\211Q\21736\326\2042.No1\036\316Q0\266H3/\300\202\025.c\241\363,\000\000\000\000\000\000\000\000x\247\177?\000\000\000\000\032gT=\000\000\000\000\004!X;\000\000\000\000\016\321g9\000\000\000\000\201\310~7\000\000\000\000\251\377\2155\000\000\000\000N\275\2373\000\000\000\000\036\334\2641\000\000\000\000<\301\315/\000\000\000\000\037\361\352-\000\000\000\000P\207\006,\000\000\000\000\000\000\000\000\000\000\000\000\000\000\000\000&\"|?qI\017=\363.->kJc;\240@B<;zE9i\315\t:\260\313\3546\357\031\2177L\335X4\330p\3524 \257\2401|\222\03623\363\307.J\2576/\275\267\274+\260R6,\000\000\000\000\000\000\000\000\000\000\000\000\000\000\000\000\000\000\000\000\000\000\000\000\000\000\000\000\000\000\000\000\000\000\000\000\000\000\000\000\000\000\000\000\000\000\000\000\000\000\000\000\000\000\000\000\000\000\200?\000\000\000\000\000\000\000\000\000\000\000\000\000\000\000\000\000\000\000\000\000\000\000\000\000\000\000\000\000\000\000\000\000\000\000\000\000\000\000\000\000\000\000\000\000\000\000\000\000\000\000\000\000\000\000\000\000\000\000\000\000\000\000\000\000\000\000\000\000\000\000\000\236`x?LHt>\311\342)=\340\356\300;\221\300=:\337\353\24680\013\0067YPG5\321\234\2123\t\305\2651\272!\342/F\035\006.\010O\030,\000\000\000\000\000\000\000\000\000\000\000\000\000\000\000\000\000\000\000\000\000\000\000\000\000\000\000\000\000\000\000\000\000\000\000\000\000\000\000\000\000\000\000\000\000\000\000\000\253\337\177?\000\000\000\000\333\215\000=\000\000\000\000\2454\236:\000\000\000\000a:M8\000\000\000\000\211f\0106\000\000\000\000*\342\2673\000\000\000\000?.z1\000\000\000\000\267J+/\000\000\000\000\306\256\353,\000\000\000\000\000\000\000\000\000\000\000\000\000\000\000\000\000\000\000\000\000\000\000\000\000\000\000\000\000\000\000\000\245\273o?\236\302\260>\025\334x=\036\340S<\300\355\322:q\032\2139\304#\3427d\025|6\031t\2614!t.3\252\256[1\325Y\303/X\220\340-z\3316,\000\000\000\000\000\000\000\000\000\000\000\000\000\000\000\000\000\000\000\000\000\000\000\000\000\000\000\000\000\000\000\000\000\000\000\000\000\000\000\000\000\000\000\000\000\000\000\000\000\000\000\000\000\000\000\000\000\000\000\000\000\000\000\000\000\000\000\000\000\000\000\000\000\000\000\000\000\000\000\000\000\000\000\000\000\000\000\000\000\000\000\000\000\000\000\000\000\000\000\000\000\000\000\000\000\000\000\000\000\000\000\000\000\000\000\000\000\000\000\000\000\000\000\000\000\000\000\000\000\000\000\000\000\000\000\000\000\000\000\000\000\000\000\000W\216~?N\232\330=WS\002<\314\014\000:\240\352\3317\240\331\2455\276sf3l;\0241h`\262.\n`J,\000\000\000\000\000\000\000\000\000\000\000\000\000\000\000\000\000\000\000\000\000\000\000\000\000\000\000\000\000\000\000\000\000\000\000\000\000\000\000\000\000\000\000\000\000\000\000\000\000\000\000\000\000\000\000\000\000\000\000\000\206\336w?\000\000\000\000c\375s>\000\000\000\000\373\022\223=\000\000\000\000s\346\272<\000\000\000\000E`\363;\000\000\000\000\326\264 ;\000\000\000\000\0341V:\000\000\000\000\263\251\2179\000\000\000\000\300\243\3018\000\000\000\000\305\373\0028\000\000\000\000\365\27017\000\000\000\0003\267q6\000\000\000\000\212\263\2445\324p6?\027\247\027?\364\215\252>`\264#>5/\202=\256\224\301<Yc\373;e\366\035;\227\2461:\014\345D9\321\016F8u\216F7\305S66\215#(5Y\361\0164\037o\3652\315-\3031\251e\2350\025\005l/J\t4.\223\016\000-\000\000\000\000\000\000\000\000\000\000\000\000\000\000\000\000\000\000\000\000\000\000\000\000\000\000\000\000\000\000\000\000\000\000\000\000\000\000\000\000\000\000\000\000\000\000\000\000\000\000\000\000\000\000\000\000\000\000\000\000\000\000\000\000\000\000\000\000\000\000\000\000\000\000\000\000\000\000\000\000\000\000\000\000\000\000\000\000\000\000\000\000\000\000\000\000\000\000\000\000\000\000\000\000\000\000\000\000\000\000\000\000\000\000\000\000i\377\177?h\322\212;\225\354T7\220S\0053\226\231\220.\000\000\000\000\000\000\000\000\000\000\000\000\000\000\000\000\000\000\000\000\000\000\000\000\000\000\000\000\000\000\000\000\000\000\000\000\000\000\000\000\000\000\000\000\000\000\000\000\000\000\000\000\000\000\000\000\000\000\000\000\000\000\000\000\000\000\000\000\000\000\000\000\000\000\000\000\000\000\000\000\274\031o?\000\000\000\000aR\245>\000\000\000\000\307\377\013>\000\000\000\000\257\357y=\000\000\000\000\204\234\344<\000\000\000\000z\022T<\000\000\000\000\360\212\306;\000\000\000\000[\024;;\000\000\000\000\244\037\261:\000\000\000\000GQ(:\000\000\000\000?k\2409\000\000\000\000\241A\0319\000\000\000\000,\264\2228&tz?4JO>$p0=\010\237\250;x\371J:\377A\2268\375\255\0237\245\31285\316I\2353\016\223\2551\253$\0040\205\347\003.\322\347\035,\000\000\000\000\000\000\000\000\000\000\000\000\000\000\000\000\000\000\000\000\000\000\000\000\000\000\000\000\000\000\000\000\000\000\000\000\000\000\000\000\000\000\000\000\000\000\000\000\000\000\000\000\000\000\000\000\000\000\000\000\000\000\000\000\000\000\000\000\000\000\000\000\000\000\000\000\000\000\000\000\000\000\000\000\000\000\000\000\000\000\000\000\000\000\000\000\000\000\000\000\000\000\000\000\000\000\000\000\000\000\000\000\000\000\000\000\000\000\000\000\000\000\000\000\000\000\000\000\000\000\000\000\000\000\000\000\000\000\000\000\000\000\000\000\000\000\000\000\256\304s?J\217\230>\254\006\207=\256\'C<rE\364:1\274\2109\370\275\0138\2348\2046\311\014\3524\262MC3\267\233\2321\310d\351/\334\251(.\016\211a,\000\000\000\000\000\000\000\000\000\000\000\000\000\000\000\000\000\000\000\000\000\000\000\000\000\000\000\000\000\000\000\000\000\000\000\000\000\000\000\000\000\000\000\000\262\315h?\000\000\000\000\023\032\271>\000\000\000\000B@4>\000\000\000\000\242\005\271=\000\000\000\000\375\233B=\000\000\000\000\331\230\317<\000\000\000\000\035~_<\000\000\000\000\243)\362;\000\000\000\000M\323\203;\000\000\000\000\255\r\020;\000\000\000\000\306\340\235:\000\000\000\000[q-:\000\000\000\000t\353\2769e\364\177?`!\203:\245\363\231<\336%67\2476\0279\350\224\2123\235\336;5\325\203\221/\374\326*1\000\000\000\000\332\026\365,\000\000\000\000\000\000\000\000\000\000\000\000\000\000\000\000\000\000\000\000\000\000\000\000\000\000\000\000\000\000\000\000\000\000\000\000\000\000\000\000\000\000\000\000\000\000\000\000\000\000\000\000\000\000\000\000\000\000\000\000\000\000\000\000\000\000\000\000\000\000\000\000\000\000\000\000\000\000\000\000\000\000\000\000\000\000\000\000\000\000\000\000\000\000\000\000\000\000\000\000\000\000\000\000\000\000\000\000\000\000\000\000\000\000\000\000\000\000\000\000\000\000\000\000\000\000\000\000\000\000\000\000\000\000\000\000\000\000\000\000\000\000\000\000\000\000\000\000\000\000\200?\000\000\000\000\001\211&?\342n\032?\303\207\312>\003\336X>\213\033\311=\372\315&=\244\230|<\246\021\261;E7\350:\203\217\017:-e(9kU<8e\252I7>xO6?\255M5E\374D4\254\25363\230V$2\"\256\0171}\211\364/\206\323\312.\000-\244-=\320\201,\000\000\000\000\000\000\000\000\275Eg?\000\000\000\000\314\376\274>\000\000\000\000Z(=>\000\000\000\000\227\217\307=\000\000\000\000K\274W=\000\000\000\000\207\207\354<\000\000\000\000\335\333\202<\000\000\000\0008\273\021<\000\000\000\000\221\022\243;\000\000\000\000\334&7;\000\000\000\000\275N\316:\000\000\000\000<\362h:\000\000\000\000\337\305\003:\017jQ?Q]\377>#/\211>\"*\301=\253\300\022=\223\017 <\224\223F;\023\0147:P\253D9\305\341\0378\r\245\0317K\366\3415+:\3064k\025\2063\030\315Y2\243&\t1\030e\320/\266\210v.K\2260-\000\000\000\000\000\000\000\000\000\000\000\000\000\000\000\000\000\000\000\000\000\000\000\000\000\000\000\000\000\000\000\000\000\000\000\000\000\000\000\000\000\000\000\000\000\000\000\000\000\000\000\000\000\000\000\000\000\000\000\000\000\000\000\000\000\000\000\000\000\000\000\000\000\000\000\000\000\000\000\000\000\000\000\000\000\000\000\000\000\000\000\000\000\000\000\000\000\000\000\000\000\000\000\000\000\000\000\000\000\000\000\000\000\000\000\000\000\000\000\000\000\000\000\000\306i|?;\234)>\266-\241<{\036\372:\230\021(9\010\006J7\024\256]5m4a3e\002V1Q\275?/\266\370\"-\000\000\000\000\000\000\000\000\000\000\000\000\000\000\000\000\000\000\000\000\000\000\000\000\000\000\000\000\000\000\000\000\000\000\000\000\000\000\000\000\000\000\000\000\000\000\000\000\000\000\000\000\000\000\000\000\216\371`?\000\000\000\000+\035\312>\000\000\000\000eb^>\000\000\000\0006\366\000>\000\000\000\000\306C\231=\000\000\000\000A\2738=\000\000\000\000\365\265\340<\000\000\000\000I\216\211<\000\000\000\000W7)<\000\000\000\000\345\356\320;\000\000\000\000l]\201;\000\000\000\000\214\224 ;\000\000\000\000\r\271\307:\026\177\241>\037<`?\202\253A>\357@\233>G\242==m\201k=\004\337\352;\357\204\366;\266\352T:b\026E:\205@\2308\376\364~8\322\313\26369z\21264\322\2644}\246\2014`\\\2362\351PU2\023\247u0\014\200\0340\274\371*.r7\317-\366\327\251+\000\000\000\000\000\000\000\000\000\000\000\000\000\000\000\000\000\000\000\000\000\000\000\000\000\000\000\000\000\000\000\000\000\000\000\000\000\000\000\000\000\000\000\000\000\000\000\000\000\000\000\000\000\000\000\000\000\000\000\000\000\000\000\000\000\000\000\000\000\000\000\000\000\000\000\000\000\000\000\000\000\000\000\000\000\000\000\000\000\000\000\000\000\000\000\000\000\000\000\000\000\000\000\000\000\000\000\000.b\\?|C\361>0\303:>6\026l=2:\201<!\022};h5b:\3362;9&\351\02081\205\3236\251s\2225\253\\A4\344m\3642Mn\2241\227\266-0\213h\304.W\004W-@+\270+\000\000\000\000\000\000\000\000\000\000\000\000\000\000\000\000\000\000\000\000\000\000\000\000\000\000\000\000 \325Y?\000\000\000\000\207|\324>\000\000\000\000\323\332}>\000\000\000\000N\327\037>\000\000\000\000\250B\316=\000\000\000\000\312\367\206=\000\000\000\000/C2=\000\000\000\000\374\367\354<\000\000\000\000wB\236<\000\000\000\000A+T<\000\000\000\000~\243\016<\000\000\000\000+?\300;\000\000\000\000\221\317\201;\247\235H?K\345\221>\360g\005?\272\r\340=\376\335\020>\027v\274<\246\374\306<U\310Z;\243\rH;j\373\3019[\246\2369,&\0138\364\306\3177l\242\'6M\276\3475Y\017.4\315\025\3413\247\315\0362\220\234\3011m5\00106r\225/\223\273\275-\232\337P-\000\000\000\000\000\000\000\000\000\000\000\000\000\000\000\000\000\000\000\000\000\000\000\000\000\000\000\000\000\000\000\000\000\000\000\000\000\000\000\000\000\000\000\000\000\000\000\000\000\000\000\000\000\000\000\000\000\000\000\000\000\000\000\000\000\000\000\000\000\000\000\000\000\000\000\000\000\000\000\000\000\000\000\000\000\000\000\000\000\000\000\000\000\000\000\000\000\000\000\000\000\000\000\000\000\000\000\000\234\344f?\222\321\321>\217\322\006>`x\r=\312\216\000<\034\373\320:\333\016\2339f\007U8\243\342\0107\347\332\2455\277\244>4T\360\3202\261=[1\247\006\335/T\270V.^\205\311,\000\000\000\000\000\000\000\000\000\000\000\000\000\000\000\000\000\000\000\000\000\000\000\000\000\000\000\000\000\000\000\000\000\000\000\000\3723z?\000\000\000\0000dQ>\000\000\000\000\303\236V=\000\000\000\000\371\340g<\000\000\000\000$[\200;\000\000\000\000?\036\220:\000\000\000\000\252N\2439\000\000\000\000\312?\2728\000\000\000\000\314n\3257\000\000\000\000\370|\3656\000\000\000\000\363\227\r6\000\000\000\000^\272#5\000\000\000\000\247\262=4!6{?\211\337=>\354\264R=X\345\267;BM\220:,\033\30389\002z7\353\327\2165G\204\0364\273\277\0372\277\217\2360\010\212\220.\300\364\002-\000\000\000\000\000\000\000\000\000\000\000\000\000\000\000\000\000\000\000\000\000\000\000\000\000\000\000\000\000\000\000\000\000\000\000\000\000\000\000\000\000\000\000\000\000\000\000\000\000\000\000\000\000\000\000\000\000\000\000\000\000\000\000\000\000\000\000\000\000\000\000\000\000\000\000\000\000\000\000\000\000\000\000\000\000\000\000\000\000\000\000\000\000\000\000\000\000\000\000\000\000\000\000\000\000\000\000\000\000\000\000\000\000\000\000\000\000\000\000\000\000\000\000\000\000\000\000\000\000\000\000\000\000\000\000\000\000\000\000\000\000\000\000\000\000\000\000\000\201\374\177?\220D)<\244I\2368\034\267\3614\315\324\0371e\254<-\000\000\000\000\000\000\000\000\000\000\000\000\000\000\000\000\000\000\000\000\000\000\000\000\000\000\000\000\000\000\000\000\000\000\000\000\000\000\000\000\000\000\000\000\000\000\000\000\000\000\000\000\000\000\000\000\000\000\000\000\000\000\000\000\000\000\000\000\000\000\000\000\000\000\000\000\020 |?\000\000\000\000\251{->\000\000\000\000\3332\022=\000\000\000\000\260\336\001<\000\000\000\000wm\354:\000\000\000\000\257B\3329\000\000\000\000\257X\3138\000\000\000\000}\255\2767\000\000\000\000\341\247\2636\000\000\000\000\223\345\2515\000\000\000\000\305#\2414\000\000\000\000\0013\2313\000\000\000\000R\360\2212\254&\031?~%\'?\255M\303>\027 v>\310Z\313=\324\201F=(\352\205<\033\366\334;\206\027\001;\001\332;:\330RD9\3114\20187\211v7!@\2256\033\324\2035\t\230\2244(\213u3\213\375\2012\177\204J1b\323J08\343\025/G\306\016.\363\274\307,\000\000\000\000\000\000\000\000\000\000\000\000\000\000\000\000\000\000\000\000\000\000\000\000\000\000\000\000\000\000\000\000\000\000\000\000\000\000\000\000\000\000\000\000\000\000\000\000\000\000\000\000\000\000\000\000\000\000\000\000\000\000\000\000\000\000\000\000\000\000\000\000\000\000\000\000\000\000\000\000\000\000\000\000\000\000\000\000\000\000\000\000\000\000\000\000\000\000\000\000\000\000\000\000\000\000\000\000(\277|?8\261!>\252I\222<\305 \330:\013D\n9P;\0367\247M%5|\341\0373\034\246\0201i\304\366.\t\260\307,\000\000\000\000\000\000\000\000\000\000\000\000\000\000\000\000\000\000\000\000\000\000\000\000\000\000\000\000\000\000\000\000\000\000\000\000\000\000\000\000\000\000\000\000\000\000\000\000\000\000\000\000\000\000\000\000 \005w?\000\000\000\000\370\345~>\000\000\000\000/\022\241=\000\000\000\000\342\222\326<\000\000\000\000(t\022<\000\000\000\000G\301J;\000\000\000\000\306\244\215:\000\000\000\000\036/\3079\000\000\000\000\253\270\0149\000\000\000\000?\222G8\000\000\000\000\212\356\2157\000\000\000\000\211\\\3126\000\000\000\000\304\213\0206\366\374\177?\321\325\010<\302\346\234;L\260\3017\370\n\0357u*\0263\005\323F2\303\255 .\322=8-\000\000\000\000\000\000\000\000\000\000\000\000\000\000\000\000\000\000\000\000\000\000\000\000\000\000\000\000\000\000\000\000\000\000\000\000\000\000\000\000\000\000\000\000\000\000\000\000\000\000\000\000\000\000\000\000\000\000\000\000\000\000\000\000\000\000\000\000\000\000\000\000\000\000\000\000\000\000\000\000\000\000\000\000\000\000\000\000\000\000\000\000\000\000\000\000\000\000\000\000\000\000\000\000\000\000\000\000\000\000\000\000\000\000\000\000\000\000\000\000\000\000\000\000\000\000\000\000\000\000\000\000\000\000\000\000\000\000\000\000\000\000\200?\000\000\000\000\000\000\000\000\000\000\000\000\000\000\000\000\000\000\000\000\304JY?\271\327\370>\341\201I>\233;\205=\000\224\230<\014I\234;\202\"\222:\276\003}9\275\342L8\\l\0347C\227\3425\267z\2344 \354N3!r\0032\322\354\2400\317U>/L\366\331-\377*r,\000\000\000\000\000\000\000\000\000\000\000\000\000\000\000\000\000\000\000\000\000\000\000\000\000\000\000\000\356T]?\000\000\000\000M\354\317>\000\000\000\000\2579o>\000\000\000\000t\020\021>\000\000\000\000\264F\264=\000\000\000\000\2226c=\000\000\000\000M\201\020=\000\000\000\000;\377\270<\000\000\000\000\231\370m<\000\000\000\000\177\237\031<\000\000\000\000\035\355\306;\000\000\000\0005\032\201;\000\000\000\000\365\347\';\326\371u?\372C\213>w\241U=\363\251\013<\347}\227:\205n\0319\316\342\2077f\241\3505\346l24\205\261\2062\326\315\2700ua\374.^\r\036-\000\000\000\000\000\000\000\000\000\000\000\000\000\000\000\000\000\000\000\000\000\000\000\000\000\000\000\000\000\000\000\000\000\000\000\000\000\000\000\000\000\000\000\000\000\000\000\000\000\000\000\000\000\000\000\000\000\000\000\000\000\000\000\000\000\000\000\000\000\000\000\000\000\000\000\000\000\000\000\000\000\000\000\000\000\000\000\000\000\000\000\000\000\000\000\000\000\000\000\000\000\000\000\000\000\000\000\000\000\000\000\000\000\000\000\000\000\000\000\000\000\000\000\000\000\000\000\000\000\000\000\000\000\000\000\000\000\000\000\000\000\000\000\000\000\000\000\000\235;x?\316zv>z\016-=\315j\306;\016\004E:\307\370\2568\331\332\r7\"\363T5\306\203\2253\356\361\3051Q\235\370/\202\334\024.k\313(,\000\000\000\000\000\000\000\000\000\000\000\000\000\000\000\000\000\000\000\000\000\000\000\000\000\000\000\000\000\000\000\000\000\000\000\000\000\000\000\000\000\000\000\000\000\000\000\000<\275g?\000\000\000\000G\327\273>\000\000\000\000Cz:>\000\000\000\000Q#\303=\000\000\000\000H>Q=\000\000\000\000\007\215\343<\000\000\000\000\267\275y<\000\000\000\000F\357\t<\000\000\000\000\251\030\231;\000\000\000\000\202\215*;\000\000\000\000\300\216\276:\000\000\000\000\354jU:\000\000\000\000n~\3579\257<}?\277\306\025>\356\260\r<\313\210A:Hv\0018\370\370\0106\325\237\2253\256\312\2051\206#\375.\361\234\307,\000\000\000\000\000\000\000\000\000\000\000\000\000\000\000\000\000\000\000\000\000\000\000\000\000\000\000\000\000\000\000\000\000\000\000\000\000\000\000\000\000\000\000\000\000\000\000\000\000\000\000\000\000\000\000\000\000\000\000\000\000\000\000\000\000\000\000\000\000\000\000\000\000\000\000\000\000\000\000\000\000\000\000\000\000\000\000\000\000\000\000\000\000\000\000\000\000\000\000\000\000\000\000\000\000\000\000\000\000\000\000\000\000\000\000\000\000\000\000\000\000\000\000\000\000\000\000\000\000\000\000\000\000\000\000\000\000\000\000\000\000\000\000\000\000\000\000\000\000\000\000\000\000\000\000\000\000\000\000\000\270\340h?\211\250\312>?i\371=\225\237\372<\343\031\332;\363\302\251:\365>q9=\263\0368\331O\3036v\237b5\245u\3713\301\350\2022\243\213\0031\206\377}/\257L\354-\326\006T,\000\000\000\000\000\000\000\000\000\000\000\000\000\000\000\000\000\000\000\000\000\000\000\000\000\000\000\000\000\000\000\000\000\000\000\000\263\251f?\000\000\000\000\020v\276>\000\000\000\000e\234@>\000\000\000\000AR\315=\000\000\000\000\207F`=\000\000\000\000Yt\370<\000\000\000\000u\343\212<\000\000\000\000\000I\034<\000\000\000\000N\264\260;\000\000\000\000\247\207H;\000\000\000\000}<\344:\000\000\000\000\0342\202:\000\000\000\0006\325\024:\371\010o?\337\321\252>\260\356\001>\022o\326<\006\253\346;\032p\223:\022\177\2019\253\350\0138,\327\3246\002\315J5\020\371\t4 \324m2\261\264\0231\3733j/\023\252\006.DbC,\000\000\000\000\000\000\000\000\000\000\000\000\000\000\000\000\000\000\000\000\000\000\000\000\000\000\000\000\000\000\000\000\000\000\000\000\000\000\000\000\000\000\000\000\000\000\000\000\000\000\000\000\000\000\000\000\000\000\000\000\000\000\000\000\000\000\000\000\000\000\000\000\000\000\000\000\000\000\000\000\000\000\000\000\000\000\000\000\000\000\000\000\000\000\000\000\000\000\000\000\000\000\000\000\000\000\000\000\000\000\000\000\000\000\000\000\000\000\000\000\000\000\000\000\000\000\000\000\000\000\000\000\000\000\000\000r\342&?(a\032?K\367\311><\274W>\334\221\307=\013 %=eqy<\215n\256;\0063\344:\264\273\014:\013\255$9\202\27178\023@D7\351gI6\234-G5\306K>4e\t03\324\373\0352\225\311\t1\204\357\351/G\217\301.\361J\234-N\231v,\000\000\000\000\000\000\000\000\346vu?\000\000\000\000\356\214\210>\000\000\000\000\237\021\272=\000\000\000\000.\241\005=\000\000\000\000\244\255D<\000\000\000\000Q\312\222;\000\000\000\000\362!\335:\000\000\000\000\025\244\':\000\000\000\000\225e\1779\000\000\000\000\267C\3038\000\000\000\000\207\272\0258\000\000\000\000\024,f7\000\000\000\000\251D\2616\207\367}?\035\251\363=\340\274&=\022\2708;\027\3032:\260f\0318\262l\3626\253\321\2574\213\240p3z\350\0311\342f\274/\024\000Z-\000\000\000\000\000\000\000\000\000\000\000\000\000\000\000\000\000\000\000\000\000\000\000\000\000\000\000\000\000\000\000\000\000\000\000\000\000\000\000\000\000\000\000\000\000\000\000\000\000\000\000\000\000\000\000\000\000\000\000\000\000\000\000\000\000\000\000\000\000\000\000\000\000\000\000\000\000\000\000\000\000\000\000\000\000\000\000\000\000\000\000\000\000\000\000\000\000\000\000\000\000\000\000\000\000\000\000\000\000\000\000\000\000\000\000\000\000\000\000\000\000\000\000\000\000\000\000\000\000\000\000\000\000\000\000\000\000\000\000\000\000\000\000\000\000\000\000\000\000\000\000\000\340\026v?`N\212>\271\332[=>\255\016<\211_\240:\312;!9\233\371\2237\036w\3735\006\336G4\177\305\2252\364\361\3240xV\020/\303V;-\000\000\000\000\000\000\000\000\000\000\000\000\000\000\000\000\000\000\000\000\000\000\000\000\000\000\000\000\000\000\000\000\000\000\000\000\000\000\000\000\000\000\000\000\000\000\000\000\225\212j?\000\000\000\000\376I\264>\000\000\000\000\202\273)>\000\000\000\000\np\250=\000\000\000\000\324G+=\000\000\000\000c\244\260<\000\000\000\000\276\3317<\000\000\000\000y\227\300;\000\000\000\000N\267J;\000\000\000\000S)\326:\000\000\000\000\340\352b:\000\000\000\000\003\002\3619\000\000\000\000\202=\2009I\321_?\304\016\232>R\206\274>\366\326\225=A\250\201=\250\245\037<o\226\341;_\301j:k\243\017:?\323\2038\220I\0208\354\216o6\001\\\3575\234\30764\245\024\2513ke\3601.\004P1\010\350\212/\025\245\342.\254(\017-<\261L,\000\000\000\000\000\000\000\000\000\000\000\000\000\000\000\000\000\000\000\000\000\000\000\000\000\000\000\000\000\000\000\000\000\000\000\000\000\000\000\000\000\000\000\000\000\000\000\000\000\000\000\000\000\000\000\000\000\000\000\000\000\000\000\000\000\000\000\000\000\000\000\000\000\000\000\000\000\000\000\000\000\000\000\000\000\000\000\000\000\000\000\000\000\000\000\000\000\000\000\000\000\000\000\000\000\000\000\000\000\000\000\000\000\000\000\000\255qK?\033\353\t?\2519\204>\203\002\317=\357U\014=C/*<\201f<;4\030A:\260\03799\350T\'8\350|\0177\244\241\3525\354\252\2674\035\"\2123\2327H2\246.\0141i\020\276/j\000z.\260\311\037-P\236\306+\000\000\000\000\000\000\000\000\000\000\000\000\000\000\000\000\000\000\000\000\360\224^?\000\000\000\000 \017\316>\000\000\000\000\312\242i>\000\000\000\000\306\235\013>\000\000\000\000\026\374\252=\000\000\000\000\t_T=\000\000\000\000m\032\005=\000\000\000\000\233\354\247<\000\000\000\000\360\336T<\000\000\000\0008l\007<\000\000\000\000\207\317\254;\000\000\000\0006\014];\000\000\000\000\244\247\r;\035\177\000?![U?R\254)>\206\247\">\207\356\266<8\326\207<Oy\371:&\220\234:\'\004\3718\207\322\2118\373\020\3046=PD6W\361~4\013\317\3523J(\r2\211\020r1\356\036\210/_D\333.q\271\347,+D\036,\000\000\000\000\000\000\000\000\000\000\000\000\000\000\000\000\000\000\000\000\000\000\000\000\000\000\000\000\000\000\000\000\000\000\000\000\000\000\000\000\000\000\000\000\000\000\000\000\000\000\000\000\000\000\000\000\000\000\000\000\000\000\000\000\000\000\000\000\000\000\000\000\000\000\000\000\000\000\000\000\000\000\000\000\000\000\000\000\000\000\000\000\000\000\000\000\000\000\000\000\000\000\000\000\000\000\000\000\000\000\000\000\000\000\000\000\000\000\000\000\340=T?I\364\001?\360\016a>\253\036\237=\'\333\302<9m\325;0f\325:7\213\3059Q\016\2538\n\246\2137\230PX6\017\275\0375\022\340\3413\252n\2312:\335H1\346\n\376/s\214\233.\250\3138-\3219\323+\000\000\000\000\000\000\000\000\000\000\000\000\000\000\000\000\000\000\000\000\000\000\000\000\n\345y?\000\000\000\000\305mV>\000\000\000\000<Ya=\000\000\000\000\207\242y<\000\000\000\000\021\257\215;\000\000\000\000]\034\243:\000\000\000\000D\202\2759\000\000\000\000\265\232\3358\000\000\000\000o0\0028\000\000\000\000\255\210\0317\000\000\000\000\253\23056\000\000\000\000\036MW5\000\000\000\000\220\304\1774\344j}?\232S\337=\212\301\270=\210\001\274;\351\365[;\272`-9\210\237\2458\214\252\\6\034\216\2665)\201V3\021\271\2362e\262(0\032\347c/\330\233\336,\203\003\342+\000\000\000\000\000\000\000\000\000\000\000\000\000\000\000\000\000\000\000\000\000\000\000\000\000\000\000\000\000\000\000\000\000\000\000\000\000\000\000\000\000\000\000\000\000\000\000\000\000\000\000\000\000\000\000\000\000\000\000\000\000\000\000\000\000\000\000\000\000\000\000\000\000\000\000\000\000\000\000\000\000\000\000\000\000\000\000\000\000\000\000\000\000\000\000\000\000\000\000\000\000\000\000\000\000\000\000\000\000\000\000\000\000\000\000\000\000\000\000\000\000\000\000\000\000\000\000\000\000\000\000\000\000\000\000\000\000\000\000\000\010\274)?\252\340\031?$I\305>\034\206N>\344:\273=\242\321\027=\023\302`<X\007\232;\273z\305:\026\265\3569$\336\0109\316\245\0258\267\247\0347\242\216\0356;\263\0305\202\371\0164 \236\0013\006\000\3441\350\340\3020< \242/wv\203.S\017P-\233\333 ,\000\000\000\000\000\000\000\000\360@}?\000\000\000\000\2461\023>\000\000\000\000J\216\321<\000\000\000\000\377<\235;\000\000\000\000\260\312q:\000\000\000\000-\213<9\000\000\000\000\210`\0248\000\000\000\000\342\013\3536\000\000\000\0000\020\2735\000\000\000\000\007m\2254\000\000\000\000klo3\000\000\000\000nE@2\000\000\000\000\021\266\0321\344#}?\262\241\030>\240Y\3509\345\304!8\325!\2563m\321\2731\017\021%-\000\000\000\000\000\000\000\000\000\000\000\000\000\000\000\000\000\000\000\000\000\000\000\000\000\000\000\000\000\000\000\000\000\000\000\000\000\000\000\000\000\000\000\000\000\000\000\000\000\000\000\000\000\000\000\000\000\000\000\000\000\000\000\000\000\000\000\000\000\000\000\000\000\000\000\000\000\000\000\000\000\000\000\000\000\000\000\000\000\000\000\000\000\000\000\000\000\000\000\000\000\000\000\000\000\000\000\000\000\000\000\000\000\000\000\000\000\000\000\000\000\000\000\000\000\000\000\000\000\000\000\000\000\000\000\000\000\000\000\000\000\000\000\000\000\000\000\000\000\000\000\000\000\000\000\000\000\000\000\000\000\000\000\000\000\000\000\000\000\000\000\000\315\337Q?0K\004?\214\335k>z\255\253=\345n\330<\321\014\364;\2676\373:\333g\3579\322j\3258\222^\2637k\004\2176\217sY5WF\0364\226]\3352\356+\2251::B0\222\334\364.N\275\225-\270b,,\000\000\000\000\000\000\000\000\000\000\000\000\000\000\000\000\000\000\000\000\000\000\000\000\222*s?\000\000\000\000&J\224>\000\000\000\000\242\202\335=\000\000\000\000Ed.=\000\000\000\000\273\257\214<\000\000\000\000\0006\346;\000\000\000\000v\026>;\000\000\000\0007\371\235:\000\000\000\000\031\352\003:\000\000\000\000]\037]9\000\000\000\000\227\337\2718\000\000\000\000\337\235\0348\000\000\000\000\001:\2047\326v^?\242\220\023>\251\271\353>\352\2144=\037\361\313=t\376\361;\226/_<-\322_:\005\305\262:\317\033\2368Y\347\3418\275\270\2646\016\267\3536\264u\2554\362u\3214\000\177\2172?\026\2422W\234P0B)^0\376:\007.\304\237\010.\000\000\000\000\000\000\000\000\000\000\000\000\000\000\000\000\000\000\000\000\000\000\000\000\000\000\000\000\000\000\000\000\000\000\000\000\000\000\000\000\000\000\000\000\000\000\000\000\000\000\000\000\000\000\000\000\000\000\000\000\000\000\000\000\000\000\000\000\000\000\000\000\000\000\000\000\000\000\000\000\000\000\000\000\000\000\000\000\000\000\000\000\000\000\000\000\000\000\000\000\000\000\000\000\000\000\000\000\000\000\000\000\000\000\000\000\010?H?6Z\014?\310\036\213>\0350\341=\203\325\035=\260\344E<^\200b;\264\003p:J\350m9\003U^83\035E7\252\237&6r\332\0065\305\267\3213\332#\2352\266\200c1\334t\0370\026\332\330.{L\217-\037V8,\000\000\000\000\000\000\000\000\000\000\000\000\000\000\000\000\000\000\000\000[L`?\000\000\000\000\025H\313>\000\000\000\000\313\243a>\000\000\000\000\245\000\004>\000\000\000\000\305B\236=\000\000\000\000\031o@=\000\000\000\000\212$\354<\000\000\000\000\325\323\221<\000\000\000\000\351\3704<\000\000\000\000\333j\341;\000\000\000\000\034\315\214;\000\000\000\000\347P0;\000\000\000\000\3759\335:O\374\177?\373\346-<U\207\3208\366\223#5\263\262\2121k\215\250-\000\000\000\000\000\000\000\000\000\000\000\000\000\000\000\000\000\000\000\000\000\000\000\000\000\000\000\000\000\000\000\000\000\000\000\000\000\000\000\000\000\000\000\000\000\000\000\000\000\000\000\000\000\000\000\000\000\000\000\000\000\000\000\000\000\000\000\000\000\000\000\000\000\000\000\000\000\000\000\000\000\000\000\000\000\000\000\000\000\000\000\000\000\000\000\000\000\000\000\000\000\000\000\000\000\000\000\000\000\000\000\000\000\000\000\000\000\000\000\000\000\000\000\000\000\000\000\000\000\000\000\000\000\000\000\000\000\000\000\000\000\000\000\000\000\000\000\000\000\000\000\000\000\000\000\000\000\000\000\000\000\000\000\000\000\000\000\000\000\000\000\000\000\000\000\000\237+`?\217\010\347>\345](>\177]H=\334\177N<sZ>;_. :\324\225\3718\362\342\2657\245\360y6]\352\"5\265\177\3123\363\373p24\304\t1\230\311\227/\232\220!.\335\202\246,\000\000\000\000\000\000\000\000\000\000\000\000\000\000\000\000\000\000\000\000\000\000\000\000\000\000\000\000\000\000\000\000\272\032q?\000\000\000\000#q\235>\000\000\000\000\020\325\373=\000\000\000\000\357LT=\000\000\000\000\345d\267<\000\000\000\000\272\253 <\000\000\000\000u\017\216;\000\000\000\000Q\326\374:\000\000\000\000\307\023b:\000\000\000\000\232\345\3129\000\000\000\000\310\24069\000\000\000\000\335\306\2448\000\000\000\000\024\367\0248\366Kf?\245O\331>_\r\313=p>\335<\223-\222;%\277v:\235\034\0059\006\346\27576p16\211>\3374\362\222:3.T\3241\207\375!0.\224\251.\206\216\357,\000\000\000\000\000\000\000\000\000\000\000\000\000\000\000\000\000\000\000\000\000\000\000\000\000\000\000\000\000\000\000\000\000\000\000\000\000\000\000\000\000\000\000\000\000\000\000\000\000\000\000\000\000\000\000\000\000\000\000\000\000\000\000\000\000\000\000\000\000\000\000\000\000\000\000\000\000\000\000\000\000\000\000\000\000\000\000\000\000\000\000\000\000\000\000\000\000\000\000\000\000\000\000\000\000\000\000\000\000\000\000\000\000\000\000\000\000\000\000\000\000\000\000\000\000\000\000\000\000\000\000\000\000\000\000\000\000\000\000\000\251`[?I\315\363>`\226?>/\333u=@\235\210<\260\313\207;3qv:\234\010O9\226\261\"8\201\023\3616\366q\2515Y\034c4\216\270\0213X\251\2631)sU0i\376\364.\221\"\210->\306\022,\000\000\000\000\000\000\000\000\000\000\000\000\000\000\000\000\000\000\000\000\000\000\000\000\000\000\000\000Q\307_?\000\000\000\000g&\314>\000\000\000\000\261\031d>\000\000\000\000\302R\006>\000\000\000\000V\033\242=\000\000\000\000\205iF=\000\000\000\000;\026\365<\000\000\000\000\263Y\230<\000\000\000\000\340P><\000\000\000\000\017\237\356;\000\000\000\000v\010\226;\000\000\000\000\005\036=;\000\000\000\000\007\333\356:6\204}?\324<\016>I\025w;\362\022\2409\202\237\3046YW\3054\023\353\3051\343\341\247/\366\320\253,\000\000\000\000\000\000\000\000\000\000\000\000\000\000\000\000\000\000\000\000\000\000\000\000\000\000\000\000\000\000\000\000\000\000\000\000\000\000\000\000\000\000\000\000\000\000\000\000\000\000\000\000\000\000\000\000\000\000\000\000\000\000\000\000\000\000\000\000\000\000\000\000\000\000\000\000\000\000\000\000\000\000\000\000\000\000\000\000\000\000\000\000\000\000\000\000\000\000\000\000\000\000\000\000\000\000\000\000\000\000\000\000\000\000\000\000\000\000\000\000\000\000\000\000\000\000\000\000\000\000\000\000\000\000\000\000\000\000\000\000\000\000\000\000\000\000\000\000\000\000\000\000\000\000\000\000\000\000\000\000\000\000\000\000\241\345(?\177\t\032?\335\254\306>\3679Q>{\321\276=+\250\033=\245\322g<\320\322\237;s#\316:Z\253\3729\273\226\0209\316\t\0378\005|\'7\252u)6\2358%5`\240\0334$\357\r3\300)\3731\376\366\3270\023\277\264/\340p\223.\335Mj-\037\3535,\000\000\000\000\000\000\000\000\343\236Q?\000\000\000\0007\361\333>\000\000\000\000\206Q\215>\000\000\000\000\264l?>\000\000\000\000\227\331\004>\000\000\000\000a\003\273=\000\000\000\000\270\327\204=\000\000\000\000\262\362==\000\000\000\000\270s\010=\000\000\000\000\376\304\304<\000\000\000\000\244J\216<\000\000\000\000\342HN<\000\000\000\000A\323\025<\307\355\177?_\227\277<\220\321D;g\"*8\304+w6\031\200%3@QD1\3400\336-\243\274\305+\000\000\000\000\000\000\000\000\000\000\000\000\000\000\000\000\000\000\000\000\000\000\000\000\000\000\000\000\000\000\000\000\000\000\000\000\000\000\000\000\000\000\000\000\000\000\000\000\000\000\000\000\000\000\000\000\000\000\000\000\000\000\000\000\000\000\000\000\000\000\000\000\000\000\000\000\000\000\000\000\000\000\000\000\000\000\000\000\000\000\000\000\000\000\000\000\000\000\000\000\000\000\000\000\000\000\000\000\000\000\000\000\000\000\000\000\000\000\200?\000\000\000\000\000\000\000\000\000\000\000\000\000\000\000\000\000\000\000\000\000\000\000\000\000\000\000\000\000\000\000\000\000\000\000\000\000\000\000\000\000\000\000\000\371@u?\221\246\217>q\373m=\231\364 <\352\214\274:\324\216E9\331\365\2747sT\'6\000\233\2124\330}\3302Oe 1\021\234b/\211C\231-\031L\230+\000\000\000\000\000\000\000\000\000\000\000\000\000\000\000\000\000\000\000\000\000\000\000\000\000\000\000\000\000\000\000\000\000\000\000\000\000\000\000\000\000\000\000\000\016\337k?\000\000\000\000\343K\260>\000\000\000\000\006b!>\000\000\000\000\335\270\233=\000\000\000\000x\370\031=\000\000\000\000\364e\232<\000\000\000\000\017A\034<\000\000\000\000\345\'\237;\000\000\000\000\221\343\";\000\000\000\000oS\247:\000\000\000\000wc,:\000\000\000\000[\007\2629\000\000\000\000\307789\272\245\022?z\343;?\021\210\223>ZCZ>\327^r=\274\337\n=\016\324\373;c\346s;\026\203?:\217\224\2439\271\304e8l\205\2617\336\237c6\243\305\2415\013\013@4\311\036~3\024\030\r2G`/1\332\233\267/#\013\327.=iV-\311zm,\000\000\000\000\000\000\000\000\000\000\000\000\000\000\000\000\000\000\000\000\000\000\000\000\000\000\000\000\000\000\000\000\000\000\000\000\000\000\000\000\000\000\000\000\000\000\000\000\000\000\000\000\000\000\000\000\000\000\000\000\000\000\000\000\000\000\000\000\000\000\000\000\000\000\000\000\000\000\000\000\000\000\000\000\000\000\000\000\000\000\000\000\000\000\000\000\000\000\200?\000\000\000\000\000\000\000\000\000\000\000\000\026E\034?\363C\033?\306*\332>eLz>\210\260\370=G\001]=:J\263<\311\250\006<\2056=;\221\251z:\210\203\2359l\277\2748\325\213\3307;\261\3566[\210\3755\t\025\0025\374>\0014\212)\3712\ng\3511\340\316\3240/\036\275/\275\003\244.\033\371\212-AUf,\000\000\000\000m=}?\000\000\000\000\034\214\023>\000\000\000\000\027\223\322<\000\000\000\000\376c\236;\000\000\000\000b)t:\000\000\000\000\353\333>9\000\000\000\000e\221\0268\000\000\000\000A\032\3576\000\000\000\000.\302\2765\000\000\000\000r\300\2304\000\000\000\000wZu3\000\000\000\000W\204E2\000\000\000\000\206R\0371yN\177?\010\234\226=\3758\311:s\021\2118/~\2015\213\246\0103\031\321\322/\037~;-\000\000\000\000\000\000\000\000\000\000\000\000\000\000\000\000\000\000\000\000\000\000\000\000\000\000\000\000\000\000\000\000\000\000\000\000\000\000\000\000\000\000\000\000\000\000\000\000\000\000\000\000\000\000\000\000\000\000\000\000\000\000\000\000\000\000\000\000\000\000\000\000\000\000\000\000\000\000\000\000\000\000\000\000\000\000\000\000\000\000\000\000\000\000\000\000\000\000\200?\000\000\000\000\000\000\000\000\000\000\000\000\000\000\000\000\000\000\000\000\000\000\000\000\000\000\000\000\000\000\000\000\000\000\000\000\000\000\000\000\000\000\000\000\000\000\000\000\000\000\000\000\000\000\000\000\000\000\000\000\000\000\000\000\000\000\000\000\205{G?\204\346\014?\343\276\214>\213\225\345=\203)\"=6\345L<5Ul;s_|:w\030|9\267jm8i\036T7_\26246N`\0235\000\370\3463vg\2562&t~1o\27230qP\366.q\007\244-\262dS,\000\000\000\000\000\000\000\000\000\000\000\000\000\000\000\000\000\000\000\000x[T?\000\000\000\000$\352\331>\000\000\000\000\346\357\210>\000\000\000\000Si5>\000\000\000\000\332C\366=\000\000\000\000\330\205\251=\000\000\000\000\266\212k=\000\000\000\000\335\261$=\000\000\000\000Yk\347<\000\000\000\000~0\243<\000\000\000\000\343\323f<\000\000\000\000\355\243#<\000\000\000\000~z\350;\017\357C?im\261>Z\251\001?+\224\007>{\036\014>S\372\342<k\210\277<#\034\203;p\240?;\224^\34792;\2279\024*%8#\032\3057\374\002F6\263\305\3325\023\233L4\'u\3233\205\304927\002\2651yj\0260\234\n\213/\332\315\333-\244\214A-\000\000\000\000\000\000\000\000\000\000\000\000\000\000\000\000\000\000\000\000\000\000\000\000\000\000\000\000\000\000\200?\000\000\000\000\000\000\000\000\000\000\000\000\000\000\000\000\000\000\000\000\000\000\000\000\000\000\000\000\000\000\000\000\000\000\000\000\000\000\000\000\000\000\000\000\000\000\000\000\000\000\000\000\000\000\000\000\000\000\000\000\000\000\000\000\000\000\000\000\000\000\000\000\000\000\000\000\327\333O?\343*\006?Z\362t>\351\220\266=\372\256\353<1\021\010<\036l\017;\001\366\013:\013\206\3778x\351\3337\024\215\2636\201\306\2135\212[P4\3453\0253\177\351\3151\031E\2110]51/\313\357\335-\307\017\207,\000\000\000\000\000\000\000\000\000\000\000\000\000\000\000\000\000\000\000\000\000\000\000\000\356]i?\000\000\000\000\327\226\267>\000\000\000\000\222\3430>\000\000\000\000\002\247\263=\000\000\000\000\377\366:=\000\000\000\000\301U\305<\000\000\000\00023R<\000\000\000\000ZZ\341;\000\000\000\000\313\301r;\000\000\000\000i<\003;\000\000\000\000\213O\216:\000\000\000\000S\260\032:\000\000\000\000\rz\2509\360\247\014?#\250Q?\333\006\000>\235Z\334=\217K><\244\263\375;\261\3432:\310\220\3119\366+\3667\211\237t7\317\233\2055\306/\3604\302\202\3572\n\010F2X\32360\251\271\214/\261\016s-\224\225\257,\000\000\000\000\000\000\000\000\000\000\000\000\000\000\000\000\000\000\000\000\000\000\000\000\000\000\000\000\000\000\000\000\000\000\000\000\000\000\000\000\000\000\000\000\000\000\000\000\000\000\000\000\000\000\000\000\000\000\000\000\000\000\000\000\000\000\000\000\000\000\000\000\000\000\000\000\000\000\000\000\000\000\000\000\000\000\000\000\000\000\000\000\000\000\000\000\000\000\000\000\000\000\000\000\000\000\000\000\000\000\000\000\000\000\000\000\000\000\000\000\000\000\000\000\000\000\000\000\213\003\177?<>\263=\261+\262;\367\232\2209{GK7x\227\3774\331\256\2222[\337\0330\233\360\232-\000\000\000\000\000\000\000\000\000\000\000\000\000\000\000\000\000\000\000\000\000\000\000\000\000\000\000\000\000\000\000\000\000\000\000\000\000\000\000\000\000\000\000\000\000\000\000\000\000\000\000\000\000\000\000\000\000\000\000\000\000\000\000\000Pml?\000\000\000\000\346\212\256>\000\000\000\000\353\320\035>\000\000\000\000?i\226=\000\000\000\000\313\344\022=\000\000\000\000Z~\221<\000\000\000\000Xo\021<\000\000\000\000;Q\222;\000\000\000\000:\351\023;\000\000\000\000-\023\226:\000\000\000\000\266\267\030:\000\000\000\000:\307\2339\000\000\000\000\0237\0379\034B:?\036s(?mm/>\3072\267=&\350\206<3A\332;\251:\203:,n\2639\355\334:8-Ta7\203\343\3215\266\356\3444b\252B3=PC2L\302\2310B\236\217/+\205\323-/\206\300,\000\000\000\000\000\000\000\000\000\000\000\000\000\000\000\000\000\000\000\000\000\000\000\000\000\000\000\000\000\000\000\000\000\000\000\000\000\000\000\000\000\000\000\000\000\000\000\000\000\000\000\000\000\000\000\000\000\000\000\000\000\000\000\000\000\000\000\000\000\000\000\000\000\000\000\000\000\000\000\000\000\000\000\000\000\000\000\000\000\000\000\000\000\000\000\000\000\000\000\000\000\000\000\000\000\000\000\000\000\000\000\000\000\000\000\000\000\000\000\000\000\000\000\000\000\000\000\000\020?v?\255E\211>\376pX=\247R\013<aU\233:\211\346\0329\221\002\2157\242\257\35550b;44G\2132\205k\3040\245\016\004/\211\002*-\000\000\000\000\000\000\000\000\000\000\000\000\000\000\000\000\000\000\000\000\000\000\000\000\000\000\000\000\000\000\000\000\000\000\000\000\000\000\000\000\000\000\000\000\000\000\000\000\306\346~?\000\000\000\000\210N\274=\000\000\000\000\355_*<\000\000\000\000\033}\242:\000\000\000\000l\313\0369\000\000\000\000\305b\2357\000\000\000\000`m\0356\000\000\000\000\351|\2364\000\000\000\000-R 3\000\000\000\000[\306\2421\000\000\000\000f\300%0\000\000\000\000\240/\251.\000\000\000\000\263\010--\337>\302>\225\236i?g\362\265=:\256\374=(\'\013<\334\260\025<\373\235\006:\261\306\3649\312\242\2767!\332\2307\272\363T5\341q\0325gl\3042\254\n\2032\347K\0320\231\250\277/p\030S-\361M\366,\000\000\000\000\000\000\000\000\000\000\000\000\000\000\000\000\000\000\000\000\000\000\000\000\000\000\000\000\000\000\000\000\000\000\000\000\000\000\000\000\000\000\000\000\000\000\000\000\000\000\000\000\000\000\000\000\000\000\000\000\000\000\000\000\000\000\000\000\000\000\000\000\000\000\000\000\000\000\000\000\000\000\000\000\000\000\000\000\000\000\000\000\000\000\000\000\000\000\000\000\000\000\000\000\000\000\000\000\000\000\000\000\000\000\000\000\000\000\000\000\000\000\000\000\000\000\000\000$I{?\360\313A>A^\323<\270:<;\223*\2219\202E\3107\2578\3745\300\n\0234\322_ 2q\351$0*\340 .}\242\025,\000\000\000\000\000\000\000\000\000\000\000\000\000\000\000\000\000\000\000\000\000\000\000\000\000\000\000\000\000\000\000\000\000\000\000\000\000\000\000\000\000\000\000\000\000\000\000\000\000\000\000\000=\254\177?\000\000\000\000\312\237N=\000\000\000\000\240\203L;\000\000\000\000\032`U9\000\000\000\000C\036d7\000\000\000\000\320Vw5\000\000\000\000^S\2073\000\000\000\000\360\t\2251\000\000\000\000\311\355\244/\000\000\000\000\0200\267-\000\000\000\000\254y\310+\000\000\000\000\000\000\000\000\000\000\000\000\000\000\000\000\"\220!?j)5?\334\315\206>y\212.>\255\2547=V6\270<\212G\236;\205)\006;\243\251\3079dA\0259\243\254\3067\240V\0067\352<\2435\205\020\3134\355qd3hG\2042u3\0131>m\0270\303<\226.o\227\232-\305@\021,\000\000\000\000\000\000\000\000\000\000\000\000\000\000\000\000\000\000\000\000\000\000\000\000\000\000\000\000\000\000\000\000\000\000\000\000\000\000\000\000\000\000\000\000\000\000\000\000\000\000\000\000\000\000\000\000\000\000\000\000\000\000\000\000\000\000\000\000\000\000\000\000\000\000\000\000\000\000\000\000\000\000\000\000\000\000\000\000\000\000\000\000\000\000\000\000\000\000\000\000\000\000\000\000\000\000\000\000\000\000\000\000\000\000\000\000\t\215F?Y\215\r?\224\267\216>]\371\352=\350\204\'=\007\244U<\250\270x;\220\n\206:\370$\2079\307v\2008\322\261g7I7G6q\377#5\221\265\0014B\267\3052^\224\22111\223O00\221\017/a\325\300-\322I|,\000\000\000\000\000\000\000\000\000\000\000\000\000\000\000\000\000\000\000\000\330\333~?\000\000\000\000\031\340\277=\000\000\000\000Q\3540<\000\000\000\000\342\365\253:\000\000\000\000\266C+9\000\000\000\000\254\375\2547\000\000\000\000_X06\000\000\000\000\227\355\2644\000\000\000\0008\205:3\000\000\000\000\024\377\3001\000\000\000\000\243HH0\000\000\000\000\310W\320.\000\000\000\000\352\'Y-\221r~?\211K\222;\021\312\340=\253<\2259~%\242;\271\304&7\324\361\0239\247\231\2004\257\231E6\033{\2271H/P3\347[\220.Z\03450\000\000\000\000T.\006-\000\000\000\000\000\000\000\000\000\000\000\000\000\000\000\000\000\000\000\000\000\000\000\000\000\000\000\000\000\000\000\000\000\000\000\000\000\000\000\000\000\000\000\000\000\000\000\000\000\000\000\000\000\000\000\000\000\000\000\000\000\000\000\000\000\000\000\000\000\000\000\000\000\000\000\000\000\000\000\000\000\000\000\000\000\000\000\000\000\000\000\000\000\000\000\000\000\000\000\000\000\000\000\000\000\000\000\000\000\000\000\000\000\000\000\000\000\000\000\000\000\000\000\000\000\000\000\000\000\000\000\000\000\000\000\000\000\000\000\000Q\312\177?\235\260%=p\310\227:\206\016\3437\331\023\0235\315l*2\307E4/\345\034.,\000\000\000\000\000\000\000\000\000\000\000\000\000\000\000\000\000\000\000\000\000\000\000\000\000\000\000\000\000\000\000\000\000\000\000\000\000\000\000\000\000\000\000\000\000\000\000\000\000\000\000\000\000\000\000\000\000\000\000\000\000\000\000\000\000\000\000\000\332\241\177?\000\000\000\000\237\000[=\000\000\000\000\314\311e;\000\000\000\000\267%~9\000\000\000\000\332\003\2207\000\000\000\000\277\207\2455\000\000\000\000j\003\3003\000\000\000\000\323,\3401\000\000\000\000T}\0030\000\000\000\000\375\321\032.\000\000\000\000\017\270,,\000\000\000\000\000\000\000\000\000\000\000\000\000\000\000\000\354\226\177?\016\032g=\370\010\225;^\232\0339a\351\r7\212\211e4\003\355*22\250i/\322\256\026-\000\000\000\000\000\000\000\000\000\000\000\000\000\000\000\000\000\000\000\000\000\000\000\000\000\000\000\000\000\000\000\000\000\000\000\000\000\000\000\000\000\000\000\000\000\000\000\000\000\000\000\000\000\000\000\000\000\000\000\000\000\000\000\000\000\000\000\000\000\000\000\000\000\000\000\000\000\000\000\000\000\000\000\000\000\000\000\000\000\000\000\000\000\000\000\000\000\000\000\000\000\000\000\000\000\000\000\000\000\000\000\000\000\000\000\000\000\000\000\000\000\000\000\000\000\000\000\000\000\000\000\000\000\000\000\000\000\000\000\000\000\000\000\000\000\000\000\000\000\000\000\000\000\000\000\000\000\000\000\000\000\000\000\000i\317\177?\244\243\035=ta\211:\327\202\3037*\366\3604\004\320\0042z\246\005/\005\206\365+\000\000\000\000\000\000\000\000\000\000\000\000\000\000\000\000\000\000\000\000\000\000\000\000\000\000\000\000\000\000\000\000\000\000\000\000\000\000\000\000\000\000\000\000\000\000\000\000\000\000\000\000\000\000\000\000\000\000\000\000\000\000\000\000\000\000\000\000\252:W?\000\000\000\000LO\327>\000\000\000\000-\346\203>\000\000\000\000EX*>\000\000\000\000\354m\341=\000\000\000\000~G\227=\000\000\000\000\350\350L=\000\000\000\000\276\254\013=\000\000\000\000ET\277<\000\000\000\000\023\207\203<\000\000\000\000\301]5<\000\000\000\000\362\257\372;\000\000\000\000l\230\255;\360\361\037<:\306z?\n\260a;\270KL>\371\001\002:\017Q\266<\025v=8\337\214\340:D\026J6W;\3238\006\010*4C\302\2406\261A\3541\016yM4\356\310\213/pZ\3421`\013\020-\327\031[/\000\000\000\000\034\240\274,\000\000\000\000\000\000\000\000\000\000\000\000\000\000\000\000\000\000\000\000\000\000\000\000\000\000\000\000\000\000\000\000\000\000\000\000\000\000\000\000\000\000\000\000\000\000\000\000\000\000\000\000\000\000\000\000\000\000\000\000\000\000\000\000\000\000\000\000\000\000\000\000\000\000\000\000\000\000\000\000\000\000\000\000\000\000\000\000\000\000\000\000\000\000\000\000\000\000\000\000\000\000\000\000\000\000\200?\000\000\000\000\000\000\000\000\000\000\000\000Y-Z?3\275\366>\246OE>\255\324\200=;\262\221<\326_\223;V\025\210:\031\254h9\360\017:8\254G\0147\276\253\3105\300\331\2104R\26523\2446\3401X\211\2070\204N\036/\350\007\263-ElD,\000\000\000\000\000\000\000\000\000\000\000\000\000\000\000\000\000\000\000\000\000\000\000\000\000\000\000\000/A{?\000\000\000\000\273\325>>\000\000\000\000\032\2051=\000\000\000\000\006\021.<\000\000\000\000,\345.;\000\000\000\000y82:\000\000\000\000wH79\000\000\000\000\227\265=8\000\000\000\000\177ME7\000\000\000\000h\365M6\000\000\000\000,\240W5\000\000\000\0001Ib4\000\000\000\000\241\361m3\335^\252>@\023h?\327;\r>\327%^>\3230\277<\346\360\350<\355\260#;\362\215(;m\'M9\350M:9\215\321J7\247\231&7\300\220%5\3523\3724:4\3462y\356\2412\245]\2130H,80Nq\025.q\316\272-\000\000\000\000\000\000\000\000\000\000\000\000\000\000\000\000\000\000\000\000\000\000\000\000\000\000\000\000\000\000\000\000\000\000\000\000\000\000\000\000\000\000\000\000\000\000\000\000\000\000\000\000\000\000\000\000\000\000\000\000\000\000\000\000\000\000\000\000\000\000\000\000\000\000\000\000\000\000\000\000\000\000\000\000\000\000\000\000\000\000\000\000\000\000\000\000\000\000\000\000\000\000\000\000\000\000\000\000\000\000\000\000\000\000\000\000\000\000\000\000\007\351w?\366L{>c 4=-\326\322;P\270U:l\305\3018\217` 7\220\310u5\003,\2603\267\033\3561\001\247\0300\232\237:.;\350O,\000\000\000\000\000\000\000\000\000\000\000\000\000\000\000\000\000\000\000\000\000\000\000\000\000\000\000\000\000\000\000\000\000\000\000\000\000\000\000\000\000\000\000\000\000\000\000\000U\362~?\000\000\000\000Ot\270=\000\000\000\000(r#<\000\000\000\000\036\252\230:\000\000\000\000\234\035\0229\000\000\000\000\334\324\2157\000\000\000\000\033\361\n6\000\000\000\000\365\375\2104\000\000\000\000\247\267\0073\000\000\000\000\243\363\2061\000\000\000\000\235\225\0060\000\000\000\000\362\211\206.\000\000\000\000\210\302\006-\243U\177?\335\371W;\n[\223=s\354\0179\264\336\n;1 R6\351\212%8\262\262S3\325o\0205\230\345\"0\233\320\3061\247\321\312,\301\370a.\000\000\000\000\000\000\000\000\000\000\000\000\000\000\000\000\000\000\000\000\000\000\000\000\000\000\000\000\000\000\000\000\000\000\000\000\000\000\000\000\000\000\000\000\000\000\000\000\000\000\000\000\000\000\000\000\000\000\000\000\000\000\000\000\000\000\000\000\000\000\000\000\000\000\000\000\000\000\000\000\000\000\000\000\000\000\000\000\000\000\000\000\000\000\000\000\000\000\000\000\000\000\000\000\000\000\000\000\000\000\000\000\000\000\000\000\000\000\000\000\000\000\000\000\000\000\000\000\000\000\000\000\000\000\000\000\000\000\000\000\000\000\000\000\000\000\000\000\264\376%?@\203\032?\032f\313>^\236Z>\014\177\313=!l)=\225\303\200<\3704\265;\360\211\356:\224\006\024:\236I.9\246\250C8\247LR7\375*Y6d\032X5q\300O4\216aA3G\241.2\007A\0311O\350\0020\333\371\331.\237\032\261-]\226\214,\000\000\000\000\000\000\000\000\231/R?\000\000\000\000\320\216\333>\000\000\000\000;r\214>\000\000\000\000af=>\000\000\000\000\270\334\002>\000\000\000\000\005f\267=\000\000\000\000\226\262\201=\000\000\000\000\010\2418=\000\000\000\000\016\013\004=\000\000\000\000[\221\275<\000\000\000\000\345y\210<\000\000\000\000\033\372D<\000\000\000\000Mn\016<\001\246\\?\254i)>\330\037\356>_\035S=\264\323\321=\213\030\020<K\337i<5\275\207:\010\313\276:\352Q\3038+\216\3658\030b\3436\234z\0027(H\3364\007.\3544\344H\2732o$\2722\345\246\2120\307\354\2010\216\0257.o\273\".\034\212\257+\000\000\000\000\000\000\000\000\000\000\000\000\000\000\000\000\000\000\000\000\000\000\000\000\000\000\000\000\000\000\000\000\000\000\000\000\000\000\000\000\000\000\200?\000\000\000\000\000\000\000\000\000\000\000\000\000\000\000\000\000\000\000\000\000\000\000\000\000\000\000\000\000\000\000\000\000\000\000\000\000\000\000\000\000\000\000\000\000\000\000\000\000\000\000\000\000\000\000\000\000\000\000\000\000\000\000\000\000\000\000\000\003\3021?O\323\027?\314c\267>\016\3364>9{\232=\233\007\354<F\232$<\030\215T;\304^\200:\2710\2229\327\360\2358\335\261\2427\377t\2406\255\n\2305\300\323\2124\377\354t3\3101Q2OW-1\356\225\0130\261\317\332.\305(\247-u\003t,\000\000\000\000\000\000\000\000\000\000\000\000a\236Q?\000\000\000\000\215\361\333>\000\000\000\000MR\215>\000\000\000\000\204n?>\000\000\000\000^\333\004>\000\000\000\000\237\006\273=\000\000\000\000\215\332\204=\000\000\000\000~\367==\000\000\000\000\265w\010=\000\000\000\000\206\313\304<\000\000\000\000\355O\216<\000\000\000\000]QN<\000\000\000\000\001\332\025<\272\304\376>\323wZ?\223K\341=\340\024\337=\005\254\"<\274\210\371;\035\222\024:\n\235\3009\365\241\3067\212\033c7\245zQ5\333\244\3304\270j\2662\325\211-2=H\0070P\237o/\312\273.-\024\324\207,\000\000\000\000\000\000\000\000\000\000\000\000\000\000\000\000\000\000\000\000\000\000\000\000\000\000\000\000\000\000\000\000\000\000\000\000\000\000\000\000\000\000\000\000\000\000\000\000\000\000\000\000\000\000\000\000\000\000\000\000\000\000\000\000\000\000\000\000\000\000\000\000\000\000\000\000\000\000\000\000\000\000\000\000\000\000\000\000\000\000\000\000\000\000\000\000\000\000\000\000\000\000\000\000\000\000\000\000\000\000\000\000\000\000\000\000\000\000\000\000\000\000\000\000\000\000\000\000\306\330\177?\257\247\r=\237\325]:\000\323\2157J\014\2354\325\213\2331\304\242\214.\000\000\000\000\000\000\000\000\000\000\000\000\000\000\000\000\000\000\000\000\000\000\000\000\000\000\000\000\000\000\000\000\000\000\000\000\000\000\000\000\000\000\000\000\000\000\000\000\000\000\000\000\000\000\000\000\000\000\000\000\000\000\000\000\000\000\000\000\000\000\000\000\363\276o?\000\000\000\000\366\341\242>\000\000\000\000`\210\007>\000\000\000\000<\300m=\000\000\000\0006\256\325<\000\000\000\000q\305B<\000\000\000\000\360+\263;\000\000\000\000c\343%;\000\000\000\000\207S\232:\000\000\000\000\326\031\020:\000\000\000\000\300\362\2069\000\000\000\000\227[\3758\000\000\000\000\316Mn8\354o\377>qtP?{mZ>\004\324M>g\201\030=\343\241\336<\257\257\206;t,&;\247\037\2569\206v=9o\221\2617\014\304.7\300\205\2255\274^\0075\231sV3E\277\2642\n\354\0051\262\rT0\337!\224.\264\335\335-\375-$,\000\000\000\000\000\000\000\000\000\000\000\000\000\000\000\000\000\000\000\000\000\000\000\000\000\000\000\000\000\000\000\000\000\000\000\000\000\000\000\000\000\000\000\000\000\000\000\000\000\000\000\000\000\000\000\000\000\000\000\000\000\000\000\000\000\000\000\000\000\000\000\000\000\000\000\000\000\000\000\000\000\000\000\000\000\000\000\000\000\000\000\000\000\000\000\000\000\000\000\000\000\000\000\000\000\000\000\000\000\000\000\000\000\000\000\000(?f?\236\r\324>\225\030\n>\006\334\022=HA\007<F\325\336:\332\220\2479YQi8\271\361\0277\177\225\2725\360\\Y4no\3612\326`\2001C+\00301%\201.\272\256\365,\000\000\000\000\000\000\000\000\000\000\000\000\000\000\000\000\000\000\000\000\000\000\000\000\000\000\000\000\000\000\000\000\000\000\000\000Q\020r?\000\000\000\000\337S\231>\000\000\000\000N\345\355=\000\000\000\000h\211B=\000\000\000\000G\002\243<\000\000\000\0008\207\n<\000\000\000\000=\236m;\000\000\000\000\343\034\315:\000\000\000\000B\3471:\000\000\000\000\262\337\2329\000\000\000\000\2558\0079\000\000\000\000\220\260l8\000\000\000\000P\217\3177@R\177?\336\217\210<\377\377\220=\"\0333:\361x\006;\206\251\2007\375\276\0358a\036\1774\352p\0075\r.A1\'v\2671\333\260\354-\3112M.\000\000\000\000\000\000\000\000\000\000\000\000\000\000\000\000\000\000\000\000\000\000\000\000\000\000\000\000\000\000\000\000\000\000\000\000\000\000\000\000\000\000\000\000\000\000\000\000\000\000\000\000\000\000\000\000\000\000\000\000\000\000\000\000\000\000\000\000\000\000\000\000\000\000\000\000\000\000\000\000\000\000\000\000\000\000\000\000\000\000\000\000\000\000\000\000\000\000\000\000\000\000\000\000\000\000\000\000\000\000\000\000\000\000\000\000\000\000\000\000\000\000\000\000\000\000\000\000\000\000\000\000\000\000\000\000\000\000\000\000\000\000\000\000\000\000\000\000\025Tw?`\334\201>z\332@=\265\330\351;o\220u:$\245\3468\343\301E74\373\2345\035!\3513\0315#2\221\311X0=G\211.Pu\246,\000\000\000\000\000\000\000\000\000\000\000\000\000\000\000\000\000\000\000\000\000\000\000\000\000\000\000\000\000\000\000\000\000\000\000\000\000\000\000\000\000\000\000\000\000\000\000\000 gp?\000\000\000\000/N\240>\000\000\000\000>\353\002>\000\000\000\000\354ga=\000\000\000\000\307\325\306<\000\000\000\000g\3421<\000\000\000\000\245\233\240;\000\000\000\000\266\362\021;\000\000\000\000,C\205:\000\000\000\000#B\3649\000\000\000\000r\202`9\000\000\000\000\277\331\3168\000\000\000\000U\365>8\311q\351>\310\215\\?jm\031>@a\'>\300\252\244<X&\213<6\214\337:\246\247\237:e \3368A\350\2138\025\032\2566NaF6[[a4\2364\3543\356k\3701\263fr1\353xn/\270\223\332.\n8\310,D\225$,\000\000\000\000\000\000\000\000\000\000\000\000\000\000\000\000\000\000\000\000\000\000\000\000\000\000\000\000\000\000\000\000\000\000\000\000\000\000\000\000\000\000\000\000\000\000\000\000\000\000\000\000\000\000\000\000\000\000\000\000\000\000\000\000\000\000\000\000\000\000\000\000\000\000\000\000\000\000\000\000\000\000\000\000\000\000\000\000\000\000\000\000\000\000\000\000\000\000\000\000\000\000\000\000\000\000\000\000\000\000\000\000\000\000\000\000\000\000\000\000\020^w?\202\225\201>w\000@=\355G\350;\244\\s:\250\r\3448o\026C7\355\201\23251\356\3443\250\346\0372\312\350S0S\341\205.\370\367\241,\000\000\000\000\000\000\000\000\000\000\000\000\000\000\000\000\000\000\000\000\000\000\000\000\000\000\000\000\000\000\000\000\000\000\000\000\000\000\000\000\000\000\000\000\000\000\000\000\242\271\177?\000\000\000\000\322s==\000\000\000\000\021\346+;\000\000\000\000\206h$9\000\000\000\000\240 !7\000\000\000\000\356& 5\000\000\000\000V\246 3\000\000\000\000(1\"1\000\000\000\000\323\210$/\000\000\000\000\036\207\'-\000\000\000\000\000\000\000\000\000\000\000\000\000\000\000\000\000\000\000\000\000\000\000\000\300\025r?\217\227X>[}y>\327\337\000=4\360\321<2\000(;\222t\337:\345 \0279B\025\2568\t\253\3176\313\364U6\"\336f4H\"\3313\200\205\3271\021\252;1\233h-/\035>\215.1+o,\000\000\000\000\000\000\000\000\000\000\000\000\000\000\000\000\000\000\000\000\000\000\000\000\000\000\000\000\000\000\000\000\000\000\000\000\000\000\000\000\000\000\000\000\000\000\000\000\000\000\000\000\000\000\000\000\000\000\000\000\000\000\000\000\000\000\000\000\000\000\000\000\000\000\000\000\000\000\000\000\000\000\000\000\000\000\000\000\000\000\000\000\000\000\000\000\000\000\000\000\000\000\000\000\000\000\000\000\000\000\000\000\000\000\000\000\000\000\000\000\000\000\000\000\000\000\000\000\215\034i?\271\310\311>\027\004\367=\343\345\366<\302\267\325;Mw\245:|\344i9\243\013\0318$Z\2736u;X5\347\301\3543\275*w2\205\014\3670Y>m/8\212\333-\305:B,\000\000\000\000\000\000\000\000\000\000\000\000\000\000\000\000\000\000\000\000\000\000\000\000\000\000\000\000\000\000\000\000\000\000\000\000\032\235`?\000\000\000\000\023\276\312>\000\000\000\000%!`>\000\000\000\000m\226\002>\000\000\000\000\021\356\233=\000\000\000\000\333\324<=\000\000\000\000m\310\346<\000\000\000\000\245\360\215<\000\000\000\000$o/<\000\000\000\0002\242\331;\000\000\000\000jc\207;\000\000\000\000\316\331(;\000\000\000\000Q\000\323:\362\377\177?\n%\255:\242\021E5\022\350\0310\000\000\000\000\000\000\000\000\000\000\000\000\000\000\000\000\000\000\000\000\000\000\000\000\000\000\000\000\000\000\000\000\000\000\000\000\000\000\000\000\000\000\000\000\000\000\000\000\000\000\000\000\000\000\000\000\000\000\000\000\000\000\000\000\000\000\000\000\000\000\000\000\000\000\000\000\000\000\000\000\000\000\000\000\000\000\000\000\000\000\000\000\000\000\000\000\000\000\000\000\000\000\000\000\000\000\000\000\000\000\000\000\000\000\000\000\000\000\000\000\000\000\000\000\000\000\000\000\000\000\000\000\000\000\000\000\000\000\000\000\000\000\000\000\000\000\000\000\000\000\000\000\000\000\000\000\000\000\000\000\000\000\000\000\000\000\000\000\000\000\000\000\000\000\000\000\000\000\000\000\000\000\000\000\313h\034?tC\033?\226\367\331>\311\327y>8\003\370=>4\\=\214z\262<\307\355\005<1\004<;\032\332x:\033<\2349\274\013\2738Of\3267\317\034\3546\323\220\3725\224q\0005a\001\3773E\224\3652\212\326\3451d^\3210\247\344\271/x\022\241.B[\210-\371\245W,\000\000\000\000=ba?\000\000\000\0001c\311>\000\000\000\000Rc\\>\000\000\000\000.:\376=\000\000\000\000\224@\226=\000\000\000\000D\0374=\000\000\000\000\227\353\331<\000\000\000\000\252\255\204<\000\000\000\000\235U\"<\000\000\000\000yZ\307;\000\000\000\000\203\210u;\000\000\000\000\013\221\027;\000\000\000\000a~\273:\341q,?nd:?44\334=\344j\211=6\227\345;\016\366];Je\2279\302f\3678\332#\0227\377\234R6\323\214^4\242\016\2213j\354\2131P\311\2470\250\327\225.\375E\247-\006\222\252+\000\000\000\000\000\000\000\000\000\000\000\000\000\000\000\000\000\000\000\000\000\000\000\000\000\000\000\000\000\000\000\000\000\000\000\000\000\000\200?\000\000\000\000\000\000\000\000\000\000\000\000\000\000\000\000\000\000\000\000\000\000\000\000\000\000\000\000\000\000\000\000\000\000\000\000\000\000\000\000\000\000\000\000\000\000\000\000\000\000\000\000\000\000\000\000\000\000\000\000\000\000\000\000\000\000\000\000\000\000\000\000\000\000\000\000\000\000\000\000\000\000\000\000\000\000\000\000\000\000\000\000yBh?5\360\314>\303\273\377=\221G\002=\252\350\345;ur\265::\271\2029\024c.8\037\234\3316\004\002\2005$\337\0164Y\n\2302\317\350\0321\377\243\227/\206\n\017.\245Z\202,\000\000\000\000\000\000\000\000\000\000\000\000\000\000\000\000\000\000\000\000\000\000\000\000\000\000\000\000\000\000\000\000\000\000\000\000\342S~?\000\000\000\000\367l\347=\000\000\000\000\000\365\200<\000\000\000\000\274}\027;\000\000\000\000\225[\2669\000\000\000\000\223\240^8\000\000\000\000\257%\t7\000\000\000\000\346\021\2525\000\000\000\000H\350S4\000\000\000\000\251\201\0043\000\000\000\000G3\2461\000\000\000\000\276\365P0\000\000\000\000\346\236\003/\rxy?\326|a>\224?0=K\363\267;wVK:>c\2448E^\0247\254\277J5\223y\2363\332\374\2761\241\205\0050\262\215\021._M+,\000\000\000\000\000\000\000\000\000\000\000\000\000\000\000\000\000\000\000\000\000\000\000\000\000\000\000\000\000\000\000\000\000\000\000\000\000\000\000\000\000\000\000\000\000\000\000\000\000\000\000\000\000\000\000\000\000\000\000\000\000\000\000\000\000\000\000\000\000\000\000\000\000\000\000\000\000\000\000\000\000\000\000\000\000\000\000\000\000\000\000\000\000\000\000\000\000\000\000\000\000\000\000\000\000\000\000\000\000\000\000\000\000\000\000\000\000\000\000\000\000\000\000\000\000\000\000\000\000\000\000\000\000\000\000\000\000\000\000\000\000\000\000\000\000\000\000\000e\227\177?\311%g=\216\320\023;\273[\2328\230\230\0136\306\325a3C\302\2460\030\001\344-\000\000\000\000\000\000\000\000\000\000\000\000\000\000\000\000\000\000\000\000\000\000\000\000\000\000\000\000\000\000\000\000\000\000\000\000\000\000\000\000\000\000\000\000\000\000\000\000\000\000\000\000\000\000\000\000\000\000\000\000\000\000\000\000\000\000\000\000\335^s?\000\000\000\0002Q\223>\000\000\000\000Wn\332=\000\000\000\000=\262*=\000\000\000\000\366\257\210<\000\000\000\000\205\003\336;\000\000\000\000\324\3665;\000\000\000\000\303\032\226:\000\000\000\000\204\325\3709\000\000\000\000j\003O9\000\000\000\000!\272\2548\000\000\000\000\274v\0208\000\000\000\000%!r7\252n:?Tk/?u\272\025<\241\255\242;F^D8\003C\2457Z\341\"4\201\264g3Z\305\305/\016\036\370.\000\000\000\000\000\000\000\000\000\000\000\000\000\000\000\000\000\000\000\000\000\000\000\000\000\000\000\000\000\000\000\000\000\000\000\000\000\000\000\000\000\000\000\000\000\000\000\000\000\000\000\000\000\000\000\000\000\000\000\000\000\000\000\000\000\000\000\000\000\000\000\000\000\000\000\000\000\000\000\000\000\000\000\000\000\000\000\000\000\000\000\000\000\000\000\000\000\000\000\000\000\000\000\000\000\000\000\000\000\000\000\000\000\000\000\000\000\000\000\000\000\000\000\000\000\000\000\000\000\000\000\000\000\000\000\000\000\000\000\000\000\000\000\000\000\000\000\000\000\000\000\000\000\000\000\000\000\000\000\000\305\306)?\215\336\031?@7\305>}cN>\031\r\273=\324\240\027=\215h`<&\276\231;\271\r\305:\374\036\3569\221}\0109\2720\0258!!\03471\373\0346\240\030\0305\311]\0164\005\007\0013\301\344\3421\334\337\3010\371=\241/\357\264\202.\034\315N-\354\036\022,\000\000\000\000\000\000\000\000#\330~?\000\000\000\000\316\021\301=\000\000\000\000q$3<\000\000\000\000\0106\257:\000\000\000\000\022\231/9\000\000\000\000h{\2627\000\000\000\000\350\02576\000\000\000\000\377\005\2754\000\000\000\000\001\027D3\000\000\000\000(,\3141\000\000\000\000n6U0\000\000\000\000^/\337.\000\000\000\000D\026j-\3564\305>w\250j?\375\237\200=\254\272\260=e\377\210;\005\316\221;\345\22189\244\004&9k\000\2666|`\22060\221\r4&)\3133\252\33151\317\016\3600\000\360F.\023{\364-\237\005\241+\000\000\000\000\000\000\000\000\000\000\000\000\000\000\000\000\000\000\000\000\000\000\000\000\000\000\000\000\000\000\000\000\000\000\000\000\000\000\000\000\000\000\000\000\000\000\000\000\000\000\000\000\000\000\000\000\000\000\000\000\000\000\000\000\000\000\000\000\000\000\000\000\000\000\000\000\000\000\000\000\000\000\000\000\000\000\000\000\000\000\000\000\000\000\000\000\000\000\000\000\000\000\000\000\000\000\000\000\000\000\000\000\000\000\000\000\000\000\000\000\000\000\000\000\000\000\000\000\000\000\000\000D\333\177?g\025\t=^\275O:\253\205\2007Q\270\2114\377\376\2031\233\364f.\000\000\000\000\000\000\000\000\000\000\000\000\000\000\000\000\000\000\000\000\000\000\000\000\000\000\000\000\000\000\000\000\000\000\000\000\000\000\000\000\000\000\000\000\000\000\000\000\000\000\000\000\000\000\000\000\000\000\000\000\000\000\000\000\000\000\000\000\000\000\000\000!\226}?\000\000\000\000\004N\n>\000\000\000\000J\304\270<\000\000\000\0008\030\202;\000\000\000\000M\271;:\000\000\000\000\256\\\t9\000\000\000\000\377\337\3127\000\000\000\000S\311\2266\000\000\000\000\3557a5\000\000\000\000\\\321(4\000\000\000\000v\323\3752\000\000\000\000\252F\2771\000\000\000\000\004m\2200!JM?\337f\030?\035[==\341Q\242<\305\233\216:Yb\2759\221\332\2077Dz\23067s=4$\206;3\203e\3200\331\225\272/sI=-\000\000\000\000\000\000\000\000\000\000\000\000\000\000\000\000\000\000\000\000\000\000\000\000\000\000\000\000\000\000\000\000\000\000\000\000\000\000\000\000\000\000\000\000\000\000\000\000\000\000\000\000\000\000\000\000\000\000\000\000\000\000\000\000\000\000\000\000\000\000\000\000\000\000\000\000\000\000\000\000\000\000\000\000\000\000\000\000\000\000\000\000\000\000\000\000\000\000\000\000\000\000\000\000\000\000\000\000\000\000\000\000\000\000\000\000\000\000\000\000\000\000\000\000\000\000\200?\000\000\000\000\000\000\000\000\000\000\000\000\000\000\000\000\000\000\000\000\2635\177?\213\213\240=\326\323\216;\036\177O9\263\207\0027>\343\2224\244\344\0262d\202\217/\363W\377,\000\000\000\000\000\000\000\000\000\000\000\000\000\000\000\000\000\000\000\000\000\000\000\000\000\000\000\000\000\000\000\000\000\000\000\000\000\000\000\000\000\000\000\000\000\000\000\000\000\000\000\000\000\000\000\000\000\000\000\000\000\000\000\000\373\227{?\000\000\000\000\223R8>\000\000\000\0008c%=\000\000\000\000\312l\034<\000\000\000\000\003\232\027;\000\000\000\000\334\002\025:\000\000\000\000\240\320\0239\000\000\000\000\316\223\0238\000\000\000\000\375\013\0247\000\000\000\000\035\021\0256\000\000\000\000\343\210\0265\000\000\000\000Xa\0304\000\000\000\000\337\215\0323\212\363\177?R\266\237<=\312\2779\2270\2126w\256j3\330\372\0020L&\301,