node {
  name: "global_step/Initializer/zeros"
  op: "Const"
  attr {
    key: "_class"
    value {
      list {
        s: "loc:@global_step"
      }
    }
  }
  attr {
    key: "_output_shapes"
    value {
      list {
        shape {
        }
      }
    }
  }
  attr {
    key: "dtype"
    value {
      type: DT_INT64
    }
  }
  attr {
    key: "value"
    value {
      tensor {
        dtype: DT_INT64
        tensor_shape {
        }
        int64_val: 0
      }
    }
  }
}
node {
  name: "global_step"
  op: "VariableV2"
  attr {
    key: "_class"
    value {
      list {
        s: "loc:@global_step"
      }
    }
  }
  attr {
    key: "_output_shapes"
    value {
      list {
        shape {
        }
      }
    }
  }
  attr {
    key: "container"
    value {
      s: ""
    }
  }
  attr {
    key: "dtype"
    value {
      type: DT_INT64
    }
  }
  attr {
    key: "shape"
    value {
      shape {
      }
    }
  }
  attr {
    key: "shared_name"
    value {
      s: ""
    }
  }
}
node {
  name: "global_step/Assign"
  op: "Assign"
  input: "global_step"
  input: "global_step/Initializer/zeros"
  attr {
    key: "T"
    value {
      type: DT_INT64
    }
  }
  attr {
    key: "_class"
    value {
      list {
        s: "loc:@global_step"
      }
    }
  }
  attr {
    key: "_output_shapes"
    value {
      list {
        shape {
        }
      }
    }
  }
  attr {
    key: "use_locking"
    value {
      b: true
    }
  }
  attr {
    key: "validate_shape"
    value {
      b: true
    }
  }
}
node {
  name: "global_step/read"
  op: "Identity"
  input: "global_step"
  attr {
    key: "T"
    value {
      type: DT_INT64
    }
  }
  attr {
    key: "_class"
    value {
      list {
        s: "loc:@global_step"
      }
    }
  }
  attr {
    key: "_output_shapes"
    value {
      list {
        shape {
        }
      }
    }
  }
}
node {
  name: "global_step/IsVariableInitialized"
  op: "IsVariableInitialized"
  input: "global_step"
  attr {
    key: "_class"
    value {
      list {
        s: "loc:@global_step"
      }
    }
  }
  attr {
    key: "_output_shapes"
    value {
      list {
        shape {
        }
      }
    }
  }
  attr {
    key: "dtype"
    value {
      type: DT_INT64
    }
  }
}
node {
  name: "global_step/cond/Switch"
  op: "Switch"
  input: "global_step/IsVariableInitialized"
  input: "global_step/IsVariableInitialized"
  attr {
    key: "T"
    value {
      type: DT_BOOL
    }
  }
  attr {
    key: "_output_shapes"
    value {
      list {
        shape {
        }
        shape {
        }
      }
    }
  }
}
node {
  name: "global_step/cond/switch_t"
  op: "Identity"
  input: "global_step/cond/Switch:1"
  attr {
    key: "T"
    value {
      type: DT_BOOL
    }
  }
  attr {
    key: "_output_shapes"
    value {
      list {
        shape {
        }
      }
    }
  }
}
node {
  name: "global_step/cond/switch_f"
  op: "Identity"
  input: "global_step/cond/Switch"
  attr {
    key: "T"
    value {
      type: DT_BOOL
    }
  }
  attr {
    key: "_output_shapes"
    value {
      list {
        shape {
        }
      }
    }
  }
}
node {
  name: "global_step/cond/pred_id"
  op: "Identity"
  input: "global_step/IsVariableInitialized"
  attr {
    key: "T"
    value {
      type: DT_BOOL
    }
  }
  attr {
    key: "_output_shapes"
    value {
      list {
        shape {
        }
      }
    }
  }
}
node {
  name: "global_step/cond/read"
  op: "Identity"
  input: "global_step/cond/read/Switch:1"
  attr {
    key: "T"
    value {
      type: DT_INT64
    }
  }
  attr {
    key: "_output_shapes"
    value {
      list {
        shape {
        }
      }
    }
  }
}
node {
  name: "global_step/cond/read/Switch"
  op: "RefSwitch"
  input: "global_step"
  input: "global_step/cond/pred_id"
  attr {
    key: "T"
    value {
      type: DT_INT64
    }
  }
  attr {
    key: "_class"
    value {
      list {
        s: "loc:@global_step"
      }
    }
  }
  attr {
    key: "_output_shapes"
    value {
      list {
        shape {
        }
        shape {
        }
      }
    }
  }
}
node {
  name: "global_step/cond/Switch_1"
  op: "Switch"
  input: "global_step/Initializer/zeros"
  input: "global_step/cond/pred_id"
  attr {
    key: "T"
    value {
      type: DT_INT64
    }
  }
  attr {
    key: "_class"
    value {
      list {
        s: "loc:@global_step"
      }
    }
  }
  attr {
    key: "_output_shapes"
    value {
      list {
        shape {
        }
        shape {
        }
      }
    }
  }
}
node {
  name: "global_step/cond/Merge"
  op: "Merge"
  input: "global_step/cond/Switch_1"
  input: "global_step/cond/read"
  attr {
    key: "N"
    value {
      i: 2
    }
  }
  attr {
    key: "T"
    value {
      type: DT_INT64
    }
  }
  attr {
    key: "_output_shapes"
    value {
      list {
        shape {
        }
        shape {
        }
      }
    }
  }
}
node {
  name: "global_step/add/y"
  op: "Const"
  attr {
    key: "_output_shapes"
    value {
      list {
        shape {
        }
      }
    }
  }
  attr {
    key: "dtype"
    value {
      type: DT_INT64
    }
  }
  attr {
    key: "value"
    value {
      tensor {
        dtype: DT_INT64
        tensor_shape {
        }
        int64_val: 0
      }
    }
  }
}
node {
  name: "global_step/add"
  op: "Add"
  input: "global_step/cond/Merge"
  input: "global_step/add/y"
  attr {
    key: "T"
    value {
      type: DT_INT64
    }
  }
  attr {
    key: "_output_shapes"
    value {
      list {
        shape {
        }
      }
    }
  }
}
node {
  name: "dnn/input_from_feature_columns/input_layer/coefficients/Const"
  op: "Const"
  attr {
    key: "_output_shapes"
    value {
      list {
        shape {
          dim {
            size: 5000
          }
          dim {
            size: 25
          }
        }
      }
    }
  }
  attr {
    key: "dtype"
    value {
      type: DT_DOUBLE
    }
  }
  attr {
    key: "value"
    value {
      tensor {
        dtype: DT_DOUBLE
        tensor_shape {
          dim {
            size: 5000
          }
          dim {
            size: 25
          }
        }
        tensor_content: "\000\000\000\000\000\000\000\000\000\000\000\000\000\000\000\000\000\000\000\000\000\000\000\000\000\000\000\000\000\000\000\000\000\000\000\000\000\000\000\000\000\000\000\000\000\000\000\000\000\000\000\000\000\000\000\000\000\000\000\000\000\000\000\000\000\000\000\000\000\000\000\000\000\000\000\000\000\000\000\000\000\000\000\000\000\000\000\000\000\000\000\000\000\000\000\000\000\000\000\000\000\000\000\000\000\000\000\000\000\000\000\000\000\000\000\000\000\000\000\000\000\000\000\000\000\000\360?\000\000\000\000\000\000\000\000\000\000\000\000\000\000\000\000\000\000\000\000\000\000\000\000\000\000\000\000\000\000\000\000\000\000\000\000\000\000\000\000\000\000\000\000\000\000\000\000\000\000\000\000\000\000\000\000\000\000\000\000\000\000\000\000\000\000\000\000\000\000\000\000\313\274\324\2104\307\303?\262<\225\"\032\\\357?\270\372\252X\247\341\240?Q\360G0_\350\276?\377\316:\367\242\207g?\310\226\363kO\257\200?!t\360\200\t\276$?\265\206\261\377\205\3348?\"Q>\n?\304\332>f\013\321%-K\354>Ff\016O\363>\213>)\324\254\222\005\r\232>\270$\237~\202\3466>f\305\255\2551$D>\221\352prgd\340=N\016\233D\357\327\352=(\0354\2656\225\202=\362\207=\337\243C\215=\000\000\000\000\000\000\000\000\000\000\000\000\000\000\000\000\000\000\000\000\000\000\000\000\000\000\000\000\000\000\000\000\000\000\000\000\000\000\000\000\000\000\000\000\000\000\000\000\000\000\000\000\000\000\000\000\t\344z\377\377\377\357?\000\000\000\000\000\000\000\000\000\000\000\000\000\000\000\000\253)\014\260\030\023\007?\000\000\000\000\000\000\000\000\000\000\000\000\000\000\000\000b\023n\021\236\303\375=\000\000\000\000\000\000\000\000\000\000\000\000\000\000\000\000\000\000\000\000\000\000\000\000\000\000\000\000\000\000\000\000\000\000\000\000\000\000\000\000\000\000\000\000\000\000\000\000\000\000\000\000\000\000\000\000\000\000\000\000\000\000\000\000\000\000\000\000\000\000\000\000\000\000\000\000\000\000\000\000\000\000\000\000\000\000\000\000\000\000\000\000\000\000\000\000\000\000\000\000\000\000\000\000\000\000\000\000\000\000\000\000\000\000\000\000\000\000\000\000\000\000\000\000\000\000\000\000\000\000\000\000\000\000\000\000\000\000\000\000\000\000\000\000\233\204\'\243\222\374\345?\000\000\000\000\000\000\000\000\244\037\362#v\373\333?\000\000\000\000\000\000\000\000\023`\246\227\257\261\325?\000\000\000\000\000\000\000\000+Z\213\024\273\202\321?\000\000\000\000\000\000\000\000\326yv\204\261\223\314?\000\000\000\000\000\000\000\000L7\326rxZ\307?\000\000\000\000\000\000\000\000k\266>FF\014\303?\000\000\000\000\000\000\000\0003\207\017\361j\371\276?\000\000\000\000\000\000\000\000\336\343\225\224u\030\271?\000\000\000\000\000\000\000\000\031\241\312.\366B\264?\000\000\000\000\000\000\000\000\235\311\263\241\360M\260?\000\000\000\000\000\000\000\000,\270\310?\305(\252?\000\000\000\000\000\000\000\000\323\214]\212\351\354\244?\000\000\000\000\000\000\000\000\000\000\000\000\000\000\000\000\000\000\000\000\000\000\000\000\000\000\000\000\000\000\000\000\000\000\000\000\000\000\000\000\000\000\000\000\000\000\000\000\000\000\000\000\000\000\000\000\000\000\000\000\000\000\360?\000\000\000\000\000\000\000\000\000\000\000\000\000\000\000\000\000\000\000\000\000\000\000\000\000\000\000\000\000\000\000\000\000\000\000\000\000\000\000\000\000\000\000\000\000\000\000\000\000\000\000\000\000\000\000\000\000\000\000\000\000\000\000\000\000\000\000\000\000\000\000\000\000\000\000\000\000\000\000\000\000\000\000\000\000\000\000\000\000\000\000\000\000\000\000\000\000\000\000\000\000\000\000\000\000\000\000\000\000\000\000\000\000\000\000\000\000\000\000\000\000\000\000\000\000\000\000\000\000\000\000\000\000\000\000\000\203Q\001\376\271\024\340?\333\205\203\216\351\242\353?\243EP\315Y\006\235?\217\r\\\325\214\314\234?W\314\021*\026cE?t1\331D\376o@?0\2121R\025\357\343>-\235\013n\207\345\331>\204\030\276|\2272{>\302h8\347*)o>\264\231{\335sE\r>7\246M\300\305U\376=A(8\271G\003\232=\000\000\000\000\000\000\000\000\000\000\000\000\000\000\000\000\000\000\000\000\000\000\000\000\000\000\000\000\000\000\000\000\000\000\000\000\000\000\000\000\000\000\000\000\000\000\000\000\000\000\000\000\000\000\000\000\000\000\000\000\000\000\000\000\000\000\000\000\000\000\000\000\000\000\000\000\000\000\000\000\000\000\000\000\000\000\000\000\000\000\000\000\000\000\000\000\350\211\270G\374\377\357?\000\000\000\000\000\000\000\000\000\000\000\000\000\000\000\000\274\345\326\260\347\333^?\000\000\000\000\000\000\000\000\000\000\000\000\000\000\000\000\237\353\215\260\365\235\252>\000\000\000\000\000\000\000\000\000\000\000\000\000\000\000\000\343\366~E\246g\346=\000\000\000\000\000\000\000\000\000\000\000\000\000\000\000\000\000\000\000\000\000\000\000\000\000\000\000\000\000\000\000\000\000\000\000\000\000\000\000\000\000\000\000\000\000\000\000\000\000\000\000\000\000\000\000\000\000\000\000\000\000\000\000\000\000\000\000\000\000\000\000\000\000\000\000\000\000\000\000\000\000\000\000\000\000\000\000\000\000\000\000\000\000\000\000\000\000\000\000\000\000\000\000\000\000\000\000\000\000\000\000\000\000\000\000\000\000\000\000\000|\306[I\0101\357?\000\000\000\000\000\000\000\000\242^\342\264\336\203\313?\000\000\000\000\000\000\000\000\230\025#?\377\304\255?\000\000\000\000\000\000\000\000\375\305P\312K\000\221?\000\000\000\000\000\000\000\000\025}\363\003\376\355s?\000\000\000\000\000\000\000\000\270\016\240\234\260\273W?\000\000\000\000\000\000\000\000\365\236\361\\Q\222<?\000\000\000\000\000\000\000\000=\372\341)\347V!?\000\000\000\000\000\000\000\000\177:K\312\013/\005?\000\000\000\000\000\000\000\000o8\377Bw\005\352>\000\000\000\000\000\000\000\000\177\303\344\205m\016\320>\000\000\000\000\000\000\000\000o\177\352\362R\345\263>\000\000\000\000\000\000\000\000\376\207\325\244\021\276\230>\000\000\000\000\000\000\000\000\000\000\000\000\000\000\000\000\000\000\000\000\000\000\000\000\000\000\000\000\000\000\000\000\000\000\000\000\000\000\000\000\000\000\000\000\000\000\000\000\000\000\000\000\000\000\000\000\000\000\000\000\000\000\000\000\000\000\000\000\000\000\000\000\000\000\000\000\000\000\000\000\000\000\000\000\000\000\000\000\000\000\000\000\000\000\000\000\000\000\000\000\000\000\000\000\000\000\000\000\000\000\000\000\000\000\000\000\000\000\000\000\000\000\000\000\000\000\000\000\000\000\000\000\000\000\000\000\000\000\000\000\000\000\000\000\000\000\000\000\000\000\000\000\000\000\000\000\000\000\000\000\000\000\000\000\000\000\000\000\000\000\000\000\000\000\360?\000\000\000\000\000\000\000\000\000\000\000\000\000\000\000\000\000\000\000\000\000\000\000\000\231.\331B\332J\353?\027a\222N\260\217\337?m\t\312gA\301\304?\242\365\204,\331\266\253?y\253\254..\306\211?\2562\322\320\255\250j?\1777\255\341=>D?JJ\273\004$\262!?\374\3323~\031F\367>\315I1\237Y\361\321>\tH)\203q\033\245>\357\352\211~\034p}>+\271\025\267\307\234O>DkfS7G$>\262\307\021f%)\364=G7\273\270\'\024\310=\364\363\344\265\243d\226=\000\000\000\000\000\000\000\000\000\000\000\000\000\000\000\000\000\000\000\000\000\000\000\000\000\000\000\000\000\000\000\000\000\000\000\000\000\000\000\000\000\000\000\000\000\000\000\000\000\000\000\000\000\000\000\000\000\000\000\000\000\000\000\000\227\331\r\316\224 \356?\000\000\000\000\000\000\000\000\000\000\000\000\000\000\000\000:\317\014\227\"\201\325?\000\000\000\000\000\000\000\000\000\000\000\000\000\000\000\000\177;\002*Iu\233?\000\000\000\000\000\000\000\000\000\000\000\000\000\000\000\000\007%\233\211\215\033Q?\000\000\000\000\000\000\000\000\000\000\000\000\000\000\000\000v\213\"\332KX\372>\000\000\000\000\000\000\000\000\000\000\000\000\000\000\000\000?\373\332\206\3345\234>\000\000\000\000\000\000\000\000\000\000\000\000\000\000\000\000v\225\265\336\232\2166>\000\000\000\000\000\000\000\000\000\000\000\000\000\000\000\000-\315\257\262oA\314=\000\000\000\000\000\000\000\000\000\000\000\000\000\000\000\000\000\000\000\000\000\000\000\000E\300\204H\317d\355?\000\000\000\000\000\000\000\000?\000\313\323\202\251\330?\000\000\000\000\000\000\000\000\001/\244\260\2625\266?\000\000\000\000\000\000\000\000\002\203\366\316\370%\217?\000\000\000\000\000\000\000\000\237\356\337\273\006\332b?\000\000\000\000\000\000\000\000\026yV\323\000\2444?\000\000\000\000\000\000\000\000\314\214\327`\360\373\004?\000\000\000\000\000\000\000\000N:\315+\330\"\324>\000\000\000\000\000\000\000\000#\375\310\371\377p\242>\000\000\000\000\000\000\000\000o@\306pV?p>\000\000\000\000\000\000\000\000\220\330n\266\017\265;>\000\000\000\000\000\000\000\000VZ(D\233\371\006>\000\000\000\000\000\000\000\000\333y\263\000\251\234\322=\000\000\000\000\000\000\000\000\000\000\000\000\000\000\000\000\000\000\000\000\000\000\000\000\000\000\000\000\000\000\000\000\000\000\000\000\000\000\000\000\000\000\000\000\000\000\000\000\000\000\000\000\000\000\000\000\000\000\000\000\000\000\000\000\000\000\000\000\000\000\000\000\000\000\000\000\000\000\000\000\000\000\000\000\000\000\000\000\000\000\000\000\000\000\000\000\000\000\000\000\000\000\360?\000\000\000\000\000\000\000\000\000\000\000\000\000\000\000\000\000\000\000\000\000\000\000\000\000\000\000\000\000\000\000\000\000\000\000\000\000\000\000\000\000\000\000\000\000\000\000\000\000\000\000\000\000\000\000\000\000\000\000\000\000\000\000\000\000\000\000\000\000\000\000\000\000\000\000\000\000\000\000\000\000\000\000\000\000\000\000\000\000\000\000\000\000\000\000\000\034rB\036)\010\322?\322#\235\002R\"\356?]\277T\311\255\216\265?Q\312\240\374\246\314\304?\232\260\270\233\365\n\205?^)\265\003\010t\217?U\265\245Lc\373I?\3201h\257CiP?q\314J\231\002{\007?\024\340\t\010\343(\n?\010\220\221\221\013\275\300>:\\3\000;\336\300>V7\027G\234\264s>f5\031\303MDr>\243e\263s\255\301#>\341\000\314\263\255\014!>\303w\016\234\300?\321=\020&\324\222\023\367\313=<\252:/f,z=\000\000\000\000\000\000\000\000\000\000\000\000\000\000\000\000\000\000\000\000\000\000\000\000\000\000\000\000\000\000\000\000\000\000\000\000\000\000\000\000\000\000\000\000\000\000\000\000\361\315\347\343\250g\357?\000\000\000\000\000\000\000\000\000\000\000\000\000\000\000\000*\225\323\241\371\213\310?\000\000\000\000\000\000\000\000\000\000\000\000\000\000\000\000ZXD\360&)\201?\000\000\000\000\000\000\000\000\000\000\000\000\000\000\000\000\233\331\335m\201j\'?\000\000\000\000\000\000\000\000\000\000\000\000\000\000\000\000B\377\0013F\276\303>\000\000\000\000\000\000\000\000\000\000\000\000\000\000\000\000o\340\003\206\205&W>\000\000\000\000\000\000\000\000\000\000\000\000\000\000\000\000\225\034\256\2666E\344=\000\000\000\000\000\000\000\000\000\000\000\000\000\000\000\000\000\000\000\000\000\000\000\000\000\000\000\000\000\000\000\000\000\000\000\000\000\000\000\000\000\000\000\000\000\000\000\000\'\354\223\361\234\330\356?\000\000\000\000\000\000\000\000\211`\341V\355%\320?\000\000\000\000\000\000\000\000-\331\342\233\274V\264?\000\000\000\000\000\000\000\000\017\330E\003\032Q\233?\000\000\000\000\000\000\000\000m\351\023\366\373\224\204?\000\000\000\000\000\000\000\000\374IQ\302\354\230r?\000\000\000\000\000\000\000\000\"\321H\\\345,c?\000\000\000\000\000\000\000\000-\002\032\"\211\210T?\000\000\000\000\000\000\000\000*\037\307\317#\322E?\000\000\000\000\000\000\000\000\034F\344\240\033\3016?\000\000\000\000\000\000\000\000gQt\365JH\'?\000\000\000\000\000\000\000\000\376\231\373\364\310o\027?\000\000\000\000\000\000\000\000\327\007\327\\+F\007?\000\000\000\000\000\000\000\000\000\000\000\000\000\000\000\000\000\000\000\000\000\000\000\000\000\000\000\000\000\000\000\000\000\000\000\000\000\000\000\000\000\000\000\000\000\000\000\000\000\000\000\000\000\000\000\000\000\000\000\000\000\000\000\000\000\000\000\000\000\000\000\000\000\000\000\000\000\000\000\000\000\000\000\000\000\000\000\000\000\000\000\000\000\000\000\000\000\000\000\000\000\000\000\000\000\000\000\000\000\000\000\000\000\000\000\000\000\000\000\000\000\000\000\000\000\000\000\000\000\000\000\000\000\000\000\000\000\000\000\000\000\000\000\000\000\000\000\000\000\000\000\000\000\000\000\000\000\000\000\000\000\000\000\000\000\000\000\000\000\000\000\000\000\000\000\000\000\000\000\000\000\000\360?\000\000\000\000\000\000\000\000\000\000\000\000\000\000\000\000D\263e\316\344\213\357?k\367szT\204\272?\204\001$\342\025\326\300?L\341&\373aW\200?4\321\247\352\260X}?\266\\$\213<\0206?\361\330\242\337\377,0?5\260\271\314t\216\344>\216\"\274\264\211\032\332>gL\352\242~A\215>j\301\230\326>\235\200>\254\343\316L\307\3270>\200\357\360\'\224v!>\375\t\341\233\355H\320=\034\313\314x\247C\277=\022\260\216\200O\375q=\000\000\000\000\000\000\000\000\000\000\000\000\000\000\000\000\000\000\000\000\000\000\000\000\000\000\000\000\000\000\000\000\000\000\000\000\000\000\000\000\000\000\000\000\000\000\000\000\000\000\000\000\000\000\000\000\000\000\000\000\000\000\000\000\000\000\000\000\000\000\000\000\277(EH\234\314\357?\000\000\000\000\000\000\000\000\000\000\000\000\000\000\000\000\237\201\n:\333\236\274?\000\000\000\000\000\000\000\000\000\000\000\000\000\000\000\000x\n+\257@\ng?\000\000\000\000\000\000\000\000\000\000\000\000\000\000\000\000\002\\\026\371\304\031\002?\000\000\000\000\000\000\000\000\000\000\000\000\000\000\000\000\270D\367\221\337\222\221>\000\000\000\000\000\000\000\000\000\000\000\000\000\000\000\000\003\374\311\227y\272\027>\000\000\000\000\000\000\000\000\000\000\000\000\000\000\000\000,\231gd\215\354\227=\000\000\000\000\000\000\000\000\000\000\000\000\000\000\000\000\000\000\000\000\000\000\000\000\000\000\000\000\000\000\000\000\000\000\000\000\000\000\000\000\000\000\000\000\000\000\000\000\202\3624Z\203\016\357?\000\000\000\000\000\000\000\000\344\002\2761&\307\316?\000\000\000\000\000\000\000\000\342\344\2204\237\324\220?\000\000\000\000\000\000\000\0006\330\270w\315S>?\000\000\000\000\000\000\000\000\371r\032\005\244\014\364>\000\000\000\000\000\000\000\000\354\352\251\340d\234\244>\000\000\000\000\000\000\000\000\365-*\340\312\030X>\000\000\000\000\000\000\000\000\246\365D\340H)\013>\000\000\000\000\000\000\000\000l\235S^\261\347\274=\000\000\000\000\000\000\000\000\000\000\000\000\000\000\000\000\000\000\000\000\000\000\000\000\000\000\000\000\000\000\000\000\000\000\000\000\000\000\000\000\000\000\000\000\000\000\000\000\000\000\000\000\000\000\000\000\000\000\000\000\000\000\000\000\000\000\000\000\000\000\000\000\000\000\000\000\000\000\360?\000\000\000\000\000\000\000\000\000\000\000\000\000\000\000\000\000\000\000\000\000\000\000\000\000\000\000\000\000\000\000\000\000\000\000\000\000\000\000\000\000\000\000\000\000\000\000\000\000\000\000\000\000\000\000\000\000\000\000\000\000\000\000\000\000\000\000\000\000\000\000\000\000\000\000\000\000\000\000\000\000\000\000\000\000\000\000\000\000\000\000\000\000\000\000\000\000\000\000\000\000\000\000\000\000\000\000\000\000\000\000\000\000\000\000\000\000\000\000\000\000\000\000\000\000\000\000\000\000\000\000\000\000\000\000\000\000\000\000\000\000\000\000\000\000\000\000\000\000\000\000\000\000\000\000\000\000\000\000\000\000\000\000\000\000\000\000\000\000\000\000\000\000\000\000\000\000\000\000\000\000\000\000\000\304\201\353<\213\234\334?\273\360\305?\022\255\352?\201r\375\031\217\322\313?\332\302\343\312\023\364\315?j\333\252H,\027\246?\353\270\032\334\372k\242?:\215\013\321\222/v?i\303F\014\333Eo?\357\336\342c\365N@?\356Wc\030\016F4?\312+\242\237\240\351\002?\276\345=\2429D\365>\000-\364\216:\034\302>\346wf\362\200\273\262>\231\342\270\361\263\211}>kN\021\003gql>\327\331`\177\000\3724>\006\227\221\246A\371\">\220@P\260\253b\352=\233\261=\2325\223\326=\266\300\337#h\274\235=\246d)?\256;\210=\000\000\000\000\000\000\000\000\000\000\000\000\000\000\000\000\000\000\000\000\000\000\000\000\350\344\217\334\377\377\357?\000\000\000\000\000\000\000\000\000\000\000\000\000\000\000\000\304\020>\261\330\3177?\000\000\000\000\000\000\000\000\000\000\000\000\000\000\000\000\355\252\324\235V\262_>\000\000\000\000\000\000\000\000\000\000\000\000\000\000\000\000\000\000\000\000\000\000\000\000\000\000\000\000\000\000\000\000\000\000\000\000\000\000\000\000\000\000\000\000\000\000\000\000\000\000\000\000\000\000\000\000\000\000\000\000\000\000\000\000\000\000\000\000\000\000\000\000\000\000\000\000\000\000\000\000\000\000\000\000\000\000\000\000\000\000\000\000\000\000\000\000\000\000\000\000\000\000\000\000\000\000\000\000\000\000\000\000\000\000\000\000\000\000\000\000\000\000\000\000\000\000\000\000\000\000\000\000\000\000\000\000\000\000\000\000\000\000\000\0007\\\366\372\n\273\352?\000\000\000\000\000\000\000\000\366\3404\343\037G\340?\000\000\000\000\000\000\000\000\035\010\205\253jF\311?\000\000\000\000\000\000\000\000\027m\323@0b\260?\000\000\000\000\000\000\000\000\217)*\346\202\032\223?\000\000\000\000\000\000\000\000\316\240\242\371\263\270t?\000\000\000\000\000\000\000\000\365{d\3224NU?\000\000\000\000\000\000\000\000\326\261sL\311\0025?\000\000\000\000\000\000\000\000^s\'\270n\010\024?\000\000\000\000\000\000\000\000Z\255\251\363\216\222\362>\000\000\000\000\000\000\000\000\372\035\247;V\320\320>\000\000\000\000\000\000\000\000zyB\3428\323\255>\000\000\000\000\000\000\000\000B\260H\177p\373\211>\000\000\000\000\000\000\000\000\000\000\000\000\000\000\000\000\000\000\000\000\000\000\000\000\000\000\000\000\000\000\000\000\000\000\000\000\000\000\000\000\000\000\000\000\000\000\000\000\000\000\000\000\000\000\000\000\000\000\000\000\000\000\000\000\000\000\000\000\000\000\000\000\000\000\000\000\000\000\000\000\000\000\000\000\000\000\000\000\000\000\000\000\000\000\000\000\000\000\000\000\000\000\000\000\000\000\000\000\000\000\000\000\000\000\000\000\000\000\000\000\000\000\000\000\000\000\000\000\000\000\000\000\000\000\000\000\000\000\000\000\000\000\000\000\000\000\000\000\000\000\360?\000\000\000\000\000\000\000\000\000\000\000\000\000\000\000\000\000\000\000\000\000\000\000\000\000\000\000\000\000\000\000\000\000\000\000\000\000\000\000\000\000\000\000\000\000\000\000\000;2\257\225l\n\340?\2438\266V\244\260\352?\010\"\357q\017\034\305?E\024\372+fG\304?$\017\t\204\270\256\226?\021\256*\261\335\340\220?\220\364\207\367C\324^?\310\3759EacS?;.j\032A\253\036?\367y\227+\213\002\021?\341\257\363\220\370\020\330>\226\204\374F\262%\310>\264\314\035I\0160\217>\0325\333\033\370\310|>\315F\207k\2765A>\237\244\244D\027\223->\213lg<<\212\360=\270G\307\236\332\247\332=\316Q\354o\217&\234=\260%<\237D\336\203=\000\000\000\000\000\000\000\000\000\000\000\000\000\000\000\000\000\000\000\000\000\000\000\000\000\000\000\000\000\000\000\000\000\000\000\000\000\000\000\000X\001w\366\377\377\357?\000\000\000\000\000\000\000\000\000\000\000\000\000\000\000\000\023\'\204\261\005\264(?\000\000\000\000\000\000\000\000\000\000\000\000\000\000\000\000\0304N\213\225\016A>\000\000\000\000\000\000\000\000\000\000\000\000\000\000\000\000\000\000\000\000\000\000\000\000\000\000\000\000\000\000\000\000\000\000\000\000\000\000\000\000\000\000\000\000\000\000\000\000\000\000\000\000\000\000\000\000\000\000\000\000\000\000\000\000\000\000\000\000\000\000\000\000\000\000\000\000\000\000\000\000\000\000\000\000\000\000\000\000\000\000\000\000\000\000\000\000\000\000\000\000\000\000\000\000\000\000\000\000\000\000\000\000\000\000\000\000\000\000\000\000\000\000\000\000\000\000\000\000\000\000\000\000\000\000\000\000\000\000\000\000\000\000\000\000n\357\003\350\363\377\356?\000\000\000\000\000\000\000\000\336w\361\231\2440\317?\000\000\000\000\000\000\000\000\201\022\201M\223q\247?\000\000\000\000\000\000\000\000O\370\271\265\200\277\177?\000\000\000\000\000\000\000\0007k\235\252\221cV?\000\000\000\000\000\000\000\000\271\303\245\t\257\0200?\000\000\000\000\000\000\000\000z8xr6\305\006?\000\000\000\000\000\000\000\000/N\273$_\263\337>\000\000\000\000\000\000\000\000\236\307\201~P\306\265>\000\000\000\000\000\000\000\000\301X6\203\316\254\215>\000\000\000\000\000\000\000\000\214J\003\363- d>\000\000\000\000\000\000\000\000\377X\377w\2254;>\000\000\000\000\000\000\000\000\240\211\2751(T\022>\000\000\000\000\000\000\000\000\000\000\000\000\000\000\360?\000\000\000\000\000\000\000\000\000\000\000\000\000\000\000\000\000\000\000\000\000\000\000\000\000\000\000\000\000\000\000\000\000\000\000\000\000\000\000\000\000\000\000\000\000\000\000\000\000\000\000\000\000\000\000\000\000\000\000\000\000\000\000\000\000\000\000\000\000\000\000\000\000\000\000\000\000\000\000\000\000\000\000\000\000\000\000\000\000\000\000\000\000\000\000\000\000\000\000\000\000\000\000\000\000\000\000\000\000\000\000\000\000\000\000\000\000\000\000\000\000\000\000\000\000\000\000\000\000\000\000\000\000\000\000\000\000\000\000\000\000\000\000\000\000\000\000\000\000\000\000\000\000\000\000\000\000\000\000\000\000\000\000\000\000\000\000\000\000\000\000\000\000\000\000\000\000\000\000\000\000\000\000\000\307\247\271[\216\027\355?\305\227V\335\337\016\261?\240Cr|\351\334\331?2\0273\355\276\202\221?`\250\266\243\352\305\262?4\3233\223\346\260c?\3275^\304\231<\201?\213J\376zX\217.?ag\300\r\300*G?\177\004\240\024\251\034\362>\036\331\236\350\307\217\010?[\026m\'\177^\261>Mz\006 \205\200\305>\347J\376\270X\371k>}~\210\301\334\007\200>\300\237\227bnj#>)Ct\236\302\3204>\244\333M\331t\256\327=I\031Rq\314\357\347=\371\371F\266c\302\211=\317??\230\252}\230=\000\000\000\000\000\000\000\000\000\000\000\000\000\000\000\000\000\000\000\000\000\000\000\000\000\000\000\000\000\000\000\000+R\270S\022\335\357?\000\000\000\000\000\000\000\000\000\000\000\000\000\000\000\000\375\006\351\305\035\234\267?\000\000\000\000\000\000\000\000\000\000\000\000\000\000\000\000LE\304\230\\K_?\000\000\000\000\000\000\000\000\000\000\000\000\000\000\000\000\002<C%\177=\364>\000\000\000\000\000\000\000\000\000\000\000\000\000\000\000\000\260\200\000\221\213-\200>\000\000\000\000\000\000\000\000\000\000\000\000\000\000\000\000d\007\237U\256\373\001>\000\000\000\000\000\000\000\000\000\000\000\000\000\000\000\000\264\023s\034\033\'z=\000\000\000\000\000\000\000\000\000\000\000\000\000\000\000\000\000\000\000\000\000\000\000\000\000\000\000\000\000\000\000\000\000\000\000\000\000\000\000\000\000\000\000\000\000\000\000\000\315\3233\331\337F\347?\000\000\000\000\000\000\000\000\035\003>\376\374\007\335?\000\000\000\000\000\000\000\000\277\353\t\000a{\325?\000\000\000\000\000\000\000\000r3\350o\022P\320?\000\000\000\000\000\000\000\000\"\037\345f\250\330\310?\000\000\000\000\000\000\000\000_^\201\251\261\334\302?\000\000\000\000\000\000\000\000\237~\220Q\027\200\274?\000\000\000\000\000\000\000\000\357\275\031\357+l\265?\000\000\000\000\000\000\000\000VP\223\2231\006\260?\000\000\000\000\000\000\000\000G\220%\253X\335\247?\000\000\000\000\000\000\000\000DdA\300\236\262\241?\000\000\000\000\000\000\000\000^i\020o\244&\232?\000\000\000\000\000\000\000\000\034\222?\277^A\223?\000\000\000\000\000\000\000\000\000\000\000\000\000\000\000\000\000\000\000\000\000\000\000\000\000\000\000\000\000\000\000\000\000\000\000\000\000\000\000\000\000\000\000\000\000\000\000\000\000\000\000\000\000\000\000\000\000\000\000\000\000\000\000\000\000\000\000\000\000\000\000\000\000\000\000\000\000\000\000\000\000\000\000\000\000\000\000\000\000\000\000\000\000\000\360?\000\000\000\000\000\000\000\000\000\000\000\000\000\000\000\000\000\000\000\000\000\000\000\000\000\000\000\000\000\000\000\000\000\000\000\000\000\000\000\000\000\000\000\000\000\000\000\000\000\000\000\000\000\000\000\000\000\000\000\000\000\000\000\000\000\000\000\000\000\000\000\000\000\000\000\000\000\000\000\000\000\000\000\000\000\000\000\000\000\000\000\000\000\000\000\000\000\000\000\000\000\000\000\000\316\353\271w\006\201\324?\335bp\026\373\373\355?N\351\215\366\324\032\262?\273\366\307eV\222\276?0\"\030\271\010\033z?*\353\205\343\240\022\201? \230\361\366\222\3167?\216\326d\2463Q:?Ob)\326\371\307\357>)\312\274|\325\373\356>\250\214\375Y\262\273\240>\231T;\331\r\203\235><\330\341\267i\031M>l\333nk\303\232G>c?M\333H\214\365=\034\032I\314\244E\360=-\343\307^\246\034\237=&\2777k\205\266\223=\000\000\000\000\000\000\000\000\000\000\000\000\000\000\000\000\000\000\000\000\000\000\000\000\000\000\000\000\000\000\000\000\000\000\000\000\000\000\000\000\000\000\000\000\000\000\000\000\000\000\000\000\000\000\000\000x\340b_\343\301\357?\000\000\000\000\000\000\000\000\000\000\000\000\000\000\000\000\034KI\365\332s\277?\000\000\000\000\000\000\000\000\000\000\000\000\000\000\000\000\363)Fk\254\334k?\000\000\000\000\000\000\000\000\000\000\000\000\000\000\000\000\343\177\237`&\026\010?\000\000\000\000\000\000\000\000\000\000\000\000\000\000\000\000YPE[\264\273\231>\000\000\000\000\000\000\000\000\000\000\000\000\000\000\000\000\253G^\361\363\035#>\000\000\000\000\000\000\000\000\000\000\000\000\000\000\000\000i\357~\367\2635\245=\000\000\000\000\000\000\000\000\000\000\000\000\000\000\000\000\000\000\000\000\000\000\000\000\000\000\000\000\000\000\000\000\000\000\000\000\000\000\000\000\000\000\000\000\000\000\000\000\357\013r\231]?\353?\000\000\000\000\000\000\000\000O\302\313\364\255\233\331?\000\000\000\000\000\000\000\000y3\331\210\336\010\317?\000\000\000\000\000\000\000\000t\214\376\224)\317\304?\000\000\000\000\000\000\000\000\276d\232\224@\227\275?\000\000\000\000\000\000\000\000\366\361M\005l\271\265?\000\000\000\000\000\000\000\000\264\032=\365D1\260?\000\000\000\000\000\000\000\000g\231\3122\202E\250?\000\000\000\000\000\000\000\000\310\222\203\247\0163\242?\000\000\000\000\000\000\000\000O\252\230\250\224=\233?\000\000\000\000\000\000\000\000\220\264\366\013\272S\224?\000\000\000\000\000\000\000\000h\210]\023(=\216?\000\000\000\000\000\000\000\000nC\344\013\275k\206?\000\000\000\000\000\000\000\000\000\000\000\000\000\000\000\000\000\000\000\000\000\000\000\000\000\000\000\000\000\000\000\000\000\000\000\000\000\000\000\000\000\000\000\000\000\000\000\000\000\000\000\000\000\000\000\000\000\000\000\000\000\000\000\000\000\000\000\000\000\000\000\000\000\000\000\000\000\000\000\000\000\000\000\000\000\000\000\000\000\000\000\000\000\000\000\000\000\000\000\000\000\000\000\000\000\000\000\000\000\000\000\000\000\000\000\000\000\000\000\000\000\000\000\000\000\000\000\000\000\000\000\000\000\000\000\000\000\000\000\000\000\000\000\000\000\000\000\000\000\000\360?\000\000\000\000\000\000\000\000\000\000\000\000\000\000\000\000\000\000\000\000\000\000\000\000\000\000\000\000\000\000\000\000\000\000\000\000\000\000\000\000\000\000\000\000\000\000\000\000\350!\207\320F]\341?s\377i\341o\311\352?.\306\331\025\027\214\252?\037\346\214k\337\244\247?9\"\223\363\274\221`?\237\224\311\023\244\334V?\333\227\232\004\227)\n?\227\320\273\0265\202\376>a\232\034FV<\256>Y\211\307.W\030\237>\311\261\305\361?\220K>&d@\374\007\2449>z\032\374\013\220\277\344=C\264\3233\032\301\321=9~\336o\360\343x=\000\000\000\000\000\000\000\000\000\000\000\000\000\000\000\000\000\000\000\000\000\000\000\000\000\000\000\000\000\000\000\000\000\000\000\000\000\000\000\000\000\000\000\000\000\000\000\000\000\000\000\000\000\000\000\000\000\000\000\000\000\000\000\000\000\000\000\000\000\000\000\000\000\000\000\000\000\000\000\000\000\000\000\000\000\000\360?\000\000\000\000\000\000\000\000\000\000\000\000\000\000\000\000\030\324]=y\2101>\000\000\000\000\000\000\000\000\000\000\000\000\000\000\000\000\000\000\000\000\000\000\000\000\000\000\000\000\000\000\000\000\000\000\000\000\000\000\000\000\000\000\000\000\000\000\000\000\000\000\000\000\000\000\000\000\000\000\000\000\000\000\000\000\000\000\000\000\000\000\000\000\000\000\000\000\000\000\000\000\000\000\000\000\000\000\000\000\000\000\000\000\000\000\000\000\000\000\000\000\000\000\000\000\000\000\000\000\000\000\000\000\000\000\000\000\000\000\000\000\000\000\000\000\000\000\000\000\000\000\000\000\000\000\000\000\000\000\000\000\000\000\000\000\000\000\000\000\000\000\000\000\000\000\000\000\000\000\000\000\000\000\000\000\000\000\000\000-\261\030\004\351,\355?\000\000\000\000\000\000\000\000\003\023i\374\256\357\326?\000\000\000\000\000\000\000\000&Z{!g\025\306?\000\000\000\000\000\000\000\000\2203\256Q\240i\266?\000\000\000\000\000\000\000\000\336\025\030\010\333N\247?\000\000\000\000\000\000\000\000\001 $;6\225\230?\000\000\000\000\000\000\000\000\0055\327\216\211*\212?\000\000\000\000\000\000\000\000\330\311\273\275\016\010|?\000\000\000\000\000\000\000\000\217\203\302\005m,n?\000\000\000\000\000\000\000\000wYe\020\257L`?\000\000\000\000\000\000\000\000\207\370\263\241P\251Q?\000\000\000\000\000\000\000\000\246\303\026\224\275.C?\000\000\000\000\000\000\000\000\020W\007\210<\3404?\000\000\000\000\000\000\000\000\000\000\000\000\000\000\000\000\000\000\000\000\000\000\000\000\000\000\000\000\000\000\000\000\000\000\000\000\000\000\000\000\000\000\000\000\000\000\000\000\000\000\000\000\000\000\000\000\000\000\000\000\000\000\000\000\000\000\000\000\000\000\000\000\000\000\000\000\000\000\000\000\000\000\000\000\000\000\000\000\000\000\000\000\000\000\000\000\000\000\000\000\000\000\000\000\000\000\000\000\000\000\000\000\000\000\000\000\000\000\000\000\000\000\000\000\000\000\000\000\000\000\000\000\000\000\000\000\000\000\000\000\000\000\000\000\000\000\000\000\000\000\000\000\000\000\000\000\000\000\000\000\000\000\000\000\000\000\000\000\000\000\000\000\000\000\000\000\000\000\000\000\000\000\360?\000\000\000\000\000\000\000\000\000\000\000\000\000\000\000\000]Hy\331\226\343\356?\246\320\201\230\337\235\306?\261\365\301F\307h\310?\020x\362\216\033\243\224?r)\272\350\240\177\217?\205\000\322%\317\240T?\216\322\306\213\017\265I?\373\261~\312\tu\014?.\216\334-s\266\376>w\336\212\200\303\373\275>#,vX\220\361\254>\206\022\360\274\020\217i>v}\016\373\323\205V>\232\325\240D\214K\022>\376\t\177Z\026\332\375=\311\021\331T\373\222\266=\313\260\364\331=:\241=\000\000\000\000\000\000\000\000\000\000\000\000\000\000\000\000\000\000\000\000\000\000\000\000\000\000\000\000\000\000\000\000\000\000\000\000\000\000\000\000\000\000\000\000\000\000\000\000\000\000\000\000\000\000\000\000\000\000\000\000\000\000\000\000\031\377\204J\233\342\355?\000\000\000\000\000\000\000\000\000\000\000\000\000\000\000\000\037n\022\215\033\314\326?\000\000\000\000\000\000\000\000\000\000\000\000\000\000\000\000zV\325\362\345\033\237?\000\000\000\000\000\000\000\000\000\000\000\000\000\000\000\000\215\312\273;\307\266T?\000\000\000\000\000\000\000\000\000\000\000\000\000\000\000\000\007\023\260\263\213\013\001?\000\000\000\000\000\000\000\000\000\000\000\000\000\000\000\000\224c%.\222\201\243>\000\000\000\000\000\000\000\000\000\000\000\000\000\000\000\000/\301\256\2264\253@>\000\000\000\000\000\000\000\000\000\000\000\000\000\000\000\000\220\313\317U|P\326=\000\000\000\000\000\000\000\000\000\000\000\000\000\000\000\000\000\000\000\000\000\000\000\000rQ\233}k5\352?\000\000\000\000\000\000\000\000W\327}X\2765\340?\000\000\000\000\000\000\000\000\221\000\031\\\335L\317?\000\000\000\000\000\000\000\000\200\304`\037i\251\272?\000\000\000\000\000\000\000\000!\005\3628\003\010\245?\000\000\000\000\000\000\000\000\215\267mzpu\217?\000\000\000\000\000\000\000\000\321U^\373W\234v?\000\000\000\000\000\000\000\000\367\210\253\247\032\201_?\000\000\000\000\000\000\000\000\244\375\257\302!fE?\000\000\000\000\000\000\000\000\277\352\000\364av,?\000\000\000\000\000\000\000\000\204Y\203\235v\227\022?\000\000\000\000\000\000\000\000\340=@\031\353\351\367>\000\000\000\000\000\000\000\000\215&\r\365\365W\336>\000\000\000\000\000\000\000\000\000\000\000\000\000\000\000\000\000\000\000\000\000\000\000\000\000\000\000\000\000\000\360?\000\000\000\000\000\000\000\000\000\000\000\000\000\000\000\000\000\000\000\000\000\000\000\000\000\000\000\000\000\000\000\000\000\000\000\000\000\000\000\000\000\000\000\000\000\000\000\000\000\000\000\000\000\000\000\000\000\000\000\000\000\000\000\000\000\000\000\000\000\000\000\000\000\000\000\000\000\000\000\000\000\000\000\000\000\000\000\000\000\000\000\000\000\000\000\000\000\000\000\000\000\000\000\000\000\000\000\000\000\000\000\000\000\000\000\000\000\000\000\000\000\000\000\000\000\000\000\000\000\000\000\000\000\000\000\000\000\000\000\000\000\000\000\000\000\000\000\000\000\000\000\000\000\000\000\000\000\000\000\000\000\000\000\000\000\000\000\000l\021\026\271\356\355\352?\027\231\315\311\317\315\314?a]b\206\035D\336?\257\2624k\303\260\262?\305\014\027y)\306\273?\217\020\250\2403\222\212?L\252U\350\232\036\220?\344\303\024\222\036\021Z?f\201\273\346\332c[?\236\016\3228\366\207#?8\014\240r\034[\"?!\230\343\266\326\255\347>9}75\266P\344>\022\013.\320J\033\250>\374\331\304\313\334%\243>\246\212\224\201\006\'e>\206\371F^\273n_>\375\014\303@\360N >\016\202W\271&\331\026>I\320\000\271-m\326=\372N\\^\266\316\315=\020\366\343kE\324\213=\3123\311\357\t\327\177=\000\000\000\000\000\000\000\000\000\000\000\000\000\000\000\000\003\327kL\217\376\357?\000\000\000\000\000\000\000\000\000\000\000\000\000\000\000\000#u\327\276Y3\223?\000\000\000\000\000\000\000\000\000\000\000\000\000\000\000\000\376\267Z\023\314\234\024?\000\000\000\000\000\000\000\000\000\000\000\000\000\000\000\000S\204\215\370L\230\205>\000\000\000\000\000\000\000\000\000\000\000\000\000\000\000\000\340\335p\217\251\365\353=\000\000\000\000\000\000\000\000\000\000\000\000\000\000\000\000\000\000\000\000\000\000\000\000\000\000\000\000\000\000\000\000\000\000\000\000\000\000\000\000\000\000\000\000\000\000\000\000\000\000\000\000\000\000\000\000\000\000\000\000\000\000\000\000\000\000\000\000\000\000\000\000\000\000\000\000\000\000\000\000\000\000\000\000\000\000\000\000\000\000\000\000\000\000\000\000\345cM\010\364\003\355?\000\000\000\000\000\000\000\000\225\215\226\007B[\327?\000\000\000\000\000\000\000\000\224\033X\201\006\010\307?\000\000\000\000\000\000\000\000\376\346\224\233}\362\267?\000\000\000\000\000\000\000\0001,\226x\333\206\251?\000\000\000\000\000\000\000\000\266?\205:V\235\233?\000\000\000\000\000\000\000\000\334Y<O\215,\216?\000\000\000\000\000\000\000\000\273\201\033C\017\234\200?\000\000\000\000\000\000\000\000\355\020\227\264\261er?\000\000\000\000\000\000\000\000~\000=\177\346{d?\000\000\000\000\000\000\000\000\204\346\201nT\352V?\000\000\000\000\000\000\000\000\204\343\245\252\315\277I?\000\000\000\000\000\000\000\000\240\315\321i\307\016=?\000\000\000\000\000\000\000\000\000\000\000\000\000\000\000\000\000\000\000\000\000\000\000\000\000\000\000\000\000\000\000\000\000\000\000\000\000\000\000\000\000\000\000\000\000\000\000\000\000\000\000\000\000\000\000\000\000\000\000\000\000\000\000\000\000\000\000\000\000\000\000\000\000\000\000\000\000\000\000\000\000\000\000\000\000\000\000\000\000\000\000\000\000\000\000\000\000\000\000\000\000\000\000\000\000\000\000\000\000\000\000\000\000\000\000\000\000\000\360?\000\000\000\000\000\000\000\000\000\000\000\000\000\000\000\000\000\000\000\000\000\000\000\000\000\000\000\000\000\000\000\000\000\000\000\000\000\000\000\000\000\000\000\000\000\000\000\000\000\000\000\000\000\000\000\000\000\000\000\000\000\000\000\000\000\000\000\000\000\000\000\000\000\000\000\000\000\000\000\000\373b\316\245\016\315\356?\032\323^J\270\202\310?\357\300\010\233IV\310?\322\305\240.\343\\\226?\0374\255\375\341f\217?(L\230f\304YV?\007\nJ\223$\240I?p\250_&|\324\016?\36783\320\230\234\376>d\231\204\tp=\300>\306H\3224c\330\254>\r|\030\256\025\257k>O\035~\312\232qV>\014a\034\220f\320\023>\241C}\371q\276\375=\2320\3035\030r\270=\364p\277a\"\002\241=\000\000\000\000\000\000\000\000\000\000\000\000\000\000\000\000\000\000\000\000\000\000\000\000\000\000\000\000\000\000\000\000\000\000\000\000\000\000\000\000\000\000\000\000\000\000\000\000\000\000\000\000\000\000\000\000\000\000\000\000\000\000\000\000\030II\366`\373\357?\000\000\000\000\000\000\000\000\000\000\000\000\000\000\000\000}@\004\010\3331\241?\000\000\000\000\000\000\000\000\000\000\000\000\000\000\000\000\"\360tM\205\2110?\000\000\000\000\000\000\000\000\000\000\000\000\000\000\000\000k\032{\260\376\n\257>\000\000\000\000\000\000\000\000\000\000\000\000\000\000\000\000\362\010l\206\364\000\">\000\000\000\000\000\000\000\000\000\000\000\000\000\000\000\000\325\014\206+\224s\214=\000\000\000\000\000\000\000\000\000\000\000\000\000\000\000\000\000\000\000\000\000\000\000\000\000\000\000\000\000\000\000\000\000\000\000\000\000\000\000\000\000\000\000\000\000\000\000\000\000\000\000\000\000\000\000\000\000\000\000\000\000\000\000\000\000\000\000\000\000\000\000\000\256>\004\016\004\317\356?\000\000\000\000\000\000\000\000\257\352\315\236\350Y\320?\000\000\000\000\000\000\000\000\336n\2136\216<\265?\000\000\000\000\000\000\000\000e\227+\017\r\014\235?\000\000\000\000\000\000\000\000\317\251\233O\227V\204?\000\000\000\000\000\000\000\000\0370\216\224\220\334l?\000\000\000\000\000\000\000\000\377\250d\036\276\246T?\000\000\000\000\000\000\000\000\337(\330\274\025\271=?\000\000\000\000\000\000\000\000(\225T!Az%?\000\000\000\000\000\000\000\000\315\207\303\336\035\"\017?\000\000\000\000\000\000\000\000O\026\221}\371\235\366>\000\000\000\000\000\000\000\000X\366\211\374\271u\340>\000\000\000\000\000\000\000\000s\271T\354\330\375\307>\000\000\000\000\000\000\000\000\000\000\000\000\000\000\000\000\000\000\000\000\000\000\000\000\000\000\000\000\000\000\000\000\000\000\000\000\000\000\000\000\000\000\000\000\000\000\000\000\000\000\000\000\000\000\000\000\000\000\000\000\000\000\000\000\000\000\000\000\000\000\000\000\000\000\000\000\000\000\000\000\000\000\000\000\000\000\000\000\000\000\000\000\000\000\000\000\000\000\000\000\000\000\000\000\000\000\000\000\000\000\000\000\000\000\000\000\000\000\000\000\000\000\000\000\000\000\000\000\000\000\000\000\000\000\000\000\000\000\000\000\000\000\360?\000\000\000\000\000\000\000\000\000\000\000\000\000\000\000\000\000\000\000\000\000\000\000\000\000\000\000\000\000\000\000\000\000\000\000\000\000\000\000\000\000\000\000\000\000\000\000\000\000\000\000\000\000\000\000\000w\357PR\240\367\357?\007\267\350C\244\375\246?\2364,dqCu?\213\010qA\214\250!?f+\355}\263\030\347>E\023\002\366\353\266\215>U\210r\305\307\273O>\363[\305H\227@\361=\327u\216\233\257\005\260=\000\000\000\000\000\000\000\000\000\000\000\000\000\000\000\000\000\000\000\000\000\000\000\000\000\000\000\000\000\000\000\000\000\000\000\000\000\000\000\000\000\000\000\000\000\000\000\000\000\000\000\000\000\000\000\000\000\000\000\000\000\000\000\000\000\000\000\000\000\000\000\000\000\000\000\000\000\000\000\000\000\000\000\000\000\000\000\000\000\000\000\000\000\000\000\000\000\000\000\000\000\000\000\000\000\000\000\000\000\000\000\000\000\000\000\000\000\000\000\000\000\000\000\000\000\000\000\000!\006\3710\271\273\357?\000\000\000\000\000\000\000\000\000\000\000\000\000\000\000\000V^\211\335\010|\300?\000\000\000\000\000\000\000\000\000\000\000\000\000\000\000\000\326\236#{\376\242n?\000\000\000\000\000\000\000\000\000\000\000\000\000\000\000\000]\234\200~\203\310\013?\000\000\000\000\000\000\000\000\000\000\000\000\000\000\000\000\203\200\024..#\237>\000\000\000\000\000\000\000\000\000\000\000\000\000\000\000\0006k3\251\362C(>\000\000\000\000\000\000\000\000\000\000\000\000\000\000\000\000\357\347qM\301=\254=\000\000\000\000\000\000\000\000\000\000\000\000\000\000\000\000\000\000\000\000\000\000\000\000\000\000\000\000\000\000\000\000\000\000\000\000\000\000\000\000\000\000\000\000\000\000\000\000p6\211\342\237D\351?\000\000\000\000\000\000\000\000\314l\306\242\3621\335?\000\000\000\000\000\000\000\000\003\341-\214_r\323?\000\000\000\000\000\000\000\000\232t\356\252h?\312?\000\000\000\000\000\000\000\000F\307\033\324\347\245\301?\000\000\000\000\000\000\000\000_\371\214\2128\221\267?\000\000\000\000\000\000\000\000\207\202\003P\242>\257?\000\000\000\000\000\000\000\000\033Yp\263t\222\244?\000\000\000\000\000\000\000\000\376a\267\346\337\354\232?\000\000\000\000\000\000\000\0006\033+x3\206\221?\000\000\000\000\000\000\000\000\341#\357F\'\263\206?\000\000\000\000\000\000\000\000F\250\243\231kF}?\000\000\000\000\000\000\000\000\206\317\350|\205\315r?\000\000\000\000\000\000\000\000\000\000\000\000\000\000\000\000\000\000\000\000\000\000\000\000\000\000\000\000\000\000\000\000\000\000\000\000\000\000\000\000\000\000\000\000\000\000\000\000\000\000\000\000\000\000\000\000\000\000\000\000\000\000\000\000\000\000\000\000\000\000\360?\000\000\000\000\000\000\000\000\000\000\000\000\000\000\000\000\000\000\000\000\000\000\000\000\000\000\000\000\000\000\000\000\000\000\000\000\000\000\000\000\000\000\000\000\000\000\000\000\000\000\000\000\000\000\000\000\000\000\000\000\000\000\000\000\000\000\000\000\000\000\000\000\000\000\000\000\000\000\000\000\000\000\000\000\000\000\000\000\000\000\000\000\000\000\000\000\000\000\000\000\000\000\000\000\000\000\000\000\000\000\000\000\000\000\000\000\000\000\000\000\000\000\000\000\000\000\000\000\002:\321c\250_\356?\376&3uZ\232\323?e\266U\26438\262?|y\374P\333\'\213?\260\27583\314\330a?\2743YM\275\2324?\223JB\304\351\034\006?_) u\227\223\325>\337VM\363\310\r\244>{\n\310^\276Aq>~\315\261,\377\260<>\344\312\301\240%U\006>/v1.\232\362\320=&\220E\250\336D\230=\000\000\000\000\000\000\000\000\000\000\000\000\000\000\000\000\000\000\000\000\000\000\000\000\000\000\000\000\000\000\000\000\000\000\000\000\000\000\000\000\000\000\000\000\000\000\000\000\000\000\000\000\000\000\000\000\000\000\000\000\000\000\000\000\000\000\000\000\000\000\000\000\000\000\000\000\000\000\000\000\000\000\000\000\000\000\000\000?\350\342\255/\345\357?\000\000\000\000\000\000\000\000\000\000\000\000\000\000\000\000+\321\270\320C\261\264?\000\000\000\000\000\000\000\000\000\000\000\000\000\000\000\000\002-\323\311\261\003X?\000\000\000\000\000\000\000\000\000\000\000\000\000\000\000\000\201DM_\2652\353>\000\000\000\000\000\000\000\000\000\000\000\000\000\000\000\000\334,7-\273\010s>\000\000\000\000\000\000\000\000\000\000\000\000\000\000\000\000b\211\300\374q\206\362=\000\000\000\000\000\000\000\000\000\000\000\000\000\000\000\000\000\000\000\000\000\000\000\000\000\000\000\000\000\000\000\000\000\000\000\000\000\000\000\000\000\000\000\000\000\000\000\000\000\000\000\000\000\000\000\000\000\000\000\000\000\000\000\000\000\000\000\000\000\000\000\000\237Y\340\210H\246\352?\000\000\000\000\000\000\000\000\237?e\324\312*\333?\000\000\000\000\000\000\000\000\306\246\031=A\362\320?\000\000\000\000\000\000\000\000T\257\3103\277D\306?\000\000\000\000\000\000\000\000\246[\221\260\264\366\275?\000\000\000\000\000\000\000\000\335\234\007\025_n\264?\000\000\000\000\000\000\000\000\216\254\312*\344\031\254?\000\000\000\000\000\000\000\000K^\307o7p\243?\000\000\000\000\000\000\000\000\213+\023\377P\001\233?\000\000\000\000\000\000\000\000\260\204\333\342D\321\222?\000\000\000\000\000\000\000\000D}\013\301\204I\212?\000\000\000\000\000\000\000\000\210\002\367l6e\202?\000\000\000\000\000\000\000\000#\033q2\245\310y?\000\000\000\000\000\000\000\000\000\000\000\000\000\000\000\000\000\000\000\000\000\000\000\000\000\000\000\000\000\000\000\000\000\000\000\000\000\000\000\000\000\000\000\000\000\000\000\000\000\000\000\000\000\000\000\000\000\000\000\000\000\000\000\000\000\000\000\000\000\000\000\000\000\000\000\000\000\000\000\000\000\000\000\000\000\000\000\000\000\000\000\000\000\000\000\000\000\000\000\000\000\000\000\000\000\000\000\000\000\000\000\000\000\000\000\000\000\000\000\000\000\000\000\000\000\000\360?\000\000\000\000\000\000\000\000\000\000\000\000\000\000\000\000\000\000\000\000\000\000\000\000\000\000\000\000\000\000\000\000\000\000\000\000\000\000\000\000\000\000\000\000\000\000\000\000\000\000\000\000\000\000\000\000\000\000\000\000\000\000\000\000\000\000\000\000\000\000\000\000w\325\234[Rp\354?1\310\221\250\'\374\317?\204\215\331(\204\356\327?\271\223\217\372n\024\257?\227\324v\'\201q\260?,>o@\227\212\200?\275\032Z\334\026\225|?yB\255;\354LH?<l\323\216\231.B?\003\026\263\264\004D\013?\250\241\350\3634?\002?\351\243\001\3060\300\310>\"\243L\204\304=\276>K\301\036l\332\335\202>\203\257l\320\204Wu>Q\325W\033S\3128>(\261enJ;*>\202xk\242)\237\354=hz\3523\276\215\334=N\227\243\355Tx\235=\200g\033~*\344\213=\000\000\000\000\000\000\000\000\000\000\000\000\000\000\000\000\000\000\000\000\000\000\000\000\000\000\000\000\000\000\000\000B\'h\034X\350\357?\000\000\000\000\000\000\000\000\000\000\000\000\000\000\000\000;\251x\302\"p\263?\000\000\000\000\000\000\000\000\000\000\000\000\000\000\000\000l\324\245\233\322.U?\000\000\000\000\000\000\000\000\000\000\000\000\000\000\000\000f\t?\213/\207\346>\000\000\000\000\000\000\000\000\000\000\000\000\000\000\000\000\230\233\334L\332\233m>\000\000\000\000\000\000\000\000\000\000\000\000\000\000\000\0007\336\263\267I\017\353=\000\000\000\000\000\000\000\000\000\000\000\000\000\000\000\000\000\000\000\000\000\000\000\000\000\000\000\000\000\000\000\000\000\000\000\000\000\000\000\000\000\000\000\000\000\000\000\000\000\000\000\000\000\000\000\000\000\000\000\000\000\000\000\000\000\000\000\000\000\000\000\000\253\t\365V\374\313\357?\000\000\000\000\000\000\000\000\242U\235\317y\207\274?\000\000\000\000\000\000\000\000h\373\301\322\013V\217?\000\000\000\000\000\000\000\000^7\311\332\360!b?\000\000\000\000\000\000\000\000\006\2633\352n~5?\000\000\000\000\000\000\000\000\212\276M0?\324\t?\000\000\000\000\000\000\000\000\242\344\222I\364O\337>\000\000\000\000\000\000\000\000\000\306\222\272d\030\263>\000\000\000\000\000\000\000\000~\323l\241\221d\207>\000\000\000\000\000\000\000\000\277\r_\335\316\300\\>\000\000\000\000\000\000\000\000Q\250\377]p\2671>\000\000\000\000\000\000\000\000!cf^\221\340\005>\000\000\000\000\000\000\000\000\007e\'4C\017\333=\000\000\000\000\000\000\000\000\000\000\000\000\000\000\000\000\000\000\000\000\000\000\000\000\000\000\000\000\000\000\000\000\000\000\000\000\000\000\000\000\000\000\000\000\000\000\000\000\000\000\000\000\000\000\000\000\000\000\000\000\000\000\000\000\000\000\000\000\000\000\000\000\000\000\000\000\000\000\000\000\000\000\000\000\000\000\000\000\000\000\000\000\000\000\000\000\000\000\000\000\000\000\000\000\000\000\000\000\000\000\000\000\000\000\000\000\000\000\000\000\000\000\000\000\000\000\000\000\000\000\000\000\000\000\000\000\000\000\000\000\000\000\000\000\000\000\000\000\000\000\000\000\000\000\000\000\000\000\000\000\000\000\000\000\000\000\000\000\000\000\000\000\000\000\000\000\000\000\000\000\000\000\000\000\000\000\000\000\000\000\360?\000\000\000\000\000\000\000\000\006[\256\336\263\241\345?\177p\016(\035\206\345?\325\310a3!\206\320?-\314S\3112\374\302?\213Q\206B\262\234\244?\262\371\327\214\033X\222?\001m\305\210\361Bp?\370\267\006jlvX?\267w\335\n\256\3072?i\262\242\332M\352\030?$[\220\203\260\033\361>]\315\252\370\311\207\324>O/p\002\360\274\251>\244\334\225NZi\214>M\301\224\210\357|`>M\214Q6\245\361@>\245\306\262\336\\e\022>;4w\325\375\301\361=\341\264b\356G-\302=\241\215Eo\353h\240=\000\000\000\000\000\000\000\000\000\000\000\000\000\000\000\000\000\000\000\000\000\000\000\000\000\000\000\000\000\000\000\000\000\000\000\000\000\000\000\000z\233B\333\2202\357?\000\000\000\000\000\000\000\000\000\000\000\000\000\000\000\000_\302v3\336r\314?\000\000\000\000\000\000\000\000\000\000\000\000\000\000\000\000\313X\016\267\0134\207?\000\000\000\000\000\000\000\000\000\000\000\000\000\000\000\000\236\266\307\002\016x2?\000\000\000\000\000\000\000\000\000\000\000\000\000\000\000\000Q&*\313\334*\322>\000\000\000\000\000\000\000\000\000\000\000\000\000\000\000\000a\2350Hc\332h>\000\000\000\000\000\000\000\000\000\000\000\000\000\000\000\0008l\220\352Oc\371=\000\000\000\000\000\000\000\000\000\000\000\000\000\000\000\000.i\361\361\271I\204=\000\000\000\000\000\000\000\000\000\000\000\000\000\000\000\000\000\000\000\000\000\000\000\000n\300\203\267Lu\357?\000\000\000\000\000\000\000\000\336\363C\300F\342\306?\000\000\000\000\000\000\000\000\304H!g\233\006\244?\000\000\000\000\000\000\000\000Xb\031NP1\202?\000\000\000\000\000\000\000\000\223\305\320HI\357`?\000\000\000\000\000\000\000\000qU\316J\251\262@?\000\000\000\000\000\000\000\000\313H\177p\013\220\"?\000\000\000\000\000\000\000\000MAs\344\341\251\007?\000\000\000\000\000\000\000\000\372\363,\322\220M\360>\000\000\000\000\000\000\000\000\3579\214\315\351\341\326>\000\000\000\000\000\000\000\000\303\"] s\334\277>\000\000\000\000\000\000\000\000oP\223\\\274\330\245>\000\000\000\000\000\000\000\000\213q7\013K\200\215>\000\000\000\000\000\000\000\000\000\000\000\000\000\000\000\000\000\000\000\000\000\000\000\000\000\000\000\000\000\000\000\000\000\000\000\000\000\000\000\000\000\000\000\000\000\000\000\000\000\000\000\000\000\000\000\000\000\000\000\000\000\000\000\000\000\000\000\000\000\000\360?\000\000\000\000\000\000\000\000\000\000\000\000\000\000\000\000\000\000\000\000\000\000\000\000\000\000\000\000\000\000\000\000\000\000\000\000\000\000\000\000\000\000\000\000\000\000\000\000\000\000\000\000\000\000\000\000\000\000\000\000\000\000\000\000\000\000\000\000\000\000\000\000\000\000\000\000\000\000\000\000\000\000\000\000\000\000\000\000\000\000\000\000\000\000\000\000\000\000\000\000\000\000\000\000\000\000\000\000\000\000\000\000\000\000\000\000\000\000\000\000\000\000\000\000\000\000\000\000\305\2272\376\346\342\327?a\321<\257_E\352?X\367\th`\231\320?\264{B\235\235\024\325?\356\263\256b3\326\262?\216\2611\031\263\207\262?\2120\342x\346\t\213?\352\037\241\351\326z\206?\275o\340\276Mh\\?p\215-\0107\324T?!\343\326U\335\212\'?\260\244\364\021T:\037?\317\344\026h@\034\360>G\'\337\211:\250\343>\202\220\340\010\021\307\262>\037\353\251\214\\T\245>\246\326\355U)\017s>N@\245\235\nVd>F%L+\335!1>8eHx\214J!>\303~]\301\234\243\353=\370\nu\217\256\210\332=\021\316\242Y;8\244=\365\227b.\217~\222=\000\000\000\000\000\000\000\000\355\214:\354+\377\357?\000\000\000\000\000\000\000\000\000\000\000\000\000\000\000\000\372p\207\316\366\037\215?\000\000\000\000\000\000\000\000\000\000\000\000\000\000\000\000W=\220\007@\266\007?\000\000\000\000\000\000\000\000\000\000\000\000\000\000\000\000n0\026\302\370\326r>\000\000\000\000\000\000\000\000\000\000\000\000\000\000\000\000rJ\014\266\252\177\322=\000\000\000\000\000\000\000\000\000\000\000\000\000\000\000\000\000\000\000\000\000\000\000\000\000\000\000\000\000\000\000\000\000\000\000\000\000\000\000\000\000\000\000\000\000\000\000\000\000\000\000\000\000\000\000\000\000\000\000\000\000\000\000\000\000\000\000\000\000\000\000\000\000\000\000\000\000\000\000\000\000\000\000\000\000\000\000\000\000\000\000\000\000\000\000\000\362\372.\252\373+\353?\000\000\000\000\000\000\000\000\360-\361v\014\214\333?\000\000\000\000\000\000\000\000L\2560y68\320?\000\000\000\000\000\000\000\000\230p\341h\232p\302?\000\000\000\000\000\000\000\000\205\023\374%1D\264?\000\000\000\000\000\000\000\000\267\266\002\253\025\274\245?\000\000\000\000\000\000\000\000\374\331*i$\345\226?\000\000\000\000\000\000\000\0001\234\235\354\375\311\207?\000\000\000\000\000\000\000\000i~\343\032\373rx?\000\000\000\000\000\000\000\000\212-LW\335\346h?\000\000\000\000\000\000\000\000O\360b\335_+Y?\000\000\000\000\000\000\000\000\341\202\302\005\225EI?\000\000\000\000\000\000\000\000\377n\3479\034:9?\000\000\000\000\000\000\000\000\000\000\000\000\000\000\000\000\000\000\000\000\000\000\000\000\000\000\000\000\000\000\360?\000\000\000\000\000\000\000\000\000\000\000\000\000\000\000\000\000\000\000\000\000\000\000\000\000\000\000\000\000\000\000\000\000\000\000\000\000\000\000\000\000\000\000\000\000\000\000\000\000\000\000\000\000\000\000\000\000\000\000\000\000\000\000\000\000\000\000\000\000\000\000\000\000\000\000\000\000\000\000\000\000\000\000\000\000\000\000\000\000\000\000\000\000\000\000\000\000\000\000\000\000\000\000\000\000\000\000\000\000\000\000\000\000\000\000\000\000\000\000\000\000\000\000\000\000\000\000\000\000\000\000\000\000\000\000\000\000\000\000\000\000\000\000\000\000\000\000\000\000\000\000\000\000\000\000\000\000\000\000\000\000\000\000\000\000\000\000\000\r\021\314\t{1\347?U\3179\240B!\335?!\317\304L\373\031\336?\337_E\233\330\323\305?4H\316\342\371\345\277?\3641m\324\262\352\241?\230\346\021\274\350`\225?E\325\010\362\025Lt?P\361[\355c\371d?i\211k\363\326\217A?\357\372\366\354Q;0?y\213*\222D\226\010?\177\307\3207\250\276\364><\226\013F\261\347\314>\013\326\220\2744\224\266>\2175\367\337\320I\215>\373\177\334\344\225fu>\340\302&Cu\023J>H\002\343l\274\3661>\035\254`\212G\264\004>\212N\340)\376\017\353=\000\262D\276\037\253\275=\237\262\274.^a\242=\000\000\000\000\000\000\000\000\000\000\000\000\000\000\000\000\330<\374\377\377\377\357?\000\000\000\000\000\000\000\000\000\000\000\000\000\000\000\000N\213$G\343\010\337>\000\000\000\000\000\000\000\000\000\000\000\000\000\000\000\000x6\215\0346\352\252=\000\000\000\000\000\000\000\000\000\000\000\000\000\000\000\000\000\000\000\000\000\000\000\000\000\000\000\000\000\000\000\000\000\000\000\000\000\000\000\000\000\000\000\000\000\000\000\000\000\000\000\000\000\000\000\000\000\000\000\000\000\000\000\000\000\000\000\000\000\000\000\000\000\000\000\000\000\000\000\000\000\000\000\000\000\000\000\000\000\000\000\000\000\000\000\000\000\000\000\000\000\000\000\000\000\000\000\000\000\000\000\000\000\000\000\000\000\000\000\000\000\000\000\000\000\000\000\000\000\000\000\000\000\000\000\000\000\000\000\000\000\000\000\000\312]H\376h\362\357?\000\000\000\000\000\000\000\000\020k\265\240\201g\255?\000\000\000\000\000\000\000\000\242\333\266\333F\303p?\000\000\000\000\000\000\000\000c\364\264\003\nm4?\000\000\000\000\000\000\000\000\315\311\342\231\343\345\371>\000\000\000\000\000\000\000\000s[@\031i\351\300>\000\000\000\000\000\000\000\000\365\rY\0307\235\206>\000\000\000\000\000\000\000\000J\360\333\234\005\317N>\000\000\000\000\000\000\000\000\003\301\005_\266I\025>\000\000\000\000\000\000\000\0008\024Q\3775\272\335=\000\000\000\000\000\000\000\000t\371\271\320\360\217\244=\000\000\000\000\000\000\000\000\000\000\000\000\000\000\000\000\000\000\000\000\000\000\000\000\000\000\000\000\000\000\000\000\000\000\000\000\000\000\000\000\000\000\000\000\000\000\000\000\000\000\000\000\000\000\000\000\000\000\000\000\000\000\000\000\000\000\000\000\000\000\000\000\000\000\000\000\000\000\000\000\000\000\000\000\000\000\000\000\000\000\000\000\000\000\000\000\000\000\000\000\000\000\000\000\000\000\000\000\000\000\000\000\000\000\000\000\000\000\000\000\000\000\000\000\000\000\360?\000\000\000\000\000\000\000\000\000\000\000\000\000\000\000\000\000\000\000\000\000\000\000\000\000\000\000\000\000\000\000\000\000\000\000\000\000\000\000\000\000\000\000\000\000\000\000\000\000\000\000\000\000\000\000\000\000\000\000\000\000\000\000\000\000\000\000\000\000\000\000\000\000\000\000\000\000\000\000\000\000\000\000\000\000\000\000\000\000\000\000\000\000\000\000\000\000\000\000\000\000\000\000\000\332\t\rq\244\345\351?\025\005\223bd\033\340?\203\017\034\025\304\020\322?F\366\333\205\326\362\271?\332\245\334\000W\224\244?\240z2\260\217\345\206?\267v\271(T\247m?\\2\353\211F\342K?S&l\234<F/?\361\000\324\240q\357\t?\254%R\222\223\004\352>\257\322\206\3013\204\303>\232W\207\215g\337\241>~\267\213\347\034\252x>\3028\037qb\351T>>\250\rO\233\335*>\327\317\341\023\210N\005>\313\335\313\004s\266\331=Q\344eU\3429\263=d`V\006I&\206=\000\000\000\000\000\000\000\000\000\000\000\000\000\000\000\000\000\000\000\000\000\000\000\000\000\000\000\000\000\000\000\000\000\000\000\000\000\000\000\000!E\305\327\022?\356?\000\000\000\000\000\000\000\000\000\000\000\000\000\000\000\000\232\255\r\356t\325\324?\000\000\000\000\000\000\000\000\000\000\000\000\000\000\000\000|b\324\273\270\253\231?\000\000\000\000\000\000\000\000\000\000\000\000\000\000\000\000\326\327\3004S\336N?\000\000\000\000\000\000\000\000\000\000\000\000\000\000\000\000\026U\262\034\242\357\366>\000\000\000\000\000\000\000\000\000\000\000\000\000\000\000\000(`\242\367W\263\227>\000\000\000\000\000\000\000\000\000\000\000\000\000\000\000\000\365N\n;\246I2>\000\000\000\000\000\000\000\000\000\000\000\000\000\000\000\000v\372m \035\033\306=\000\000\000\000\000\000\000\000\000\000\000\000\000\000\000\000\000\000\000\000\000\000\000\000\252F)\206c\267\352?\000\000\000\000\000\000\000\000\337\266n\241\367\302\332?\000\000\000\000\000\000\000\000\223x\026x\016\324\320?\000\000\000\000\000\000\000\000\272zdLB\205\306?\000\000\000\000\000\000\000\000l\371\022r`\343\276?\000\000\000\000\000\000\000\000\352\244*\003\246c\265?\000\000\000\000\000\000\000\000.\221\322=\036\266\255?\000\000\000\000\000\000\000\000\366;8\240\323\241\244?\000\000\000\000\000\000\000\000t\323\361t\240\233\234?\000\000\000\000\000\000\000\000\027\317\352\265\357\311\223?\000\000\000\000\000\000\000\000<\336.\337EO\213?\000\000\000\000\000\000\000\000\027]MNY\314\202?\000\000\000\000\000\000\000\000`\3168\310w\321y?\000\000\000\000\000\000\000\000\000\000\000\000\000\000\000\000\000\000\000\000\000\000\000\000\000\000\000\000\000\000\000\000\000\000\000\000\000\000\000\000\000\000\000\000\000\000\000\000\000\000\000\000\000\000\000\000\000\000\000\000\000\000\000\000\000\000\000\000\000\000\000\000\000\000\000\000\000\000\000\000\000\000\000\000\000\000\000\000\000\000\000\000\000\000\000\000\000\000\000\000\000\000\000\000\000\000\000\000\000\000\000\000\000\000\000\000\000\000\360?\000\000\000\000\000\000\000\000\000\000\000\000\000\000\000\000\000\000\000\000\000\000\000\000\000\000\000\000\000\000\000\000\000\000\000\000\000\000\000\000\000\000\000\000\000\000\000\000\000\000\000\000\000\000\000\000\000\000\000\000\000\000\000\000\000\000\000\000\000\000\000\000\000\000\000\000\000\000\000\000\235\320\037\325\224\377\357?#_\220p\364\257\204?0\0367U\202\246:?G!+\0161\345\303>\305\274\234\027\212\037r>\365\332\300.\263\365\364=\002\336F\243\177\'\237=\000\000\000\000\000\000\000\000\000\000\000\000\000\000\000\000\000\000\000\000\000\000\000\000\000\000\000\000\000\000\000\000\000\000\000\000\000\000\000\000\000\000\000\000\000\000\000\000\000\000\000\000\000\000\000\000\000\000\000\000\000\000\000\000\000\000\000\000\000\000\000\000\000\000\000\000\000\000\000\000\000\000\000\000\000\000\000\000\000\000\000\000\000\000\000\000\000\000\000\000\000\000\000\000\000\000\000\000\000\000\000\000\000\000\000\000\000\000\000\000\000\000\000\000\000\000\000\000\000\000\000\000\000\000\000\000\000\000\000\000\000\000\000\000[\364\263\300\370\332\357?\000\000\000\000\000\000\000\000\000\000\000\000\000\000\000\000%\030\233\264\253N\270?\000\000\000\000\000\000\000\000\000\000\000\000\000\000\000\000\204\231\002\305\360\226`?\000\000\000\000\000\000\000\000\000\000\000\000\000\000\000\000$\007\264^R\031\366>\000\000\000\000\000\000\000\000\000\000\000\000\000\000\000\000\364\021\2730\2470\202>\000\000\000\000\000\000\000\000\000\000\000\000\000\000\000\000S\302Cd\216\322\004>\000\000\000\000\000\000\000\000\000\000\000\000\000\000\000\000EI\264\211;{\201=\000\000\000\000\000\000\000\000\000\000\000\000\000\000\000\000\000\000\000\000\000\000\000\000\000\000\000\000\000\000\000\000\000\000\000\000\000\000\000\000\000\000\000\000\000\000\000\000\023/\327g\016\356\352?\000\000\000\000\000\000\000\000=\245\340`\026@\340?\000\000\000\000\000\000\000\000\355L\235\371\363\246\306?\000\000\000\000\000\000\000\000^@\032\203\3144\251?\000\000\000\000\000\000\000\000|\256#\343\177\212\210?\000\000\000\000\000\000\000\000pa!b-\316e?\000\000\000\000\000\000\000\000PA\346\014\301\032B?\000\000\000\000\000\000\000\000\325-\232\373n\203\034?\000\000\000\000\000\000\000\000\025\025Z\243\366\202\365>\000\000\000\000\000\000\000\000\312\253\320\354~R\317>\000\000\000\000\000\000\000\000\303\3555\217\325\037\246>\000\000\000\000\000\000\000\000X\354\354\363(s~>\000\000\000\000\000\000\000\000DQ\375\371F{T>\000\000\000\000\000\000\000\000\000\000\000\000\000\000\000\000\000\000\000\000\000\000\000\000\000\000\000\000\000\000\000\000\000\000\000\000\000\000\000\000\000\000\000\000\000\000\360?\000\000\000\000\000\000\000\000\000\000\000\000\000\000\000\000\000\000\000\000\000\000\000\000\000\000\000\000\000\000\000\000\000\000\000\000\000\000\000\000\000\000\000\000\000\000\000\000\000\000\000\000\000\000\000\000\000\000\000\000\000\000\000\000\000\000\000\000\000\000\000\000\000\000\000\000\000\000\000\000\000\000\000\000\000\000\000\000\000\000\000\000\000\000\000\000\000\000\000\000\000\000\000\000\000\000\000\000\000\000\000\000\000\000\000\000\000\000\000\000\000\000\000\000\000\000\000\000\000\000\000\000\000\000\000\000\000\000\000\000\000\000\000\000\000\000\000\000\000\000\000\000\3256\013\226^\231\347?\220\232\342\316\006A\345?\357K\304\213\'\303\273?%\002\370\036 \337\254?\211\\\213\332\261\252z?\024\214\177\3107{e?\001D\325\301330?l\222S\201\353\016\026?\311\021\204y\030\320\334>`\300\323\334\276L\301>D\273*S+6\204>5Q\201p,\364e>K\276\250\003\010j\'>iU\265\220\372d\007>\255 +\"\216\031\307=\2611\030\355u\250\244=\000\000\000\000\000\000\000\000\000\000\000\000\000\000\000\000\000\000\000\000\000\000\000\000\000\000\000\000\000\000\000\000\000\000\000\000\000\000\000\000\000\000\000\000\000\000\000\000\000\000\000\000\000\000\000\000\000\000\000\000\000\000\000\000\000\000\000\000\000\000\000\000\361v\204\241\330\320\355?\000\000\000\000\000\000\000\000\000\000\000\000\000\000\000\000\3331\253\232\365&\327?\000\000\000\000\000\000\000\000\000\000\000\000\000\000\000\000j\317T\025r\024\240?\000\000\000\000\000\000\000\000\000\000\000\000\000\000\000\000D\345\275\356-\314U?\000\000\000\000\000\000\000\000\000\000\000\000\000\000\000\000\362i\361K%B\002?\000\000\000\000\000\000\000\000\000\000\000\000\000\000\000\000\2503\350\377\354D\245>\000\000\000\000\000\000\000\000\000\000\000\000\000\000\000\000x)\006tU\200B>\000\000\000\000\000\000\000\000\000\000\000\000\000\000\000\000\312\277\034516\331=\000\000\000\000\000\000\000\000\000\000\000\000\000\000\000\000\000\000\000\000\000\000\000\000O\325\272\210\214\375\350?\000\000\000\000\000\000\000\000\031\224\002\016\314\246\333?\000\000\000\000\000\000\000\000\234\310r\324\336\376\322?\000\000\000\000\000\000\000\000\234\010{a\342\314\313?\000\000\000\000\000\000\000\000`B\310\264=\377\304?\000\000\000\000\000\000\000\000\355\235\314|\274\'\300?\000\000\000\000\000\000\000\000\350H\246\024<%\271?\000\000\000\000\000\000\000\000\251\306uyv\265\263?\000\000\000\000\000\000\000\000\032\271BE\226\007\257?\000\000\000\000\000\000\000\000d\327\374\314\005}\250?\000\000\000\000\000\000\000\000\233\246\340U\016Z\243?\000\000\000\000\000\000\000\000s\007W<\013\232\236?\000\000\000\000\000\000\000\000\212v\034u?2\230?\000\000\000\000\000\000\000\000\000\000\000\000\000\000\000\000\000\000\000\000\000\000\000\000\000\000\000\000\000\000\000\000\000\000\000\000\000\000\000\000\000\000\000\000\000\000\000\000\000\000\000\000\000\000\000\000\000\000\000\000\000\000\000\000\000\000\000\000\000\000\000\000\000\000\000\000\000\000\360?\000\000\000\000\000\000\000\000\000\000\000\000\000\000\000\000\000\000\000\000\000\000\000\000\000\000\000\000\000\000\000\000\000\000\000\000\000\000\000\000\000\000\000\000\000\000\000\000\000\000\000\000\000\000\000\000\000\000\000\000\000\000\000\000\000\000\000\000\000\000\000\000\000\000\000\000\000\000\000\000\000\000\000\000\000\000\000\000\000\000\000\000\000\000\000\000\000\000\000\000\000\000\000\000\000\000\000\000\000\000\000\000\000\000\000\000\000\000\000\000T\r\324\346\275\017\356?J\327\235\351\362\322\324?\272\253\306t\230\007\273?\274\006Q\345\323\236\225?-\361\003\302\004\330s?q1\007\300\372\226H?\223\003\241^zm\"?\267\365\n\230\213L\363>h\230\247\224\331\014\311>\273\322\275]\007#\227>\361SJ1v\334j>\327d\334/\347p6>\215H\177\235\212\310\007>\007&\307\024\007G\322=\240\005\230\331\016\357\241=\000\000\000\000\000\000\000\000\000\000\000\000\000\000\000\000\000\000\000\000\000\000\000\000\000\000\000\000\000\000\000\000\000\000\000\000\000\000\000\000\000\000\000\000\000\000\000\000\000\000\000\000\000\000\000\000\000\000\000\000\000\000\000\000\000\000\000\000\000\000\000\000\000\000\000\000\000\000\000\000\377\241\364\244\214\207\357?\000\000\000\000\000\000\000\000\000\000\000\000\000\000\000\000\310\253\270\243N\332\305?\000\000\000\000\000\000\000\000\000\000\000\000\000\000\000\000\002\300^\233\006\030{?\000\000\000\000\000\000\000\000\000\000\000\000\000\000\000\000\232`\210\004%d ?\000\000\000\000\000\000\000\000\000\000\000\000\000\000\000\000\025\263:\243}\202\270>\000\000\000\000\000\000\000\000\000\000\000\000\000\000\000\000b\222\213!\371{I>\000\000\000\000\000\000\000\000\000\000\000\000\000\000\000\000\265\t\023\252P\311\323=\000\000\000\000\000\000\000\000\000\000\000\000\000\000\000\000\000\000\000\000\000\000\000\000\000\000\000\000\000\000\000\000\000\000\000\000\000\000\000\000\000\000\000\000\000\000\000\000\000\355\231f\213@\354?\000\000\000\000\000\000\000\000\324\322i\237\314\355\330?\000\000\000\000\000\000\000\000*\247\245!\356(\313?\000\000\000\000\000\000\000\000}\203\t\225cr\277?\000\000\000\000\000\000\000\000\245t\334v&\315\262?\000\000\000\000\000\000\000\000HT\2504\357\366\246?\000\000\000\000\000\000\000\000\32736\265c|\234?\000\000\000\000\000\000\000\000)\243\241C\373\337\221?\000\000\000\000\000\000\000\000\001\314-\311\222\242\206?\000\000\000\000\000\000\000\000a\205\247OJ\334|?\000\000\000\000\000\000\000\000n\251\351\315\332~r?\000\000\000\000\000\000\000\000\320\335y*\232\314g?\000\000\000\000\000\000\000\000\025\"\341\204c\266^?\000\000\000\000\000\000\000\000\000\000\000\000\000\000\000\000\000\000\000\000\000\000\000\000\000\000\000\000\000\000\000\000\000\000\000\000\000\000\000\000\000\000\000\000\000\000\000\000\000\000\000\000\000\000\000\000\000\000\000\000\000\000\000\000\000\000\000\000\000\000\000\000\000\000\000\000\000\000\000\000\000\000\000\000\000\000\000\000\000\000\000\000\000\000\000\000\000\000\000\000\000\000\000\000\000\000\000\000\000\000\000\000\000\000\000\000\000\000\360?\000\000\000\000\000\000\000\000\000\000\000\000\000\000\000\000\000\000\000\000\000\000\000\000\000\000\000\000\000\000\000\000\000\000\000\000\000\000\000\000\000\000\000\000\000\000\000\000\000\000\000\000\000\000\000\000\000\000\000\000\000\000\000\000\000\000\000\000\000\000\000\000\000\000\000\000\000\000\000\000R\374\252\"K\361\344?\r\253a\312\302\031\342?=\240r\345\264\310\333?\345\'\222-\207\272\313?\005:\000\366\255\030\276?\234\377\317R\037D\247?v9\033\200l\236\224?\'=\341jM\361z?%\306\027\317\227\255d?%\272\216tT\324G?\377>\245x\244[0?\252\006X\211!\r\021?tB\255\211\323^\365>-\371y\334\270}\324>0\315\260j\307\306\267>\213Q?\376S9\225>\315\255\271GI\tw>=\372\037\256\325PS>\024$\201\242!\3043>\322o2\231\274Z\017>\323#\212\nbp\356=u\315\016\343\276\366\306=\007|\272\030\203A\245=`\206\230\315\267\352\177=\000\000\000\000\000\000\000\000p\n\021W\203L\357?\000\000\000\000\000\000\000\000\000\000\000\000\000\000\000\0007N\373O\007\236\312?\000\000\000\000\000\000\000\000\000\000\000\000\000\000\000\000\220w)\367\010?\204?\000\000\000\000\000\000\000\000\000\000\000\000\000\000\000\000\007\265\273q\327\016.?\000\000\000\000\000\000\000\000\000\000\000\000\000\000\000\000\r^\332m\001\223\313>\000\000\000\000\000\000\000\000\000\000\000\000\000\000\000\000\344\261\033G\350\226a>\000\000\000\000\000\000\000\000\000\000\000\000\000\000\000\000\013\214\313\330\302\301\360=\000\000\000\000\000\000\000\000\000\000\000\000\000\000\000\000\000\000\000\000\000\000\000\000\000\000\000\000\000\000\000\000\000\000\000\000\000\000\000\000\000\000\000\000\000\000\000\000Le\351\335\250S\354?\000\000\000\000\000\000\000\000\351\000\307m\336\001\323?\000\000\000\000\000\000\000\000\235\371d\312\034\350\313?\000\000\000\000\000\000\000\000{\023:|u\241\307?\000\000\000\000\000\000\000\000\005\225F9x\307\302?\000\000\000\000\000\000\000\000\310D\363\331|E\274?\000\000\000\000\000\000\000\000\277\005^N\300\215\264?\000\000\000\000\000\000\000\000~`\206\2706A\255?\000\000\000\000\000\000\000\0008B\007\364J\220\244?\000\000\000\000\000\000\000\000C6\232\305\337\272\234?\000\000\000\000\000\000\000\000\007\211\206\302\255\007\224?\000\000\000\000\000\000\000\000\260*W\030\177\363\213?\000\000\000\000\000\000\000\000\352p.\270\202\214\203?\000\000\000\000\000\000\000\000\000\000\000\000\000\000\000\000\000\000\000\000\000\000\000\000\000\000\000\000\000\000\000\000\000\000\000\000\000\000\000\000\000\000\000\000\000\000\000\000\000\000\000\000\000\000\000\000\000\000\000\000\000\000\000\000\000\000\000\000\000\000\000\000\000\000\000\000\000\000\000\000\000\000\000\000\000\000\000\000\000\000\000\000\000\000\000\000\000\000\000\000\000\000\000\000\000\000\000\000\000\000\000\000\000\000\000\000\000\000\000\000\000\000\000\000\000\000\000\000\000\000\000\000\000\000\000\000\000\000\000\000\000\000\360?\000\000\000\000\000\000\000\000\000\000\000\000\000\000\000\000\000\000\000\000\000\000\000\000\000\000\000\000\000\000\000\000\000\000\000\000\000\000\000\000\000\000\000\000\000\000\000\000\000\000\000\000\000\000\000\000\033u\334Q\347\367\350?s5\371e\273&\343?\266\035\366G\r1\305?>:\313z\335\304\262?;#\223:\010_\215?\277\351\312\370e&t?\325\267i\326\372\276I?\271\356\273\256\026\333-?O\021\\\237\255\204\000?\r\"\227J\247\344\340>\375\300\341\035.\270\260>\312\275\357\254\340\356\216>\373\261$\311\222\362[>\353\214\2346\023\3107>.\037\217\004s\344\003>P\321\240f>\204\337=\036\345\303\210\351\250\250=\247\271\362r\324}}=\000\000\000\000\000\000\000\000\000\000\000\000\000\000\000\000\000\000\000\000\000\000\000\000\000\000\000\000\000\000\000\000\000\000\000\000\000\000\000\000\000\000\000\000\000\000\000\000\000\000\000\000\000\000\000\000),d\314\261\373\357?\000\000\000\000\000\000\000\000\000\000\000\000\000\000\000\000\324\210J\030\333\230\240?\000\000\000\000\000\000\000\000\000\000\000\000\000\000\000\000\201\310(\017_\320.?\000\000\000\000\000\000\000\000\000\000\000\000\000\000\000\000\246\321\325X?\352\253>\000\000\000\000\000\000\000\000\000\000\000\000\000\000\000\000\220B\237\314\256@\037>\000\000\000\000\000\000\000\000\000\000\000\000\000\000\000\000\006-\304\231^\021\210=\000\000\000\000\000\000\000\000\000\000\000\000\000\000\000\000\000\000\000\000\000\000\000\000\000\000\000\000\000\000\000\000\000\000\000\000\000\000\000\000\000\000\000\000\000\000\000\000\000\000\000\000\000\000\000\000\000\000\000\000\000\000\000\000\000\000\000\000\000\000\000\000\245\224$y\370r\353?\000\000\000\000\000\000\000\000\032\036;\274\366t\332?\000\000\000\000\000\000\000\000\3351_5\235E\317?\000\000\000\000\000\000\000\000U\rQ|s\334\302?\000\000\000\000\000\000\000\000\216\312\014\266\004\226\266?\000\000\000\000\000\000\000\000\252\023\231\347\234\274\252?\000\000\000\000\000\000\000\000\353*\367R\240N\237?\000\000\000\000\000\000\000\000b\243\260#[(\222?\000\000\000\000\000\000\000\000\230\377M\202!\345\204?\000\000\000\000\000\000\000\000)ig\255\014\342w?\000\000\000\000\000\000\000\000$\333\025\t\372#k?\000\000\000\000\000\000\000\000\203y\321C\037\260^?\000\000\000\000\000\000\000\000\034\370\270\342\377EQ?\000\000\000\000\000\000\000\000\000\000\000\000\000\000\000\000\000\000\000\000\000\000\000\000\000\000\000\000\000\000\000\000\000\000\000\000\000\000\000\000\000\000\000\000\000\000\000\000\000\000\000\000\000\000\000\000\000\000\000\000\000\000\000\000\000\000\000\000\000\000\000\000\000\000\000\000\000\000\000\000\000\000\000\000\000\000\000\000\000\000\000\000\000\000\000\000\000\000\000\000\000\000\000\000\000\000\000\000\000\000\000\000\000\000\000\000\000\000\000\000\000\000\000\000\000\000\000\000\000\000\000\000\000\000\000\000\000\000\000\000\000\000\000\000\000\000\000\000\000\000\000\000\000\000\000\000\000\000\000\000\000\000\000\000\000\000\000\000\000\000\000\000\000\000\000\000\000\000\000\000\000\000\000\000\000\000\000\000\000\000\360?\000\000\000\000\000\000\000\000:\003\273Y\204\344\357?}=t\"\204\367\256?\234TK\022\3744\254?\211U\2534\t\240_?\237\215Fo\214^T?\313\251UO\245\260\001?\274y\243\033.\233\362>\375\234\327`6P\233>\333\216\273\363\t\341\210>\256[\203\211\305\0320>\253\210\r\341\276=\032>\230\344\227\002\271\272\276=\021\270\243\016\262\332\246=\000\000\000\000\000\000\000\000\000\000\000\000\000\000\000\000\000\000\000\000\000\000\000\000\000\000\000\000\000\000\000\000\000\000\000\000\000\000\000\000\000\000\000\000\000\000\000\000\000\000\000\000\000\000\000\000\000\000\000\000\000\000\000\000\000\000\000\000\000\000\000\000\000\000\000\000\000\000\000\000\000\000\000\000\000\000\000\000\000\000\000\000\000\000\000\000HB\225J\377\371\357?\000\000\000\000\000\000\000\000\000\000\000\000\000\000\000\000\236\346Y\334\233\230\243?\000\000\000\000\000\000\000\000\000\000\000\000\000\000\000\000\245[\263(\202{5?\000\000\000\000\000\000\000\000\000\000\000\000\000\000\000\000\003\341\335\236\230\373\266>\000\000\000\000\000\000\000\000\000\000\000\000\000\000\000\000\235I\301X\357b.>\000\000\000\000\000\000\000\000\000\000\000\000\000\000\000\000\265Y\374\002\017\333\233=\000\000\000\000\000\000\000\000\000\000\000\000\000\000\000\000\000\000\000\000\000\000\000\000\000\000\000\000\000\000\000\000\000\000\000\000\000\000\000\000\000\000\000\000\000\000\000\000\000\000\000\000\000\000\000\000\000\000\000\000\000\000\000\000\000\000\000\000\000\000\000\000\177T\350C\272J\351?\000\000\000\000\000\000\000\000I\356\267\265\001w\334?\000\000\000\000\000\000\000\000g\234\337\230\2250\323?\000\000\000\000\000\000\000\000\2132\353:\243\316\312?\000\000\000\000\000\000\000\000\364L\377\277~\354\302?\000\000\000\000\000\000\000\000\316|\\\251\r\313\272?\000\000\000\000\000\000\000\000\352{\265\006\310\366\262?\000\000\000\000\000\000\000\000H\374N\271_\316\252?\000\000\000\000\000\000\000\000\305\355\242\235z\350\242?\000\000\000\000\000\000\000\000\322\027\204\312\313\235\232?\000\000\000\000\000\000\000\000\304\366+\370A\261\222?\000\000\000\000\000\000\000\000\006\377\374\006\3372\212?\000\000\000\000\000\000\000\000\2563s\376lR\202?\000\000\000\000\000\000\000\000\000\000\000\000\000\000\000\000\000\000\000\000\000\000\000\000\000\000\000\000\000\000\360?\000\000\000\000\000\000\000\000\000\000\000\000\000\000\000\000\000\000\000\000\000\000\000\000\000\000\000\000\000\000\000\000\000\000\000\000\000\000\000\000\000\000\000\000\000\000\000\000\000\000\000\000\000\000\000\000\000\000\000\000\000\000\000\000\000\000\000\000\000\000\000\000\000\000\000\000\000\000\000\000\000\000\000\000\000\000\000\000\000\000\000\000\000\000\000\000\000\000\000\000\000\000\000\000\000\000\000\000\000\000\000\000\000\000\000\000\000\000\000\000\000\000\000\000\000\000\000\000\000\000\000\000\000\000\000\000\000\000\000\000\000\000\000\000\000\000\000\000\000\000\000\000\000\000\000\000\000\000\000\000\000\000\000\000\000\000\000\000\035[\301\226\344I\355?v\365&\033\336\371\275?\260\034q4\035A\330?L\371IJ\360\251\234?\341\030!$Of\260?\215 V\'m\006n?Y\027\257\247f\r|?PC\341\305\t\2645?}\327>\306\206\217A?\027Y\273\357\266\366\367>\361^E\377\265W\001?\030\207\353\203)h\265>\331\216\274\316\350H\274>\037k\346+\315\016p>\305\341-\215\252\244s>\3700\227\031z\303$>\353\032\361\310]\302\'>\243W~\226@\227\327=<lq\252Ws\331=d\234\242\330w\360\206=_\337\346\362\200\341\207=\000\000\000\000\000\000\000\000\000\000\000\000\000\000\000\000\000\000\000\000\000\000\000\000\000\000\000\000\000\000\000\000\347\255\0020\210\377\357?\000\000\000\000\000\000\000\000\000\000\000\000\000\000\000\000@9\330\3172\344\205?\000\000\000\000\000\000\000\000\000\000\000\000\000\000\000\000U\n\361A\237\312\372>\000\000\000\000\000\000\000\000\000\000\000\000\000\000\000\000\262i\234h\212\377_>\000\000\000\000\000\000\000\000\000\000\000\000\000\000\000\000g\037\216\274]\235\267=\000\000\000\000\000\000\000\000\000\000\000\000\000\000\000\000\000\000\000\000\000\000\000\000\000\000\000\000\000\000\000\000\000\000\000\000\000\000\000\000\000\000\000\000\000\000\000\000\000\000\000\000\000\000\000\000\000\000\000\000\000\000\000\000\000\000\000\000\000\000\000\000\000\000\000\000\000\000\000\000\000\000\000\000\000\000\000\000\000\000\000\000\000\000\000\000\256\005\272\313~\252\357?\000\000\000\000\000\000\000\0009\216\201\346k(\302?\000\000\000\000\000\000\000\000\241}\333\"\031\201\231?\000\000\000\000\000\000\000\000Q\020<\306\\\341r?\000\000\000\000\000\000\000\000@*w\362\314\244L?\000\000\000\000\000\000\000\0004\326\243\231F\t&?\000\000\000\000\000\000\000\000\317\270]\266\362\033\001?\000\000\000\000\000\000\000\000\r\347\343\317K\275\332>\000\000\000\000\000\000\000\000\315i\317\252\317\376\264>\000\000\000\000\000\000\000\0008:\361X\317\213\220>\000\000\000\000\000\000\000\000\356\367\301m\366\'j>\000\000\000\000\000\000\000\000\200e\323\211 \271D>\000\000\000\000\000\000\000\000\347D\312\241\203s >\000\000\000\000\000\000\000\000\000\000\000\000\000\000\000\000\000\000\000\000\000\000\000\000\000\000\000\000\000\000\000\000\000\000\000\000\000\000\000\000\000\000\000\000\000\000\000\000\000\000\000\000\000\000\000\000\000\000\000\000\000\000\000\000\000\000\000\000\000\000\000\000\000\000\000\000\000\000\000\000\000\000\000\000\000\000\000\000\000\000\000\000\000\000\000\000\000\000\000\000\000\000\000\000\000\000\000\000\000\000\360?\000\000\000\000\000\000\000\000\000\000\000\000\000\000\000\000\000\000\000\000\000\000\000\000\000\000\000\000\000\000\000\000\000\000\000\000\000\000\000\000\000\000\000\000\000\000\000\000\000\000\000\000\000\000\000\000\000\000\000\000\000\000\000\000\000\000\000\000\000\000\000\000\000\000\000\000\000\000\000\000\000\000\000\000\000\000\000\000G\316qyj\255\317?\0225\005\027\252\266\356?\0362\317\341t\224\253?m\276\227\341\244\340\276?\302\001\033\370&\233s?\252\023\374\366\252\000\201?#\371\366#<\2411?\306\006\323\366\277\3279?\3469\030\366\3024\347>\254\315\224\034\377\377\355>L\370\365\314Y\030\230>\261&\205\002\363,\234>\006\340(\030y\250D>\233\215\356c\2038F>{\r~\265\303*\356=\336\311\312\002X5\356=\324\362U\341\230-\223=\317\244\316\365\263B\220=\000\000\000\000\000\000\000\000\000\000\000\000\000\000\000\000\000\000\000\000\000\000\000\000\000\000\000\000\000\000\000\000\000\000\000\000\000\000\000\000\000\000\000\000\000\000\000\000\000\000\000\000\000\000\000\000p8L\324\0012\356?\000\000\000\000\000\000\000\000\000\000\000\000\000\000\000\000\356\317xy\313\037\325?\000\000\000\000\000\000\000\000\000\000\000\000\000\000\000\000\273\035b\342\234o\232?\000\000\000\000\000\000\000\000\000\000\000\000\000\000\000\000\r\253/d\240$P?\000\000\000\000\000\000\000\000\000\000\000\000\000\000\000\000!\032\016\365k]\370>\000\000\000\000\000\000\000\000\000\000\000\000\000\000\000\0002Z\337\3314\222\231>\000\000\000\000\000\000\000\000\000\000\000\000\000\000\000\000[;\323\0135\n4>\000\000\000\000\000\000\000\000\000\000\000\000\000\000\000\000L\372\220-c\232\310=\000\000\000\000\000\000\000\000\000\000\000\000\000\000\000\000\000\000\000\000\000\000\000\000}z\257\361l\006\354?\000\000\000\000\000\000\000\000\355\367\276S\t\203\332?\000\000\000\000\000\000\000\000\004\034\276H\320b\313?\000\000\000\000\000\000\000\000\204\344P3\275\320\273?\000\000\000\000\000\000\000\000\210\013V.>\247\253?\000\000\000\000\000\000\000\000\206\035\375r\002\376\232?\000\000\000\000\000\000\000\0001\002\'\223\266\363\211?\000\000\000\000\000\000\000\000\307t\377p[\244x?\000\000\000\000\000\000\000\0000\211\372\330q\'g?\000\000\000\000\000\000\000\000\204\211\310F\376\217U?\000\000\000\000\000\000\000\000\250\014=\220\005\355C?\000\000\000\000\000\000\000\000\177%\207\177!J2?\000\000\000\000\000\000\000\000\266\375\356\357\017\260 ?\000\000\000\000\000\000\000\000\000\000\000\000\000\000\000\000\000\000\000\000\000\000\000\000\000\000\000\000\000\000\000\000\000\000\000\000\000\000\000\000\000\000\000\000\000\000\000\000\000\000\000\000\000\000\000\000\000\000\000\000\000\000\000\000\000\000\000\000\000\000\000\000\000\000\000\000\000\000\000\000\000\000\000\000\000\000\000\000\000\000\000\000\000\000\000\000\000\000\000\000\000\000\000\000\000\000\000\000\000\000\000\000\000\000\000\000\000\000\000\000\000\000\000\000\000\000\000\000\000\000\000\000\000\000\000\000\000\000\000\000\000\000\360?\000\000\000\000\000\000\000\000\000\000\000\000\000\000\000\000\000\000\000\000\000\000\000\000\000\000\000\000\000\000\000\000\000\000\000\000\000\000\000\000\000\000\000\000\000\000\000\000\000\000\000\000\000\000\000\000\316\325\354\250Q\006\354?\374\315H\031\364\221\323?\226@\027\274J\034\327?\225\225\275\266\226\242\262?[\344\216\327%\037\257?l\207l)<p\203?T\017).\221\201z?\323\233\266\004\351\373K?gi,5\365\205@?\031w\r\312\361\304\016?&\234\031\232\364?\000?b\232\333O\r_\313>\003fW\231?d\272>\312\307q\312(r\204>\244tQ\335p@r>\335\014\013\252\265S:>?\311\331/\330\373%>\375\237\023f]\311\355=\353af\366\321`\327=[\375Z\303\374\r\236=\345\201\342\2318\221\202=\000\000\000\000\000\000\000\000\000\000\000\000\000\000\000\000\000\000\000\000\000\000\000\000\000\000\000\000\000\000\000\000\316\225y\243\216\377\357?\000\000\000\000\000\000\000\000\000\000\000\000\000\000\000\000ca\335J>K\205?\000\000\000\000\000\000\000\000\000\000\000\000\000\000\000\000\2076\304\265SY\371>\000\000\000\000\000\000\000\000\000\000\000\000\000\000\000\000\267p\226\\\353r]>\000\000\000\000\000\000\000\000\000\000\000\000\000\000\000\000\220\323\036\025\335#\265=\000\000\000\000\000\000\000\000\000\000\000\000\000\000\000\000\000\000\000\000\000\000\000\000\000\000\000\000\000\000\000\000\000\000\000\000\000\000\000\000\000\000\000\000\000\000\000\000\000\000\000\000\000\000\000\000\000\000\000\000\000\000\000\000\000\000\000\000\000\000\000\000\000\000\000\000\000\000\000\000\000\000\000\000\000\000\000\000\000\000\000\000\000\000\000\000\315\267V\245\340\313\357?\000\000\000\000\000\000\000\000\367\033~\207\255\246\274?\000\000\000\000\000\000\000\000\275q.\232\236\256\211?\000\000\000\000\000\000\000\000@\201x\001L\261U?\000\000\000\000\000\000\000\000rc\314l\212\217!?\000\000\000\000\000\000\000\00041\202\007<\223\353>\000\000\000\000\000\000\000\000*TNX\253\'\265>\000\000\000\000\000\000\000\000\336\326\177d\030\337\177>\000\000\000\000\000\000\000\000Q\247\210x7\247G>\000\000\000\000\000\000\000\000n\037\341\3371V\021>\000\000\000\000\000\000\000\000O\315&L\201X\331=\000\000\000\000\000\000\000\0007\355\312\335\2101\242=\000\000\000\000\000\000\000\000\000\000\000\000\000\000\000\000\000\000\000\000\000\000\000\000\000\000\000\000\000\000\360?\000\000\000\000\000\000\000\000\000\000\000\000\000\000\000\000\000\000\000\000\000\000\000\000\000\000\000\000\000\000\000\000\000\000\000\000\000\000\000\000\000\000\000\000\000\000\000\000\000\000\000\000\000\000\000\000\000\000\000\000\000\000\000\000\000\000\000\000\000\000\000\000\000\000\000\000\000\000\000\000\000\000\000\000\000\000\000\000\000\000\000\000\000\000\000\000\000\000\000\000\000\000\000\000\000\000\000\000\000\000\000\000\000\000\000\000\000\000\000\000\000\000\000\000\000\000\000\000\000\000\000\000\000\000\000\000\000\000\000\000\000\000\000\000\000\000\000\000\000\000\000\000\000\000\000\000\000\000\000\000\000\000\000\000\000\000\000\000\000\000\000\000\000\000\000\000\000\000\000\000\000\000\000\000\323\260\213c\302\332\356?\343\250\333}\252\330\320?&u\3118\376-\240?I/\307\005\265ft?\305K\236\010\271\265;?\000eons\020\013?4\345\316\033\255\003\316>\021%\343E\230\306\230>\241\317\345|\226\313W>u\246\003$\236R!>\242\276ye\361\302\335=\276Sg\264\206\371\242=\000\000\000\000\000\000\000\000\000\000\000\000\000\000\000\000\000\000\000\000\000\000\000\000\000\000\000\000\000\000\000\000\000\000\000\000\000\000\000\000\000\000\000\000\000\000\000\000\000\000\000\000\000\000\000\000\000\000\000\000\000\000\000\000\000\000\000\000\000\000\000\000\000\000\000\000\000\000\000\000\000\000\000\000\000\000\000\000\000\000\000\000\000\000\000\000\000\000\000\000\000\000\000\000\270\262\2240\350\317\355?\000\000\000\000\000\000\000\000\000\000\000\000\000\000\000\000\217\035\373\303\267+\327?\000\000\000\000\000\000\000\000\000\000\000\000\000\000\000\000\361Ha\301\220\033\240?\000\000\000\000\000\000\000\000\000\000\000\000\000\000\000\000\214\320J\325\001\333U?\000\000\000\000\000\000\000\000\000\000\000\000\000\000\000\000R\035\330\334\347R\002?\000\000\000\000\000\000\000\000\000\000\000\000\000\000\000\000\n5#}\202]\245>\000\000\000\000\000\000\000\000\000\000\000\000\000\000\000\000:c\223\307\037\232B>\000\000\000\000\000\000\000\000\000\000\000\000\000\000\000\000}G\371\211X_\331=\000\000\000\000\000\000\000\000\000\000\000\000\000\000\000\000\000\000\000\000\000\000\000\000\000_U\340\013W\351?\000\000\000\000\000\000\000\000\306\326\241w\206\210\334?\000\000\000\000\000\000\000\000\r\310\236\267+)\323?\000\000\000\000\000\000\000\000C`\"`+\226\312?\000\000\000\000\000\000\000\000\273\344\356\227\027\233\302?\000\000\000\000\000\000\000\000\336XO_O\024\272?\000\000\000\000\000\000\000\000=#\2357eA\262?\000\000\000\000\000\000\000\000\347p]\004)\200\251?\000\000\000\000\000\000\000\000G\346\324\333\270\303\241?\000\000\000\000\000\000\000\000x\262\344\365U\257\230?\000\000\000\000\000\000\000\000\006\340ZW\'\033\221?\000\000\000\000\000\000\000\000U\013\345\tF\246\207?\000\000\000\000\000\000\000\000\377\304\223\222NO\200?\000\000\000\000\000\000\000\000\000\000\000\000\000\000\000\000\000\000\000\000\000\000\000\000\000\000\000\000\000\000\360?\000\000\000\000\000\000\000\000\000\000\000\000\000\000\000\000\000\000\000\000\000\000\000\000\000\000\000\000\000\000\000\000\000\000\000\000\000\000\000\000\000\000\000\000\000\000\000\000\000\000\000\000\000\000\000\000\000\000\000\000\000\000\000\000\000\000\000\000\000\000\000\000\000\000\000\000\000\000\000\000\000\000\000\000\000\000\000\000\000\000\000\000\000\000\000\000\000\000\000\000\000\000\000\000\000\000\000\000\000\000\000\000\000\000\000\000\000\000\000\000\000\000\000\000\000\000\000\000\000\000\000\000\000\000\000\000\000\000\000\000\000\000\000\000\000\000\000\000\000\000\000\000\000\000\000\000\000\000\000\000\000\000\000\000\000\000\000\000\200\346fA?G\353?\316 \221\360\300\207\236?\3061\207\243\2617\340?\215\307\235\203y\365\204?\211\211\277\307X}\277?w\002Gh\334\205_?\215\236%P\323U\223?\327_\205\315\310[0?\024n\374\261\020aa?\377T\353\227G\357\371>\260\2709d\332\244(?T\002\267\224\353\241\300>\000<E^\370\332\354>\263\243K\000\013\352\201>\260b\371\367\007\306\254>t|\206\217E\241@>\326\240\244XT\374h>\325^\034\364\036!\373=.\233a\362\3646#>\250\306=\315\022\274\263=\356\276\3033!\205\332=\000\000\000\000\000\000\000\000\r.\267@\027\231\220=\000\000\000\000\000\000\000\000\000\000\000\000\000\000\000\000\007[\037\200\357\366\357?\000\000\000\000\000\000\000\000\000\000\000\000\000\000\000\000i\263\005\245\351\023\250?\000\000\000\000\000\000\000\000\000\000\000\000\000\000\000\000D\244\355\345\3378@?\000\000\000\000\000\000\000\000\000\000\000\000\000\000\000\000\273u.\356\rU\305>\000\000\000\000\000\000\000\000\000\000\000\000\000\000\000\000K\252D\243pUA>\000\000\000\000\000\000\000\000\000\000\000\000\000\000\000\000v@\217\233u\226\263=\000\000\000\000\000\000\000\000\000\000\000\000\000\000\000\000\000\000\000\000\000\000\000\000\000\000\000\000\000\000\000\000\000\000\000\000\000\000\000\000\000\000\000\000\000\000\000\000\000\000\000\000\000\000\000\000\000\000\000\000\000\000\000\000\000\000\000\000\000\000\000\000\376\370\273\351\342O\357?\000\000\000\000\000\000\000\000\350\206\'m\363\266\307?\000\000\000\000\000\000\000\000\t\245i\206\366\035\256?\000\000\000\000\000\000\000\000\203?\037\230\275\223\251?\000\000\000\000\000\000\000\000CaX\362\273\376\242?\000\000\000\000\000\000\000\000(K\301\217\232\221\230?\000\000\000\000\000\000\000\000\236aH\253\222e\215?\000\000\000\000\000\000\000\000\313&\004\211\336\300\200?\000\000\000\000\000\000\000\000x\336\002z\253xr?\000\000\000\000\000\000\000\000\345b\364\001q\340c?\000\000\000\000\000\000\000\000\244\301\257\023\272\377T?\000\000\000\000\000\000\000\000\017\317\320\027\177\340E?\000\000\000\000\000\000\000\000\260\004\241\036\210\2206?\000\000\000\000\000\000\000\000\000\000\000\000\000\000\000\000\000\000\000\000\000\000\000\000\000\000\000\000\000\000\000\000\000\000\000\000\000\000\000\000\000\000\000\000\000\000\000\000\000\000\000\000\000\000\000\000\000\000\000\000\000\000\000\000\000\000\000\000\000\000\360?\000\000\000\000\000\000\000\000\000\000\000\000\000\000\000\000\000\000\000\000\000\000\000\000\000\000\000\000\000\000\000\000\000\000\000\000\000\000\000\000\000\000\000\000\000\000\000\000\000\000\000\000\000\000\000\000\000\000\000\000\000\000\000\000\000\000\000\000\000\000\000\000\000\000\000\000\000\000\000\000\000\000\000\000\000\000\000\000\000\000\000\000\000\000\000\000\000\000\000\000\000\000\000\000\000\000\000\000\000\000\000\000\000\000\000\000\000\000\000\000\000\000\000\000\000\000\000\000\377\014l\216\020\321\357?\246r\234\306\262\224\270?v|\253\003\002\002\250?\311\213\303\271\324je?\337\3327$$\225M?\326\377j#\'q\004?\3157\357u\334\r\347>6-*d\212\355\232>\376\330\t\000\330Lz>xJ\330\247\207\027+>\267:\017,\270\252\007>9xbDL\r\266=\333>a\225\321\345\221=\000\000\000\000\000\000\000\000\000\000\000\000\000\000\000\000\000\000\000\000\000\000\000\000\000\000\000\000\000\000\000\000\000\000\000\000\000\000\000\000\000\000\000\000\000\000\000\000\000\000\000\000\000\000\000\000\000\000\000\000\000\000\000\000\000\000\000\000\000\000\000\000\000\000\000\000\000\000\000\000\000\000\000\000\000\000\000\000\000\000\000\000\000\000\000\000\274\231\316\016\376\377\357?\000\000\000\000\000\000\000\000\000\000\000\000\000\000\000\000\223B\374\315=LV?\000\000\000\000\000\000\000\000\000\000\000\000\000\000\000\0007\320\312\311?\313\233>\000\000\000\000\000\000\000\000\000\000\000\000\000\000\000\000\303q6A\251\347\320=\000\000\000\000\000\000\000\000\000\000\000\000\000\000\000\000\000\000\000\000\000\000\000\000\000\000\000\000\000\000\000\000\000\000\000\000\000\000\000\000\000\000\000\000\000\000\000\000\000\000\000\000\000\000\000\000\000\000\000\000\000\000\000\000\000\000\000\000\000\000\000\000\000\000\000\000\000\000\000\000\000\000\000\000\000\000\000\000\000\000\000\000\000\000\000\000\000\000\000\000\000\000\000\000\000\000\000\000\000\000\000\000\000\000\000\000\000\000\000\000LcgD\261\214\351?\000\000\000\000\000\000\000\000\022u\240KU\336\333?\000\000\000\000\000\000\000\000Vq\335Ly\230\322?\000\000\000\000\000\000\000\000GUo\327\t\"\312?\000\000\000\000\000\000\000\000\223\351\215zo\314\302?\000\000\000\000\000\000\000\000m\367\354r\211g\273?\000\000\000\000\000\000\000\000\361?\207\203X$\264?\000\000\000\000\000\000\000\000WC:\211\230\306\255?\000\000\000\000\000\000\000\000\332\303B\"\335\030\246?\000\000\000\000\000\000\000\000\314\337\277\267wr\240?\000\000\000\000\000\000\000\000z\327\332V\305\211\230?\000\000\000\000\000\000\000\000\226\310\213\366\013V\222?\000\000\000\000\000\000\000\000m\255\036=\235p\213?\000\000\000\000\000\000\000\000\000\000\000\000\000\000\000\000\000\000\000\000\000\000\000\000\000\000\000\000\000\000\000\000\000\000\000\000\000\000\000\000\000\000\000\000\000\000\000\000\000\000\000\000\000\000\000\000\000\000\000\000\000\000\000\000\000\000\000\000\000\000\000\000\000\000\000\000\000\000\000\000\000\000\000\000\000\000\000\000\000\000\000\000\000\000\000\000\000\000\000\000\000\000\000\000\000\000\000\000\000\000\360?\000\000\000\000\000\000\000\000\000\000\000\000\000\000\000\000\000\000\000\000\000\000\000\000\000\000\000\000\000\000\000\000\000\000\000\000\000\000\000\000\000\000\000\000\000\000\000\000\000\000\000\000\000\000\000\000\000\000\000\000\000\000\000\000\000\000\000\000\000\000\000\000\000\000\000\000\000\000\000\000\000\000\000\000\000\000\000\000 t\037r\221\374\357?]\213\315\313\n\242\235?\005\377\232\212\0307@?\364\215\303\275\223X\341>\033\262\253\220\305\330z>]\317Y\002\340>\026>Hh\375T\251\034\254=\000\000\000\000\000\000\000\000\000\000\000\000\000\000\000\000\000\000\000\000\000\000\000\000\000\000\000\000\000\000\000\000\000\000\000\000\000\000\000\000\000\000\000\000\000\000\000\000\000\000\000\000\000\000\000\000\000\000\000\000\000\000\000\000\000\000\000\000\000\000\000\000\000\000\000\000\000\000\000\000\000\000\000\000\000\000\000\000\000\000\000\000\000\000\000\000\000\000\000\000\000\000\000\000\000\000\000\000\000\000\000\000\000\000\000\000\000\000\000\000\000\000\000\000\000\000\000\000\000\000\000\000\000\000\000\000\000\000\000\000\000\000\000\000\024\376,\342\377\377\357?\000\000\000\000\000\000\000\000\000\000\000\000\000\000\000\000F\020i\3179\3305?\000\000\000\000\000\000\000\000\000\000\000\000\000\000\000\000\210\2738]\365\254Z>\000\000\000\000\000\000\000\000\000\000\000\000\000\000\000\000\000\000\000\000\000\000\000\000\000\000\000\000\000\000\000\000\000\000\000\000\000\000\000\000\000\000\000\000\000\000\000\000\000\000\000\000\000\000\000\000\000\000\000\000\000\000\000\000\000\000\000\000\000\000\000\000\000\000\000\000\000\000\000\000\000\000\000\000\000\000\000\000\000\000\000\000\000\000\000\000\000\000\000\000\000\000\000\000\000\000\000\000\000\000\000\000\000\000\000\000\000\000\000\000\000\000\000\000\000\000\000\000\000\000\000\000\000\000\000\000\000\000\000\000\000\000\000\000\267O\367\210\213\317\357?\000\000\000\000\000\000\000\000[`|\306m\216\273?\000\000\000\000\000\000\000\000h*Y\377b?\215?\000\000\000\000\000\000\000\000Sb\025]\033^`?\000\000\000\000\000\000\000\000\010\335g\207\220\3072?\000\000\000\000\000\000\000\000=s\":\235\334\005?\000\000\000\000\000\000\000\000AZ\300\263\004\262\331>\000\000\000\000\000\000\000\000Og\\\246\347h\256>\000\000\000\000\000\000\000\000\263}g\272\264\026\202>\000\000\000\000\000\000\000\000\026\"\222,\276\233U>\000\000\000\000\000\000\000\000)\254\264\346b\346)>\000\000\000\000\000\000\000\000 