node {
  name: "global_step/Initializer/zeros"
  op: "Const"
  attr {
    key: "_class"
    value {
      list {
        s: "loc:@global_step"
      }
    }
  }
  attr {
    key: "_output_shapes"
    value {
      list {
        shape {
        }
      }
    }
  }
  attr {
    key: "dtype"
    value {
      type: DT_INT64
    }
  }
  attr {
    key: "value"
    value {
      tensor {
        dtype: DT_INT64
        tensor_shape {
        }
        int64_val: 0
      }
    }
  }
}
node {
  name: "global_step"
  op: "VariableV2"
  attr {
    key: "_class"
    value {
      list {
        s: "loc:@global_step"
      }
    }
  }
  attr {
    key: "_output_shapes"
    value {
      list {
        shape {
        }
      }
    }
  }
  attr {
    key: "container"
    value {
      s: ""
    }
  }
  attr {
    key: "dtype"
    value {
      type: DT_INT64
    }
  }
  attr {
    key: "shape"
    value {
      shape {
      }
    }
  }
  attr {
    key: "shared_name"
    value {
      s: ""
    }
  }
}
node {
  name: "global_step/Assign"
  op: "Assign"
  input: "global_step"
  input: "global_step/Initializer/zeros"
  attr {
    key: "T"
    value {
      type: DT_INT64
    }
  }
  attr {
    key: "_class"
    value {
      list {
        s: "loc:@global_step"
      }
    }
  }
  attr {
    key: "_output_shapes"
    value {
      list {
        shape {
        }
      }
    }
  }
  attr {
    key: "use_locking"
    value {
      b: true
    }
  }
  attr {
    key: "validate_shape"
    value {
      b: true
    }
  }
}
node {
  name: "global_step/read"
  op: "Identity"
  input: "global_step"
  attr {
    key: "T"
    value {
      type: DT_INT64
    }
  }
  attr {
    key: "_class"
    value {
      list {
        s: "loc:@global_step"
      }
    }
  }
  attr {
    key: "_output_shapes"
    value {
      list {
        shape {
        }
      }
    }
  }
}
node {
  name: "global_step/IsVariableInitialized"
  op: "IsVariableInitialized"
  input: "global_step"
  attr {
    key: "_class"
    value {
      list {
        s: "loc:@global_step"
      }
    }
  }
  attr {
    key: "_output_shapes"
    value {
      list {
        shape {
        }
      }
    }
  }
  attr {
    key: "dtype"
    value {
      type: DT_INT64
    }
  }
}
node {
  name: "global_step/cond/Switch"
  op: "Switch"
  input: "global_step/IsVariableInitialized"
  input: "global_step/IsVariableInitialized"
  attr {
    key: "T"
    value {
      type: DT_BOOL
    }
  }
  attr {
    key: "_output_shapes"
    value {
      list {
        shape {
        }
        shape {
        }
      }
    }
  }
}
node {
  name: "global_step/cond/switch_t"
  op: "Identity"
  input: "global_step/cond/Switch:1"
  attr {
    key: "T"
    value {
      type: DT_BOOL
    }
  }
  attr {
    key: "_output_shapes"
    value {
      list {
        shape {
        }
      }
    }
  }
}
node {
  name: "global_step/cond/switch_f"
  op: "Identity"
  input: "global_step/cond/Switch"
  attr {
    key: "T"
    value {
      type: DT_BOOL
    }
  }
  attr {
    key: "_output_shapes"
    value {
      list {
        shape {
        }
      }
    }
  }
}
node {
  name: "global_step/cond/pred_id"
  op: "Identity"
  input: "global_step/IsVariableInitialized"
  attr {
    key: "T"
    value {
      type: DT_BOOL
    }
  }
  attr {
    key: "_output_shapes"
    value {
      list {
        shape {
        }
      }
    }
  }
}
node {
  name: "global_step/cond/read"
  op: "Identity"
  input: "global_step/cond/read/Switch:1"
  attr {
    key: "T"
    value {
      type: DT_INT64
    }
  }
  attr {
    key: "_output_shapes"
    value {
      list {
        shape {
        }
      }
    }
  }
}
node {
  name: "global_step/cond/read/Switch"
  op: "RefSwitch"
  input: "global_step"
  input: "global_step/cond/pred_id"
  attr {
    key: "T"
    value {
      type: DT_INT64
    }
  }
  attr {
    key: "_class"
    value {
      list {
        s: "loc:@global_step"
      }
    }
  }
  attr {
    key: "_output_shapes"
    value {
      list {
        shape {
        }
        shape {
        }
      }
    }
  }
}
node {
  name: "global_step/cond/Switch_1"
  op: "Switch"
  input: "global_step/Initializer/zeros"
  input: "global_step/cond/pred_id"
  attr {
    key: "T"
    value {
      type: DT_INT64
    }
  }
  attr {
    key: "_class"
    value {
      list {
        s: "loc:@global_step"
      }
    }
  }
  attr {
    key: "_output_shapes"
    value {
      list {
        shape {
        }
        shape {
        }
      }
    }
  }
}
node {
  name: "global_step/cond/Merge"
  op: "Merge"
  input: "global_step/cond/Switch_1"
  input: "global_step/cond/read"
  attr {
    key: "N"
    value {
      i: 2
    }
  }
  attr {
    key: "T"
    value {
      type: DT_INT64
    }
  }
  attr {
    key: "_output_shapes"
    value {
      list {
        shape {
        }
        shape {
        }
      }
    }
  }
}
node {
  name: "global_step/add/y"
  op: "Const"
  attr {
    key: "_output_shapes"
    value {
      list {
        shape {
        }
      }
    }
  }
  attr {
    key: "dtype"
    value {
      type: DT_INT64
    }
  }
  attr {
    key: "value"
    value {
      tensor {
        dtype: DT_INT64
        tensor_shape {
        }
        int64_val: 0
      }
    }
  }
}
node {
  name: "global_step/add"
  op: "Add"
  input: "global_step/cond/Merge"
  input: "global_step/add/y"
  attr {
    key: "T"
    value {
      type: DT_INT64
    }
  }
  attr {
    key: "_output_shapes"
    value {
      list {
        shape {
        }
      }
    }
  }
}
node {
  name: "dnn/input_from_feature_columns/input_layer/coefficients/Const"
  op: "Const"
  attr {
    key: "_output_shapes"
    value {
      list {
        shape {
          dim {
            size: 5000
          }
          dim {
            size: 25
          }
        }
      }
    }
  }
  attr {
    key: "dtype"
    value {
      type: DT_DOUBLE
    }
  }
  attr {
    key: "value"
    value {
      tensor {
        dtype: DT_DOUBLE
        tensor_shape {
          dim {
            size: 5000
          }
          dim {
            size: 25
          }
        }
        tensor_content: "\000\000\000\000\000\000\000\000\000\000\000\000\000\000\000\000\000\000\000\000\000\000\360?\000\000\000\000\000\000\000\000\000\000\000\000\000\000\000\000\000\000\000\000\000\000\000\000\000\000\000\000\000\000\000\000\000\000\000\000\000\000\000\000\000\000\000\000\000\000\000\000\000\000\000\000\000\000\000\000\000\000\000\000\000\000\000\000\000\000\000\000\000\000\000\000\000\000\000\000\000\000\000\000\000\000\000\000\000\000\000\000\000\000\000\000\000\000\000\000\000\000\000\000\000\000\000\000\000\000\000\000\000\000\000\000\000\000\000\000\000\000\000\000\000\000\000\000\000\000\000\000\000\000\000\000\000\000\000\000\000\000\000\000\000\000\000\000\000\000\000\000\000\000\000\000\000\000\000\000\000\000\000\000\000\000\000\000\000\000\000\000\000\000\000\000\000\000\000\000\3004\234f\213\361\347?B\336d\016Z:\345?\334\\\3053/N\200?eL\021\244E\261p?\374\300y[\360!\002?\211YN\354\367\301\354>\321\342\002\000\234\201y>\026\363&\330\032\030a>\355m\177\275\252B\352=\271[\330^\360\n\317=\000\000\000\000\000\000\000\000\000\000\000\000\000\000\000\000\000\000\000\000\000\000\000\000\000\000\000\000\000\000\000\000\000\000\000\000\000\000\000\000\000\000\000\000\000\000\000\000\000\000\000\000\000\000\000\000\000\000\000\000\000\000\000\000\000\000\000\000\000\000\000\000\000\000\000\000\000\000\000\000\000\000\000\000\000\000\000\000\000\000\000\000\000\000\000\000\000\000\000\000\000\000\000\000\000\000\000\000\000\000\000\000\000\000\000\000\000\000\000\000\004\326\013\211\207\376\357?\000\000\000\000\000\000\000\000\000\000\000\000\000\000\000\000\373_R\260\322f\223?\000\000\000\000\000\000\000\000\000\000\000\000\000\000\000\000S\372b\035\351\013\025?\000\000\000\000\000\000\000\000\000\000\000\000\000\000\000\000\266\206\351[\327G\206>\000\000\000\000\000\000\000\000\000\000\000\000\000\000\000\000\021{\333\034M&\355=\000\000\000\000\000\000\000\000\000\000\000\000\000\000\000\000\000\000\000\000\000\000\000\000\000\000\000\000\000\000\000\000\000\000\000\000\000\000\000\000\000\000\000\000\000\000\000\000\000\000\000\000\000\000\000\000\000\000\000\000\000\000\000\000\000\000\000\000\000\000\000\000\000\000\000\000\000\000\000\000\000\000\000\000\000\000\000\000\000\000\000\000\000\000\000\000\014\313C)\224\373\350?\000\000\000\000\000\000\000\000HO)y\276B\334?\000\000\000\000\000\000\000\000\270\016Z<Ai\323?\000\000\000\000\000\000\000\000<7\373`,\345\313?\000\000\000\000\000\000\000\000)\270U\367\236f\304?\000\000\000\000\000\000\000\000\364\210X\025Y\025\276?\000\000\000\000\000\000\000\000\224,C\246eD\266?\000\000\000\000\000\000\000\000G\213\265\304\272\202\260?\000\000\000\000\000\000\000\000\000\302\236\317\277\177\250?\000\000\000\000\000\000\000\000\357\325\332\331\277,\242?\000\000\000\000\000\000\000\000W\252zu+\364\232?\000\000\000\000\000\000\000\000\254\030\375\036\021\371\223?\000\000\000\000\000\000\000\000ns\n\243t\223\215?\323\352\376\257}\351\356?i\222\2449\320\235\256?Z+\000\205\365\350\316?\307\013s\210q\333s?\212\342\227\254}\226\260?\320Z\360>\312\221\220?e;\234\377x\361\220?\t\021\325\225N,\207?9\250\251[\315\314r?\332\367\'|\363\352v?\357\373q\036\325\211^?\372\222Y\377?\213b?9\026\351\037\316_Q?2j\353m\342\235J?\003n\364\353u\036D?\003\315\317\214\203g3?Sm\245\'\303\2124?\350\3267\023Rm!?\362`\343\351\307\037\"?\350\240J\177\333\224\023?&\226\034\234\305\223\014?\213@\0251\234\337\006?\355\227\375\343\237p\366>\243\342\354\233oE\370>}\327\253\"\017\013\345>D\366\207\267^\345\357?\000\000\000\000\000\000\000\000\000\000\000\000\000\000\000\000\000\000\000\000\000\000\000\000\000\000\000\000\000\000\000\000\000\000\000\000\000\000\000\000\000\000\000\000\000\000\000\000\000\000\000\000\000\000\000\000\000\000\000\000\000\000\000\000\000\000\000\000\000\000\000\000\000\000\000\000\000\000\000\000\000\000\000\000\000\000\000\000\000\000\000\000\000\000\000\000\000\000\000\000\000\000\000\000\000\000\000\000\000\000\000\000\000\000\000\000\000\000\000\000\000\000\000\000\000\000\000\000\000\000\000\000\000\000\000\000\000\000\000\000\000\000\000\000\000\000\000\000\000\000\000\000\000\000\000\000\000\000\000\000\000\000\000\000\000\000\000\000\277\310kH\373\237\264?\000\000\000\000\000\000\000\000\000\000\000\000\000\000\000\000\000\000\000\000\000\000\000\000\000\000\000\000\000\000\000\000\000\000\000\000\000\000\360?\000\000\000\000\000\000\000\000\000\000\000\000\000\000\000\000\000\000\000\000\000\000\000\000\000\000\000\000\000\000\000\000\000\000\000\000\000\000\000\000\000\000\000\000\000\000\000\000\000\000\000\000\000\000\000\000\000\000\000\000\000\000\000\000\000\000\000\000\000\000\000\000\000\000\000\000\000\000\000\000\000\000\000\000\000\000\000\000\000\000\000\000\000\000\000\000\000\000\000\000\000\000\000\000\000\000\000\000\000\000\000\000\000\000\000\000\000\000\000\000\000\000\000\000\000\000\000\000\000\000\000\000\000\000\000\000\000\000\000\000\000\000\000\000\000\000\000\000\000\000\000\000\000\000\000\000\000\000\000\000\000\000\000\000\000\000\000\000\000\000\000\000\000\000\000\000\227\376\354A\252\214\354?\311\255\253=\275x\322?]\332\376_\267\232\325?S\315<\200\372#\260?\204\303\336[\211\262\252?v\276\274bE\346~?2\311&\027\213\335t?\254\"Y\033\374hD?\344\222\324\222\037\3377?.\263z+\346\227\004?]\363\311f\010\213\365>\260\"+\004y\317\300>\336\263\355\216\261\r\260>\377\204\002\n\305\013w>c\031\260|,`d>\360\027\003w#;+>\303/tdV\205\026>,\302\315W\246E\334=\020\222\254Zk\013\306=p\266\233<\355\021\213=\000\000\000\000\000\000\000\000\000\000\000\000\000\000\000\000\000\000\000\000\000\000\000\000\000\000\000\000\000\000\000\000\000\000\000\000\000\000\000\000]\r\'VI\376\357?\000\000\000\000\000\000\000\000\000\000\000\000\000\000\000\000\313\342F#g\361\224?\000\000\000\000\000\000\000\000\000\000\000\000\000\000\000\000U\013\264t*\206\030?\000\000\000\000\000\000\000\000\000\000\000\000\000\000\000\000\ng\240\207\203\006\214>\000\000\000\000\000\000\000\000\000\000\000\000\000\000\000\000\031\r?\243-\312\363=\000\000\000\000\000\000\000\000\000\000\000\000\000\000\000\000\000\000\000\000\000\000\000\000\000\000\000\000\000\000\000\000\000\000\000\000\000\000\000\000\000\000\000\000\000\000\000\000\000\000\000\000\000\000\000\000\000\000\000\000\000\000\000\000\000\000\000\000\000\000\000\000\000\000\000\000\000\000\000\000\000\000\000\000\000\000\000\000\000\000\000\000\000\000\000\000\341\250\n\r\345\365\344?\000\000\000\000\000\000\000\000\357m\000@WZ\335?\000\000\000\000\000\000\000\000=\247F\022Ei\327?\000\000\000\000\000\000\000\000\346={\270\362\314\322?\000\000\000\000\000\000\000\000\340\260I\323e\371\315?\000\000\000\000\000\000\000\000\340\032t\347\005\254\307?\000\000\000\000\000\000\000\000\340\252\265\035l\207\302?\000\000\000\000\000\000\000\000\0304\332b\255\306\274?\000\000\000\000\000\000\000\000\344\177Qi\'0\266?\000\000\000\000\000\000\000\000Yp>\306\227\000\261?\000\000\000\000\000\000\000\000\246H*b\371\351\251?\000\000\000\000\000\000\000\000\354G\2511\317\246\243?\000\000\000\000\000\000\000\000\306im\346\236\254\235?g(?\231\251\362\324?/wf0\201\357\035?\273X\257\367>r\315?\234\372\006!\021\026>?\210+\313l&9\311?\r\'\322I\354\n#?@\211\346OC\265\307?0sy\203F\3313?\020\303A\034\325\313\303? \266\017\3175{\201?\341<\255\264rh\306?\013\252L\032\245\346\232?p\347WC\022\360\301?\3023\357c\221f\213?:\030o\347{z\301?\367\273\374G\340L\246?\010Z4i\214.\302?\324\263\201)\226,\264?x`;\336\021\322\303?\020\254\230\343u\307\265? \214\261\261U\303\272?\354\276\311\2658\300\271?jF\227\235\303\240\304?\323\367(\\3\323\250?\241\335\255\'\177`\271?\264\006w\324>]\356?\000\000\000\000\000\000\000\000\000\000\000\000\000\000\000\000\000\000\000\000\000\000\000\000\000\000\000\000\000\000\000\000\000\000\000\000\000\000\000\000\000\000\000\000\000\000\000\000\000\000\000\000\000\000\000\000\000\000\000\000\000\000\000\000\000\000\000\000\000\000\000\000\000\000\000\000\000\000\000\000\000\000\000\000\000\000\000\000\000\000\000\000\000\000\000\000\000\000\000\000\000\000\000\000\000\000\000\000\000\000\000\000\000\000\000\000\000\000\000\000\306\313\0249F3\324?\000\000\000\000\000\000\000\000\000\000\000\000\000\000\000\000\000\000\000\000\000\000\000\000\000\000\000\000\000\000\000\000\000\000\000\000\000\000\000\000\000\000\000\000\000\000\000\000\000\000\000\000\000\000\000\000\000\000\000\000\000\000\000\000\000\000\000\000\000\000\000\000\000\000\000\000\000\000\000\000\000\000\000\000\000\000\000\000\000\000\000\000\000\000\000\000\000\000\000\000\000\000\000\000\000\000\000\000\000\000\000\000\000\000\000\000\000\000\000\000\000\000\000\000\000\000\000\000\000\000\000\000\000\000\000\000\000\000\000\000\000\000\000\000\000\000\000\000\000\000\000\000\000\000\000\000\000\000\000\000\000\000\000\000\000\000\360?\000\000\000\000\000\000\000\000\000\000\000\000\000\000\000\000\000\000\000\000\000\000\000\000\000\000\000\000\000\000\000\000\000\000\000\000\000\000\000\000\000\000\000\000\000\000\000\000\000\000\000\000\000\000\000\000\000\000\000\000\000\000\000\000\000\000\000\000\000\000\000\000\000\000\000\000\000\000\000\000\000\000\000\000\000\000\000\000\000\000\000\000\000\000\000\000\373\000\210o\021.\351?\032\003\360#\323\276\343?\326b\366\326\200^\201?\353\"\212\263xto?\327\362\2670\270\220\003?\243\372$\300\023r\353>1~u\021\250\340{>\213(\245>t\206`>\344\200\025\271\256\022\355=S(\274\364\311e\316=\000\000\000\000\000\000\000\000\000\000\000\000\000\000\000\000\000\000\000\000\000\000\000\000\000\000\000\000\000\000\000\000\000\000\000\000\000\000\000\000\000\000\000\000\000\000\000\000\000\000\000\000\000\000\000\000\000\000\000\000\000\000\000\000\000\000\000\000\000\000\000\000\000\000\000\000\000\000\000\000\000\000\000\000\000\000\000\000\000\000\000\000\000\000\000\000\000\000\000\000\000\000\000\000\000\000\000\000\000\000\000\000\000\000\000\000\000\000\000\000$\257\320\022O\363\357?\000\000\000\000\000\000\000\000\000\000\000\000\000\000\000\000-\020\254l\206|\254?\000\000\000\000\000\000\000\000\000\000\000\000\000\000\000\000E\264.]v\267F?\000\000\000\000\000\000\000\000\000\000\000\000\000\000\000\000M\006\013J\316\255\321>\000\000\000\000\000\000\000\000\000\000\000\000\000\000\000\000S\370;\211\305\000Q>\000\000\000\000\000\000\000\000\000\000\000\000\000\000\000\000\261\262\364\212\375\275\306=\000\000\000\000\000\000\000\000\000\000\000\000\000\000\000\000\000\000\000\000\000\000\000\000\000\000\000\000\000\000\000\000\000\000\000\000\000\000\000\000\000\000\000\000\000\000\000\000\000\000\000\000\000\000\000\000\000\000\000\000\000\000\000\000\000\000\000\000\000\000\000\000\255k\321\372\242\034\353?\000\000\000\000\000\000\000\000\205\2079\365|\031\333?\000\000\000\000\000\000\000\000\224\267\231hq(\320?\000\000\000\000\000\000\000\000\325\326\033\303\326\341\303?\000\000\000\000\000\000\000\000\322;*\261Y\244\270?\000\000\000\000\000\000\000\000\347Fr\255|\213\256?\000\000\000\000\000\000\000\000\016\243 \244\367\342\242?\000\000\000\000\000\000\000\000\213\265\027\260\'H\227?\000\000\000\000\000\000\000\000\n\233*\014e\232\214?\000\000\000\000\000\000\000\000\013\224_\345\026\203\201?\000\000\000\000\000\000\000\000z\213\235q8`u?\000\000\000\000\000\000\000\000\033~\320\325\362\003j?\000\000\000\000\000\000\000\000r^\n\200V\223_?mQ\344\221\337K\341?\270\326\027\300JZ\321?\032.\3636s\232\302?\006\261f0\301[\301?.\214u\351\022\262\330?\r\214\235\004j\243\306?5yy\024\013\274\321?\267\235J\264V\203\221?\204`c\2042\244\272?\347\304{\261\325\031\274?2b\026\037\241\222\227?\204\305\351y\275\214\266?\274\257\001\022\351\005\271?\261@\341)\354\324\206?w\263\007\347\201\014\300?+45\304\323e\263?\260`\266\002\0278\321?\000+\033b\306\370\250?\377w\204\301\'d\262?\322\031\000\2645\343\257?\021\240p\211\362G\272?\022:\375\221?\242\255?\027l\023\rl,\241?\332u\314\256R\364\274?\275\254=\322!h\202?\336}\311>W\212\355?\000\000\000\000\000\000\000\000\270\323g\343)\233\330?\000\000\000\000\000\000\000\000\000\000\000\000\000\000\000\000\000\000\000\000\000\000\000\000\000\000\000\000\000\000\000\000\000\000\000\000\000\000\000\000\000\000\000\000\000\000\000\000\000\000\000\000\000\000\000\000\000\000\000\000\000\000\000\000\000\000\000\000\000\000\000\000\000\000\000\000\000\000\000\000\000\000\000\000\000\000\000\000\000\000\000\000\000\000\000\000\000\000\000\000\000\000\000\000\000\000\000\000\000\000\000\000\000\000\000\000\000\000\000\000\000\000\000\000\000\000\000\000\000\000\000\000\000\000\000\000\000\000\000\000\000\000\000\000\000\000\000\000\000\000\000\000\000\000\000\000\000\000\000\000\000\000\000\000\000\000\000\000\000\000\000\000\000\000\000\000\000\000\000\000\000\000\000\000\000\000\000\000\000\000\000\000\000\000\000\000\000\000\000\000\000\000\000\000\000\000\000\000\000\000\000\000\000\000\000\000\000\000\000\000\000\000\000\000\000\000\000\000\000\000\000\000\000\000\000\000\000\000\000\000\000\000\000\000\000\000\000\000\000\000\000\000\000\000\000\000\000\000\000\000\000\000\000\000\000\000\000\000\000\000\000\000\000\000\000\000\000\000\000\000\000\000\000\000\000\000\000\000\000\000\000\000\000\000\000\000\000\000\000\000\000\000\000\000\000\000\000\000\000\000\000\000\000\000\000\000\000\000\000\000\000\000\000\000\000\000\000\000\000\000\000\000\000\000\000\000\000\000\000\000\000\000\000\000\000\000\000\000\000\000\000\000\000\000\000\000\000\000\000\000\000\000\000\000\000\000\360?\000\000\000\000\000\000\000\000[\341\221H\256~\334?\350A\323\326g`\354?%hd\2723\317\264?\005rf\017\313\355\267?\321\267I\333\366\320x?*=SL\256\032v?\232#\320X\242\2672?\302\365\00284.,?MK\337Ac\252\344>8\365\002\034\223p\333>\221\205\316\245|\377\221>6\014\007\224\306\235\205>PL;?\321\3429>e\026\313\025H\231,>uXc\300\007\265\337=(\2051L8N\320=\234\322<\263\334ku=\000\000\000\000\000\000\000\000\000\000\000\000\000\000\000\000\000\000\000\000\000\000\000\000\000\000\000\000\000\000\000\000\000\000\000\000\000\000\000\000\000\000\000\000\000\000\000\000\000\000\000\000\000\000\000\000\000\000\000\000\000\000\000\000\233}\357_\374\235\357?\000\000\000\000\000\000\000\000\000\000\000\000\000\000\000\000\020\353\033s\246\272\303?\000\000\000\000\000\000\000\000\000\000\000\000\000\000\000\000\240J\322_\304\005v?\000\000\000\000\000\000\000\000\000\000\000\000\000\000\000\000\025\313\024Dx\375\027?\000\000\000\000\000\000\000\000\000\000\000\000\000\000\000\000G\374\373\244\364%\260>\000\000\000\000\000\000\000\000\000\000\000\000\000\000\000\000\246;f\346\266;>>\000\000\000\000\000\000\000\000\000\000\000\000\000\000\000\000[\243\215\2177\"\305=\000\000\000\000\000\000\000\000\000\000\000\000\000\000\000\000\000\000\000\000\000\000\000\000\000\000\000\000\000\000\000\000\000\000\000\000\000\000\000\000\000\000\000\000\000\000\000\000\254\340\200\332u\306\355?\000\000\000\000\000\000\000\000\265h\327-\200\022\325?\000\000\000\000\000\000\000\000H+=\254KC\302?\000\000\000\000\000\000\000\000\314x\000\333\272\256\260?\000\000\000\000\000\000\000\000\212Ad!;:\237?\000\000\000\000\000\000\000\000\335\356`\276s\243\215?\000\000\000\000\000\000\000\000\267[\316S\013c|?\000\000\000\000\000\000\000\000\211\020[\264\215\\k?\000\000\000\000\000\000\000\000<\365h+L\177Z?\000\000\000\000\000\000\000\0005^\024n\270\300I?\000\000\000\000\000\000\000\000\030\262\017\336\300\0319?\000\000\000\000\000\000\000\000*\306\252is\205(?\000\000\000\000\000\000\000\000$\221q\362:\000\030?{=X&\214[\356?\312\352\3358XC\260?D\242\356\323\226\223\322?\363\347\261\254\223gu?\2152\234/\351\207\271?J\374c\2350\211\213?\207r\247\350\221\036\241?\251\014\246\316\272D\214?Z\231\314\354\367\310\206?\252\3150#d\004\203?\342\260\207\305;\344p?\266\021\302\361$\370t?\216\204L I;`?\366\217\333}\261Id?\350\332N4\260\222S?\006hK\010\271\006R?@u\330\357)\354H?\242<\241\300Nc??6w(\322\201\005>?_\340\322\230\273\226-?\230j\017 \210\2040?\216\222\002\240\345O ?G\234\336\326\t\234 ?Gq\255\037\376O\024?\277\3148\223\365M\017?\006\n\235\361\3023\351?\000\000\000\000\000\000\000\000\000\000\000\000\000\000\000\000\263Nb\320!\270\343?\000\000\000\000\000\000\000\000\000\000\000\000\000\000\000\000\000\000\000\000\000\000\000\000\000\000\000\000\000\000\000\000\000\000\000\000\000\000\000\000\000\000\000\000\000\000\000\000\000\000\000\000\000\000\000\000\000\000\000\000\000\000\000\000\000\000\000\000\000\000\000\000\000\000\000\000\000\000\000\000\000\000\000\000\000\000\000\000\000\000\000\000\000\000\000\000\000\000\000\000\000\000\000\000\000\000\000\000\000\000\000\000\000\000\000\000\000\000\000\000\000\000\000\000\000\000\000\000\000\000\000\000\000\000\000\000\000\000\000\000\000\000\000\000\000\000\000\000\000\000\000\000\000\000\000\000\000\000\000\000\000\000\000\000\000\000\000\000\000\000\000\000\000\000\000\000\000\000\000\000\000\000\000\000\000\000\000\000\000\000\000\000\000\000\000\000\000\000\000\000\000\000\000\000\000\000\000\000\000\000\000\000\000\000\000\000\000\000\000\000\000\000\000\000\000\000\000\000\000\000\000\000\000\000\000\000\000\000\000\000\000\000\000\000\000\000\000\000\000\000\000\000\000\000\000\000\000\000\000\000\000\000\000\000\000\000\000\000\000\000\000\000\000\000\000\000\000\000\000\000\000\000\000\000\000\000\000\000\000\000\000\000\000\000\000\000\000\000\000\000\000\000\000\000\000\000\000\000\000\000\000\000\000\000\000\000\000\000\000\000\000\000\000\000\000\000\000\000\000\000\000\000\000\000\360?\000\000\000\000\000\000\000\000\000\000\000\000\000\000\000\000\000\000\000\000\000\000\000\000\000\000\000\000\000\000\000\000X\366\377\317\025\002\356?\340\274}4\351\254\324? \017\200\327\205\366\277?P\300p\276\335m\231?\026r\256\2719\314{?y\206J\333h!Q?\272.\357\205b\224.?\247wg\033\206\332\377>\273\032\374\3143\237\330>\365O+\351}\236\246>\035\232-\371\260F\177> EK\2209\375I>\226a\250C\010g >\332\363X\027;\023\351=\202x\272\214\245M\275=Ch@\344\351\204\204=\000\000\000\000\000\000\000\000\000\000\000\000\000\000\000\000\000\000\000\000\000\000\000\000\000\000\000\000\000\000\000\000\000\000\000\000\000\000\000\000\000\000\000\000\000\000\000\000\000\000\000\000\000\000\000\000\000\000\000\000\000\000\000\000\000\000\000\000\000\000\000\000_\335\250\202X\014\356?\000\000\000\000\000\000\000\000\000\000\000\000\000\000\000\000\357y\214\373\267\357\325?\000\000\000\000\000\000\000\000\000\000\000\000\000\000\000\000X\243\261^\303\245\234?\000\000\000\000\000\000\000\000\000\000\000\000\000\000\000\000\026\016I\033MAR?\000\000\000\000\000\000\000\000\000\000\000\000\000\000\000\000&k\344\036\207\300\374>\000\000\000\000\000\000\000\000\000\000\000\000\000\000\000\000ZHl\2403}\237>\000\000\000\000\000\000\000\000\000\000\000\000\000\000\000\000\354X\236@\204\3009>\000\000\000\000\000\000\000\000\000\000\000\000\000\000\000\000\273\263\032\"\002\177\320=\000\000\000\000\000\000\000\000\000\000\000\000\000\000\000\000\000\000\000\000\000\000\000\000\346%\373`r\335\357?\000\000\000\000\000\000\000\000J\351nl\351^\267?\000\000\000\000\000\000\000\000\364\311&\235p\252\202?\000\000\000\000\000\000\000\000\204J?\247N^L?\000\000\000\000\000\000\000\000\227\353\203\320\262\276\024?\000\000\000\000\000\000\000\000\277`u\2246\210\335>\000\000\000\000\000\000\000\000\031\337\217\351\212\233\244>\000\000\000\000\000\000\000\000\235(\246\336bRl>\000\000\000\000\000\000\000\000\305\341\251O\34083>\000\000\000\000\000\000\000\000dc+\001\363\322\371=\000\000\000\000\000\000\000\000\230W1+\315*\301=\000\000\000\000\000\000\000\000\020\003\242\274\320\001\206=\000\000\000\000\000\000\000\000\000\000\000\000\000\000\000\000vvOqvx\355?\305\247\307\227/\006\250?\r\t\022\374\276\025\326?\236\246c\303\233b\212?\343em\207\334\267\303?KR\274\203\265~m?\247\317\3048\243%\262?\201\323\270q\310\262\201?\006O\347QD\340\240?Ob\001\234QQ\201?=/\366\311\310\315\217?7\200\004\222\207\324z?\321,QK\227\304~?\356c\360\366\375zr?a\235Q-u\032o?\345\341\376K\'\254g?\300\306\337\224\226\247`?\206R\322\200d\343\\?jH\337\340y\354R?]\312\003\356C\024Q?\256\263+\256_\212F?\025\300N~\033\331C?\303\374\202\366\243\236;?\252\275@#N\3676?\254\371\351:\026\0331?\337\360\032\344zj\351?\000\000\000\000\000\000\000\000\000\000\000\000\000\000\000\000\000\000\000\000\000\000\000\000\000\000\000\000\000\000\000\000\000\000\000\000\000\000\000\000\000\000\000\000\000\000\000\000\000\000\000\000\000\000\000\000\000\000\000\000\000\000\000\000\000\000\000\000\000\000\000\000\000\000\000\000\000\000\000\000\000\000\000\000\000\000\000\000\000\000\000\000\000\000\000\000\000\000\000\000\000\000\000\000\000\000\000\000\000\000\000\000\000\000\000\000\000\000\000\000\000\000\000\000\000\000\000\000\000\000\000\000\000\000\000\000\000\000\000\000\000\000\000\000\000\000\000\000\000\000\000\000\000\000\000\000\000\000\000\000\000\000\000\000\000\000\000\000\000\000\000\000\000\000\000\000R\236\3047hq\343?\000\000\000\000\000\000\000\000\000\000\000\000\000\000\000\000\000\000\000\000\000\000\000\000\000\000\000\000\000\000\000\000\000\000\000\000\000\000\000\000\000\000\000\000\000\000\000\000\000\000\000\000\000\000\000\000\000\000\000\000\000\000\000\000\000\000\000\000\000\000\360?\000\000\000\000\000\000\000\000\000\000\000\000\000\000\000\000\000\000\000\000\000\000\000\000\000\000\000\000\000\000\000\000\000\000\000\000\000\000\000\000\000\000\000\000\000\000\000\000\000\000\000\000\000\000\000\000\000\000\000\000\000\000\000\000\000\000\000\000\000\000\000\000\000\000\000\000\000\000\000\000\000\000\000\000\000\000\000\000\000\000\000\000\000\000\000\000\000\000\000\000\000\000\000\000\000\000\000\000\000\000\000\000\000\000\000\000\000\000\000\000\000\000\000\000\000\000\000\000\000\000\000\000\000\000\000\000\366)\306\250\024\230\352?\003\242\220\244&\247\325?\316\316\210\261l\357\332?\261\310\315\351\313R\271?2S^ORF\266?\244-\013\252\2568\220?\261\374\222\242\343L\207?9\272*\027\206\256\\?\"\230\316z\341\326Q?L\354\260\361\320]#?\270$\305H2\214\025?\220\330\022\034\265(\345>j\325\205\370\251}\325>\341j4\363\204i\243>\035\312\001\265\nA\222>\341\200s\205(\263^>\r\300R\020\373\000K>\250xU\207\201T\025>ACszi\260\001>\327\301{\340\353n\312=\334S\301k\330\313\264=\226\277\262\233Ro}=\000\000\000\000\000\000\000\000\000\000\000\000\000\000\000\000\000\000\000\000\000\000\000\000\231\263\234\214\324\361\357?\000\000\000\000\000\000\000\000\000\000\000\000\000\000\000\000\326\'d\0109\031\256?\000\000\000\000\000\000\000\000\000\000\000\000\000\000\000\000\016kk\027z]I?\000\000\000\000\000\000\000\000\000\000\000\000\000\000\000\000\r\245\177pi\334\324>\000\000\000\000\000\000\000\000\000\000\000\000\000\000\000\000\001\000\246 \3423U>\000\000\000\000\000\000\000\000\000\000\000\000\000\000\000\000\227zC!<\370\315=\000\000\000\000\000\000\000\000\000\000\000\000\000\000\000\000\000\000\000\000\000\000\000\000\000\000\000\000\000\000\000\000\000\000\000\000\000\000\000\000\000\000\000\000\000\000\000\000\000\000\000\000\000\000\000\000\000\000\000\000\000\000\000\000\000\000\000\000\000\000\000\000\260A\0304r\276\354?\000\000\000\000\000\000\000\000C\237\021\226. \330?\000\000\000\000\000\000\000\000\237\257\001x\321k\310?\000\000\000\000\000\000\000\0005\356\344\334p\264\271?\000\000\000\000\000\000\000\000\302\340y\003;\241\253?\000\000\000\000\000\000\000\000\322D\261\333\334\351\236?\000\000\000\000\000\000\000\000\315\341f\243\021\342\222?\000\000\000\000\000\000\000\000o31\264\231\022\212?\000\000\000\000\000\000\000\000y\205\374\037Y\306\203?\000\000\000\000\000\000\000\000\230p)\234\344+\177?\000\000\000\000\000\000\000\000\002\322\n\362C\246x?\000\000\000\000\000\000\000\000\351\310e\241YKs?\000\000\000\000\000\000\000\000\275\005\235\016Z\315m?\375g\265=E\205\276?\232\345\032T\360\336\275?\257(\034\n\313\004\322?cI\317\321\235\356\317?X\342c\010\244\222\311?t\2671q\000\303\265?\365\223\022B\323\204\277?\314\354\364\262\227\214\307?\350\347\355\236W\013\237?2\256\324\263\263\216\266?\210\033\'\347\344C\320?\257\345\376n\366\311\302?\263e\306xU\217\301?\364[\2472b\325\256?B_?\342\025\037\245?\256\230\311X=\275\301? \002\237\260{\325U?A\026z r\225\237?\201A\347\305\362\"\307?\216\004\344\021\321\255\272?F\235x\244?\272\307?x\364w{#\000\247?s\321O%\234\002\236?35 \300\307\343\265?\343\031\342<\222\014\245?\241\342\334\263\027\377\357?\000\000\000\000\000\000\000\000\000\000\000\000\000\000\000\000\000\000\000\000\000\000\000\000\000\000\000\000\000\000\000\000\000\000\000\000\000\000\000\000\000\000\000\000\000\000\000\000\000\000\000\000\000\000\000\000\000\000\000\000\000\000\000\000\000\000\000\000\000\000\000\000\000\000\000\000\000\000\000\000\000\000\000\000\000\000\000\000\000\000\000\000\000\000\000\000\000\000\000\000\000\000\000\000\000\000\000\000\000\000\000\000\000\000\000\000\000\000\000\000\000\000\000\000\000\000\000\000\000\000\000\000\000\000\000\000\000\000\000\000\000\000\000\000\000\000\000\000\000\000\000\000\000\000\000\000\000\000\000\000\000\000\000\000\000\000\000\000\000\000\000\000\000\000\000\0007~\364%U{\216?\000\000\000\000\000\000\000\000\000\000\000\000\000\000\000\000\000\000\000\000\000\000\000\000\000\000\000\000\000\000\000\000\000\000\000\000\000\000\000\000\000\000\000\000\000\000\000\000\000\000\000\000\000\000\000\000\000\000\000\000\000\000\000\000\000\000\000\000\000\000\000\000\000\000\000\000\000\000\000\000\000\000\000\000\000\000\000\000\000\000\000\000\000\000\000\000\000\000\000\000\000\000\000\000\000\000\000\000\000\000\000\000\000\000\000\000\000\000\000\000\000\000\000\000\000\000\000\000\000\000\000\000\000\000\000\000\000\000\000\000\000\000\000\000\000\000\000\000\000\000\360?\000\000\000\000\000\000\000\000\000\000\000\000\000\000\000\000\000\000\000\000\000\000\000\000\000\000\000\000\000\000\000\000\000\000\000\000\000\000\000\000\000\000\000\000\000\000\000\000\000\000\000\000\000\000\000\000bx:\264\002\254\340?\270\266\362\260\330\254\350?\324\367\037\300Vy\321?9\177\023K\371\334\315?\006\022\200\301\\\350\255?~\363\217k\267\313\243?\262\366\031\347\357/\200?\000_\275\313E\034r?\032\221ylr\246I?9\020*\016\027O9?\215}\2234\327\007\020?M@-(\\\235\374>\035\036\245M\231\213\320>M#\243o\261*\273>\302\357\223\211\364\025\215>\342xv\355\341:v>f\205)/\\CF>\032\231UWs\367/>\315\0319\266\354.\376=\030\021\301 I\177\344=\233\336\260uN\\\262=\036\347s\336Sw\227=\000\000\000\000\000\000\000\000\000\000\000\000\000\000\000\000\000\000\000\000\000\000\000\000\306\005\027\036n\373\357?\000\000\000\000\000\000\000\000\000\000\000\000\000\000\000\000 \231\366&R\031\241?\000\000\000\000\000\000\000\000\000\000\000\000\000\000\000\000\260\177\361\336nZ0?\000\000\000\000\000\000\000\000\000\000\000\000\000\000\000\000\234Gj\323\300\206\256>\000\000\000\000\000\000\000\000\000\000\000\000\000\000\000\000\177\'\000a\370\232!>\000\000\000\000\000\000\000\000\000\000\000\000\000\000\000\000\013SG<\372\252\212=\000\000\000\000\000\000\000\000\000\000\000\000\000\000\000\000\000\000\000\000\000\000\000\000\000\000\000\000\000\000\000\000\000\000\000\000\000\000\000\000\000\000\000\000\000\000\000\000\000\000\000\000\000\000\000\000\000\000\000\000\000\000\000\000\000\000\000\000\000\000\000\000\2701Oz\275\246\353?\000\000\000\000\000\000\000\000\034\224\000Y\030!\332?\000\000\000\000\000\000\000\000\360A\332\005\247\003\316?\000\000\000\000\000\000\000\000\340w\021U\373\004\302?\000\000\000\000\000\000\000\000&v\224\277\'\370\265?\000\000\000\000\000\000\000\000\254\356\005\307\031\351\252?\000\000\000\000\000\000\000\000\216U\373\374o~\240?\000\000\000\000\000\000\000\000\363\365\331mMB\224?\000\000\000\000\000\000\000\000\250\262W\246t$\211?\000\000\000\000\000\000\000\000\367\240\005\006$\017\200?\000\000\000\000\000\000\000\000+N`[u\257u?\000\000\000\000\000\000\000\000\017\343W\037\335\207o?\000\000\000\000\000\000\000\000\017O\2532f\177h?\255\024\361\"\200e\322?b\256\014!\316X:?_;\265\322\365b\311?\316K\007hT\252b?%\343%\377U\367\306?\334\002\205\"]\326\203?\236\351\372\035}R\305?\254\346\215\265\365\266y?\341\rl\370\206U\301?h\2321\235\312-W?\\!\251\332\222\322\277?\037\330\232Jz5\240?\201\335\001C \271\303?\266^\036\221\351\n\243?\225V\361R\277k\302?}\037\262\371\273\307w?\337\335\265?\216b\271?\213\351 \032ND\251?\216n^u\346\n\303??\re\rY\344\301?\322\023\241\311\3414\271?\301\313F_\214K\275?\231,\273\353\2724\256?\'\021/\r\004\n\275?\256\005\260\212\300e\304?\017\222C\205\370\370\347?\000\000\000\000\000\000\000\000\2744\324ju2\345?\000\000\000\000\000\000\000\000\000\000\000\000\000\000\000\000\000\000\000\000\000\000\000\000\000\000\000\000\000\000\000\000\000\000\000\000\000\000\000\000\000\000\000\000\000\000\000\000\000\000\000\000\000\000\000\000\000\000\000\000\000\000\000\000\000\000\000\000\000\000\000\000\000\000\000\000\000\000\000\000\000\000\000\000\000\000\000\000\000\000\000\000\000\000\000\000\000\000\000\000\000\000\000\000\000\000\000\000\000\000\000\000\000\000\000\000\000\000\000\000\000\000\000\000\000\000\000\000\000\000\000\000\000\000\000\000\000\000\000\000\000\000\000\000\000\000\000\000\000\000\000\000\000\000\000\000\000\000\000\000\000\000\000\000\000\000\000\000\000\000\000\000\000\000\000\000\000\000\000\000\000\000\000\000\000\000\000\000\000\000\000\000\000\000\000\000\000\000\000\000\000\000\000\000\000\000\000\000\000\000\000\000\000\000\000\000\000\000\000\000\000\000\000\000\000\000\000\000\000\000\000\000\000\000\000\000\000\000\000\000\000\000\000\000\000\000\000\000\000\000\000\000\000\000\000\000\000\000\000\000\000\000\000\000\000\000\000\000\000\000\000\000\000\000\000\000\000\000\360?\000\000\000\000\000\000\000\000\000\000\000\000\000\000\000\000\000\000\000\000\000\000\000\000\000\000\000\000\000\000\000\000\000\000\000\000\000\000\000\000\000\000\000\000\000\000\000\000\000\000\000\000\000\000\000\000\000\000\000\000\000\000\000\000\000\000\000\000\000\000\000\000\000\000\000\000\000\000\000\000\000\000\000\000\000\000\000\000\000\000\000\000\000\000\000\000\242[\205f*\356\357?\222VN\016\t\342\260?\270Vn\224\006\2602?\266\254\271\n\256\321\346>\341\035R\211:\334a>\362JA^\236\344\020>E\000\217\\R\217\204=\000\000\000\000\000\000\000\000\000\000\000\000\000\000\000\000\000\000\000\000\000\000\000\000\000\000\000\000\000\000\000\000\000\000\000\000\000\000\000\000\000\000\000\000\000\000\000\000\000\000\000\000\000\000\000\000\000\000\000\000\000\000\000\000\000\000\000\000\000\000\000\000\000\000\000\000\000\000\000\000\000\000\000\000\000\000\000\000\000\000\000\000\000\000\000\000\000\000\000\000\000\000\000\000\000\000\000\000\000\000\000\000\000\000\000\000\000\000\000\000\000\000\000\000\000\000\000\000\000\000\000\000\000\000\000\000\000\000\000\000\000\000\000\0005hC\230\271r\357?\000\000\000\000\000\000\000\000\000\000\000\000\000\000\000\0006\023\244T\362\245\307?\000\000\000\000\000\000\000\000\000\000\000\000\000\000\000\000F\301\002#\235\317\177?\000\000\000\000\000\000\000\000\000\000\000\000\000\000\000\000;\204W\272I\341$?\000\000\000\000\000\000\000\000\000\000\000\000\000\000\000\000\270v:\332\360\357\300>\000\000\000\000\000\000\000\000\000\000\000\000\000\000\000\000\235E\332\301`\033S>\000\000\000\000\000\000\000\000\000\000\000\000\000\000\000\000\365\016j8g\030\340=\000\000\000\000\000\000\000\000\000\000\000\000\000\000\000\000\000\000\000\000\000\000\000\000\000\000\000\000\000\000\000\000\000\000\000\000\000\000\000\000\000\000\000\000\000\000\000\000\\p\361\007;\026\352?\000\000\000\000\000\000\000\000\331\"\307G\307\344\332?\000\000\000\000\000\000\000\000\370\324\340\265\360\277\321?\000\000\000\000\000\000\000\000\262S\236\215\257\036\311?\000\000\000\000\000\000\000\000\201\r\202\237 :\302?\000\000\000\000\000\000\000\000\256\225\330Hs\247\272?\000\000\000\000\000\000\000\000\310+\323\020,\177\263?\000\000\000\000\000\000\000\000\352\360\262K\301s\254?\000\000\000\000\000\000\000\000\261\267\327j)\260\244?\000\000\000\000\000\000\000\000\331\241\2464\177\371\235?\000\000\000\000\000\000\000\000N\342\033XI\243\225?\000\000\000\000\000\000\000\000,Q@\323)#\217?\000\000\000\000\000\000\000\000\272\221\226\022ZV\206?\236T\266B\231l\313?3\365}\310\242[\245?}\345\213\252\323\021\300?\343\322JK4\371\245?\342E\372|\205T\311?\210\273\317\317\004\342\257?\254G)\\b\262\302?\241\202i\017\231\353\211?c\036U\215\"\211\246?w\3522\344\033|\274?\255\306$\317V\352\245?\n\021:\322\372y\234?\026\322\357\240b\366\260?9\264\025\367\030~\230?\272\224\225\310Xo\313?\034\327\036{\230\367\274?3\320\267\0055\356\265?(\306G}\0212\247?!q\307\tB\272\322?Y\344\033*\005\210\260?\327l\326\237\311T\275?\253\376\323\2570\336\235?\17734D\0317\200?\324\034*\371\322\333\227?\266r\371\317Q\027\302?\364?\007\"\223\316\347?\000\000\000\000\000\000\000\000\000\000\000\000\000\000\000\000\000\000\000\000\000\000\000\000\000\000\000\000\000\000\000\000\000\000\000\000\000\000\000\000\000\000\000\000\000\000\000\000\000\000\000\000\000\000\000\000\000\000\000\000\000\000\000\000\000\000\000\000\000\000\000\000\000\000\000\000\000\000\000\000\000\000\000\000\000\000\000\000\000\000\000\000\000\000\000\000\000\000\000\000\000\000\000\000\000\000\000\000\000\000\000\000\000\000\000\000\000\000\000\000\000\000\000\000\000\000\000\000\000\000\000\000\000\000\000\000\2552\302\033\010b\345?\000\000\000\000\000\000\000\000\000\000\000\000\000\000\000\000\000\000\000\000\000\000\000\000\000\000\000\000\000\000\000\000\000\000\000\000\000\000\000\000\000\000\000\000\000\000\000\000\000\000\000\000\000\000\000\000\000\000\000\000\000\000\000\000\000\000\000\000\000\000\000\000\000\000\000\000\000\000\000\000\000\000\000\000\000\000\000\000\000\000\000\000\000\000\000\000\000\000\000\000\000\000\000\000\000\000\000\000\000\000\000\000\000\000\000\000\000\000\000\000\000\000\000\000\000\000\000\000\000\000\000\000\000\000\000\000\000\000\000\000\000\000\000\000\000\000\000\000\000\000\000\000\000\000\000\000\000\000\000\000\000\000\000\000\000\000\000\000\000\000\000\000\000\000\000\000\000\000\000\000\000\000\000\000\000\000\000\000\000\000\000\000\000\000\000\000\000\000\000\000\000\000\000\000\000\000\360?\000\000\000\000\000\000\000\000\000\000\000\000\000\000\000\000\000\000\000\000\000\000\000\000\000\000\000\000\000\000\000\000\000\000\000\000\000\000\000\000\266\000w#\026>\334?\031d\261@\232\250\354?r\203\221|g\311\242?+\270\217\216<\003\246?\2276\373k>hT?!\211d\255\213\205R?1B%V3\n\374>\342\351\322z&\202\365>\375\233\022\212\3642\234>\262\362\020\310\211\023\223>a\200\203\014\270^6>Y)\342:o`+>%\3412\332lN\315=`\300\250\"\350~\300=\000\000\000\000\000\000\000\000\000\000\000\000\000\000\000\000\000\000\000\000\000\000\000\000\000\000\000\000\000\000\000\000\000\000\000\000\000\000\000\000\000\000\000\000\000\000\000\000\000\000\000\000\000\000\000\000\000\000\000\000\000\000\000\000\000\000\000\000\000\000\000\000\000\000\000\000\000\000\000\000\000\000\000\000\000\000\000\000Y^\276\265\244\376\355?\000\000\000\000\000\000\000\000\000\000\000\000\000\000\000\000\225O\226m-9\326?\000\000\000\000\000\000\000\000\000\000\000\000\000\000\000\000\310X\363wPt\235?\000\000\000\000\000\000\000\000\000\000\000\000\000\000\000\000\337\366\023\023v\014S?\000\000\000\000\000\000\000\000\000\000\000\000\000\000\000\000\365\322p\201\334r\376>\000\000\000\000\000\000\000\000\000\000\000\000\000\000\000\000 \364\371\374\375\353\240>\000\000\000\000\000\000\000\000\000\000\000\000\000\000\000\000G\227\331\221\370\026<>\000\000\000\000\000\000\000\000\000\000\000\000\000\000\000\000\235\020\271b\362B\322=\000\000\000\000\000\000\000\000\000\000\000\000\000\000\000\000\000\000\000\000\000\000\000\000@v\303\354b7\352?\000\000\000\000\000\000\000\000\335\250a\355U\242\341?\000\000\000\000\000\000\000\000,t\275\026\005\326\303?\000\000\000\000\000\000\000\000\346\231sB\200\332\240?\000\000\000\000\000\000\000\000\017m\263\t\336\375x?\000\000\000\000\000\000\000\000|P6\212\240\377P?\000\000\000\000\000\000\000\000F&\362\227S\301%?\000\000\000\000\000\000\000\0009g:\276\266\226\372>\000\000\000\000\000\000\000\000c8\216R`U\317>\000\000\000\000\000\000\000\000\254\002\375\367\321\353\241>\000\000\000\000\000\000\000\000\315\223\343<\336\376s>\000\000\000\000\000\000\000\000M\247\023\362\306\327E>\000\000\000\000\000\000\000\000\325\246\277\306\350k\027>Z\356\364C\340\206\340?B7\203\r\230\355!?\256]\336\036\375\206\326?6\036\177R)\232%?\367:\216\306\342\310\322?\227\001\275\303.\"9?\003.\312\324b\237\320?d\326u\027\372\025]?O\276\030\364\034m\315?\336Dk\363%\366~?\346\2164\003`\232\313?\004\300\332)\227\375\213?\202\226\242\230X\215\311?*\340\214;\314\014\205?*\223\357\313\"\315\306?j\273TJ\370\024m?\317\013)\355v\355\304?\220\237\031\037\030\326r?\014\314d%\212\207\305?\034\246\303\023x\206i?\321\2626\230\032\"\304?\237\376v\177\266Da?\211\030`I\330\235\301?\340\354e\266J%M?\0349V\006l\001\300?\010\325\264\300?\226\350?\007\373\374\3106{\344?\000\000\000\000\000\000\000\000\000\000\000\000\000\000\000\000\000\000\000\000\000\000\000\000\000\000\000\000\000\000\000\000\000\000\000\000\000\000\000\000\000\000\000\000\000\000\000\000\000\000\000\000\000\000\000\000\000\000\000\000\000\000\000\000\000\000\000\000\000\000\000\000\000\000\000\000\000\000\000\000\000\000\000\000\000\000\000\000\000\000\000\000\000\000\000\000\000\000\000\000\000\000\000\000\000\000\000\000\000\000\000\000\000\000\000\000\000\000\000\000\000\000\000\000\000\000\000\000\000\000\000\000\000\000\000\000\000\000\000\000\000\000\000\000\000\000\000\000\000\000\000\000\000\000\000\000\000\000\000\000\000\000\000\000\000\000\000\000\000\000\000\000\000\000\000\000\000\000\000\000\000\000\000\000\000\000\000\000\000\000\000\000\000\000\000\000\000\000\000\000\000\000\000\000\000\000\000\000\000\000\000\000\000\000\000\000\000\000\000\000\000\000\000\000\000\000\000\000\000\000\000\000\000\000\000\000\000\000\000\000\000\000\000\000\000\000\000\000\000\000\000\000\000\000\000\000\000\000\000\000\000\000\000\000\000\000\000\000\000\000\000\000\000\000\000\000\000\000\000\000\000\000\000\000\000\000\000\000\000\000\000\000\000\000\000\000\000\000\000\000\000\000\000\000\000\000\000\000\000\000\360?\000\000\000\000\000\000\000\000\000\000\000\000\000\000\000\000\000\000\000\000\000\000\000\000\000\000\000\000\000\000\000\000\000\000\000\000\000\000\000\000\000\000\000\000\000\000\000\000\000\000\000\000\000\000\000\000\000\000\000\000\000\000\000\000\000\000\000\000\000\000\000\000O\342\260aW\t\355?\267\344#\222]\265\330?\331\214\036\257{\230\304?c,\003\031\254<\244?\337q\213\370\t\333\207?4v\251s\036(b?[\326\276\305\313yA?w\354\253!\223{\026?\241\247\352K\211\275\362>\007>9\343@C\305>\236\224`\334d\264\237>`j\241\013\327Dp> \315jg\023%F>j\2472\351\323\347\024>\353vK\325cX\352=\037\016:\251R\'\267=^\361e\206\250\226\212=\000\000\000\000\000\000\000\000\000\000\000\000\000\000\000\000\000\000\000\000\000\000\000\000\000\000\000\000\000\000\000\000\000\000\000\000\000\000\000\000\000\000\000\000\000\000\000\000\000\000\000\000\000\000\000\000\000\000\000\000\000\000\000\000\330\022\372_\017\225\357?\000\000\000\000\000\000\000\000\000\000\000\000\000\000\000\000\366\2638c\336\231\304?\000\000\000\000\000\000\000\000\000\000\000\000\000\000\000\000\211\032-&\346\tx?\000\000\000\000\000\000\000\000\000\000\000\000\000\000\000\000\217c\344n\270_\033?\000\000\000\000\000\000\000\000\000\000\000\000\000\000\000\000O*\033\276\365B\263>\000\000\000\000\000\000\000\000\000\000\000\000\000\000\000\000\205\361>\256E\331B>\000\000\000\000\000\000\000\000\000\000\000\000\000\000\000\000\373\317Pc\330\213\313=\000\000\000\000\000\000\000\000\000\000\000\000\000\000\000\000\000\000\000\000\000\000\000\000\000\000\000\000\000\000\000\000\000\000\000\000\000\000\000\000\000\000\000\000\000\000\000\000\002\324`\255\332\262\357?\000\000\000\000\000\000\000\000\356\310\020irG\301?\000\000\000\000\000\000\000\000\326\257U\210\267\013\227?\000\000\000\000\000\000\000\000S\236A+\2141p?\000\000\000\000\000\000\000\000\022X\304.\361UG?\000\000\000\000\000\000\000\000\037\302%\0378\027!?\000\000\000\000\000\000\000\000P\217i\003\241_\371>\000\000\000\000\000\000\000\000h\377[\304\207\026\323>\000\000\000\000\000\000\000\000g%\237I\016$\255>\000\000\000\000\000\000\000\000\233\r\204\270v\234\206>\000\000\000\000\000\000\000\000c|-\377\213\334a>\000\000\000\000\000\000\000\000`\356\033\345\270\276<>\000\000\000\000\000\000\000\000~z\241v\346\212\027>\250s\365\314\323:\355?\277\003\341\350)R\241?_\216\325\240\272\314\326?\345\340\207Y\332\313\205?\\RR\317t\177\305?)\035\265\333F\006U?Tk\224\361\341\'\265?\3271\352y\315\211v?\"\227\250L\3254\245?l\275\200`\307hx?\254\341%\344\027\211\225?\305\014\273[\304et?0.\004\245\325,\206?\347Q\254\372|An?R\306\225!\355;w?`\022\000l\360\353d?\250\235\032\3562\340h?\256\215\002\014\201\242[?(\345X\207\007O[?\002),\351\207\256Q?\016}82*\310N?\314\221%\227o\"F?\214U\002\211\253\312A?t..\356\202M;?{U^\356h\0055?x\3754\336\220\306\347?\000\000\000\000\000\000\000\000\000\000\000\000\000\000\000\000\000\000\000\000\000\000\000\000\000\000\000\000\000\000\000\000\000\000\000\000\000\000\000\000\000\000\000\000\000\000\000\000\000\000\000\000\000\000\000\000\000\000\000\000\000\000\000\000\000\000\000\000\000\000\000\000\000\000\000\000\000\000\000\000\000\000\000\000\000\000\000\000\000\000\000\000\000\000\000\000\000\000\000\000\000\000\000\000\000\000\000\000\000\000\000\000\000\000\000\000\000\000\000\000\000\000\000\000\000\000\000\000\000\000\000\000\000\000\000\000\000\000\000\000\000\000\000\000\000\000\000\000\000\000\000\000\000\000\000\000\000\000\000\000\000\000\000\000\000\000\000\000~\262\277p\357j\345?\000\000\000\000\000\000\000\000\000\000\000\000\000\000\000\000\000\000\000\000\000\000\000\000\000\000\000\000\000\000\000\000\000\000\000\000\000\000\000\000\000\000\000\000\000\000\000\000\000\000\000\000\000\000\000\000\000\000\000\000\000\000\000\000\000\000\000\000\000\000\000\000\000\000\000\000\000\000\000\000\000\000\000\000\000\000\000\000\000\000\000\000\000\000\000\000\000\000\000\000\000\000\000\000\000\000\000\000\000\000\000\000\000\000\000\000\000\000\000\000\000\000\000\000\000\000\000\000\000\000\000\000\000\000\000\000\000\000\000\000\000\000\000\000\000\000\000\000\000\000\000\000\000\000\000\000\000\000\360?\000\000\000\000\000\000\000\000\000\000\000\000\000\000\000\000\000\000\000\000\000\000\000\000\000\000\000\000\000\000\000\000\000\000\000\000\000\000\000\000\000\000\000\000\000\000\000\000\000\000\000\000\000\000\000\000\035y\0346\310\034\355?\332e\233[\255\313\261?6\364\370\231\r\277\331?[\0035\0264,\222?V\313\200\312S\227\262?Y\340\302\2256Td?O\002\'!\021\373\200?5\220\001]\275b/?\246& \362=\264F?\363s\265\333%\201\362>Pn\206\n\014\362\007?\274+\032M4\247\261>\304*\224\301|\332\304>{N-\237\212Hl>\005w\2376\263\356~>\274\367\010\3369\207#>\361\334G1W\3723>\234\344\344\212\322\261\327=)\227\013\272\352\332\346=\315\277lq\260\243\211=xm\306\026/\351\226=\000\000\000\000\000\000\000\000\000\000\000\000\000\000\000\000\000\000\000\000\000\000\000\000\000\000\000\000\000\000\000\000H\213<jL\327\357?\000\000\000\000\000\000\000\000\000\000\000\000\000\000\000\000\341\277I\332\"{\271?\000\000\000\000\000\000\000\000\000\000\000\000\000\000\000\000\006\330y\326\023=b?\000\000\000\000\000\000\000\000\000\000\000\000\000\000\000\000\027p\206\273\347z\371>\000\000\000\000\000\000\000\000\000\000\000\000\000\000\000\000|\256=\203\353\376\205>\000\000\000\000\000\000\000\000\000\000\000\000\000\000\000\000\217\306\"=\032h\n>\000\000\000\000\000\000\000\000\000\000\000\000\000\000\000\000j!\327\207\324\253\207=\000\000\000\000\000\000\000\000\000\000\000\000\000\000\000\000\000\000\000\000\000\000\000\000\000\000\000\000\000\000\000\000\000\000\000\000\000\000\000\000\000\000\000\000\000\000\000\000\341|\212$\326\226\344?\000\000\000\000\000\000\000\000~y\265b\013\260\336?\000\000\000\000\000\000\000\000\352\303\301\337_\241\330?\000\000\000\000\000\000\000\000\311\033\010-\003P\323?\000\000\000\000\000\000\000\000\323\255\235t\376\212\315?\000\000\000\000\000\000\000\000c\306\332\303\264#\306?\000\000\000\000\000\000\000\000\366\\\277\373\347Q\300?\000\000\000\000\000\000\000\000\210\340m\364\330\274\267?\000\000\000\000\000\000\000\000\262`T\251\000\022\261?\000\000\000\000\000\000\000\000a+d\372pQ\250?\000\000\000\000\000\000\000\000\241-\204\366\007.\241?\000\000\000\000\000\000\000\000\224H\016\245\245\031\230?\000\000\000\000\000\000\000\000\353->\320!\314\220?\t\027\272&\226>\313?\247T\361\347h\202\246?\366\026U\250\001\321\310?\242\377\003<\241\006\300?\3313\\b\244\356\306?F\000\203\370\021{\265?\022\2669\255\277.\225?s<p\2748\374\271?\021\032$\333\361|\301?s\347\016`\330o\276?\324\261\036\251\211`\320?\230\032\3735L?\264?\312\025`K\247\340\264?\243/\004\275\360\343\273?\350\340i\334\343I\235?\342\312\267\307&s\264?\374\250y/\223\016\276?\346\371\000\316\211\331\266?L\2342\233\036\222\311?M\212rT\016\317\271?E\276\211\302\244\025\300?\000\273hK\333\252\264?\321ZRMd?\220?r{\363\323\177\214\266?^\354\\R\345d\240?\254\374\250\243\275\270\351?\000\000\000\000\000\000\000\000\000\000\000\000\000\000\000\000\000\000\000\000\000\000\000\000\000\000\000\000\000\000\000\000\000\000\000\000\000\000\000\000\000\000\000\000\000\000\000\000\337\245\245\020g\t\343?\000\000\000\000\000\000\000\000\000\000\000\000\000\000\000\000\000\000\000\000\000\000\000\000\000\000\000\000\000\000\000\000\000\000\000\000\000\000\000\000\000\000\000\000\000\000\000\000\000\000\000\000\000\000\000\000\000\000\000\000\000\000\000\000\000\000\000\000\000\000\000\000\000\000\000\000\000\000\000\000\000\000\000\000\000\000\000\000\000\000\000\000\000\000\000\000\000\000\000\000\000\000\000\000\000\000\000\000\000\000\000\000\000\000\000\000\000\000\000\000\000\000\000\000\000\000\000\000\000\000\000\000\000\000\000\000\000\000\000\000\000\000\000\000\000\000\000\000\000\000\000\000\000\000\000\000\000\000\000\000\000\000\000\000\000\000\000\000\000\000\000\000\000\000\000\000\000\000\000\000\000\000\000\000\000\000\000\000\000\000\000\000\000\000\000\000\000\000\000\000\000\000\000\000\000\000\000\000\000\000\000\000\000\000\000\000\000\000\000\000\000\000\000\000\000\000\000\000\000\000\000\000\000\000\000\000\000\000\000\000\000\000\000\000\000\000\000\000\000\000\000\000\000\000\000\000\000\000\000\000\000\000\000\000\000\000\000\000\000\000\000\000\000\000\000\000\000\000\000\000\000\000\000\000\000\000\000\000\000\000\000\000\000\000\000\000\000\000\000\000\000\000\360?\000\000\000\000\000\000\000\000\000\000\000\000\000\000\000\000\000\000\000\000\000\000\000\000\000\000\000\000\000\000\000\000?\374\330\252\005\273\357?$\354>\234\221\022\275?N\030MT\027\310\257? \023\362\345\341\317p?Y\r\273N\307\375Y?]\211\322\213\311L\025?g=\006\226\014\343\372>Hx\253\225=\237\262>^\243/\237w[\224>\351\251\311\035\214\336H>\013\334\242a\tQ(>!f\262\027\305\336\332=\377W\263\322\332\373\267=\000\000\000\000\000\000\000\000\000\000\000\000\000\000\000\000\000\000\000\000\000\000\000\000\000\000\000\000\000\000\000\000\000\000\000\000\000\000\000\000\000\000\000\000\000\000\000\000\000\000\000\000\000\000\000\000\000\000\000\000\000\000\000\000\000\000\000\000\000\000\000\000\000\000\000\000\000\000\000\000\000\000\000\000\000\000\000\000\000\000\000\000\000\000\000\000\202#\215&]\253\356?\000\000\000\000\000\000\000\000\000\000\000\000\000\000\000\000\352\225W\027\'9\322?\000\000\000\000\000\000\000\000\000\000\000\000\000\000\000\000~n\257\002\241^\223?\000\000\000\000\000\000\000\000\000\000\000\000\000\000\000\000\221Q\320\005\214\027D?\000\000\000\000\000\000\000\000\000\000\000\000\000\000\000\000\337\\\351\260\227\301\351>\000\000\000\000\000\000\000\000\000\000\000\000\000\000\000\000\r8\362\367l\365\206>\000\000\000\000\000\000\000\000\000\000\000\000\000\000\000\000\262x\201]@\220\036>\000\000\000\000\000\000\000\000\000\000\000\000\000\000\000\000\204\337\311Lq\310\257=\000\000\000\000\000\000\000\000\000\000\000\000\000\000\000\000\000\000\000\000\000\000\000\000\t\375{gj\220\357?\000\000\000\000\000\000\000\000|\224|\035\020N\304?\000\000\000\000\000\000\000\000\344\261\036\246\347\013\240?\000\000\000\000\000\000\000\000\215\310+\213C\033\230?\000\000\000\000\000\000\000\000\305\220\341\260<1\220?\000\000\000\000\000\000\000\000\004t& S5\202?\000\000\000\000\000\000\000\000\007W\342!\231\252r?\000\000\000\000\000\000\000\000G\201\321\2530\033b?\000\000\000\000\000\000\000\000\344\215.\034\272\353P?\000\000\000\000\000\000\000\000\254G\367\323\005\306>?\000\000\000\000\000\000\000\000>\203H\204\207d+?\000\000\000\000\000\000\000\000o/\353I\207\366\027?\000\000\000\000\000\000\000\000n\256\363\225|\251\004?\017h\036\361M\200\357?\230\'\201\037\301\215\204?\023\374\351\035\036\365\305?\264\264\031\032\\\274i?3\316z\343\204\225\242?\007\215\270<\330\037e?J\270\355T\000\234\200?\337\034\027\265\010\237R?y\376\023pf\320^?>\267[\261\257\006;?k\036\316,\255\251=?7q\240+\341\323!?\035\210\344\n\227\264\035?N\007\223\355\013J\006?\0220\007VS\364\376>!\260\2719\315\003\353>\206\354K\320>\272\340>\243\037\376\230\305\030\320>*\302\366)j\244\302>.E\030\226\032\n\263>u$\200\337ZH\245>9\002\270\002?~\226>U\220)\271\035\276\210>\334\337\306.\341\245z>&\2148_\023)m>\325\227\003\254m\311\357?\000\000\000\000\000\000\000\000\000\000\000\000\000\000\000\000\000\000\000\000\000\000\000\000\000\000\000\000\000\000\000\000\000\000\000\000\000\000\000\000\000\000\000\000\000\000\000\000\000\000\000\000\000\000\000\000\000\000\000\000\000\000\000\000\000\000\000\000\000\000\000\000\000\000\000\000\000\000\000\000+\032\241\324\361\177\275?\000\000\000\000\000\000\000\000\000\000\000\000\000\000\000\000\000\000\000\000\000\000\000\000\000\000\000\000\000\000\000\000\000\000\000\000\000\000\000\000\000\000\000\000\000\000\000\000\000\000\000\000\000\000\000\000\000\000\000\000\000\000\000\000\000\000\000\000\000\000\000\000\000\000\000\000\000\000\000\000\000\000\000\000\000\000\000\000\000\000\000\000\000\000\000\000\000\000\000\000\000\000\000\000\000\000\000\000\000\000\000\000\000\000\000\000\000\000\000\000\000\000\000\000\000\000\000\000\000\000\000\000\000\000\000\000\000\000\000\000\000\000\000\000\000\000\000\000\000\000\000\000\000\000\000\000\000\000\000\000\000\000\000\000\000\000\000\000\000\000\000\000\000\000\000\000\000\000\000\000\000\000\000\000\000\000\000\000\000\000\000\000\000\000\000\000\000\000\000\000\000\000\000\000\000\000\000\000\000\000\000\000\000\000\000\000\000\000\000\000\000\000\000\000\000\000\000\000\000\000\000\000\000\000\000\000\000\000\000\000\000\000\000\000\000\000\000\000\000\000\000\000\000\000\000\000\000\000\000\000\000\000\000\000\000\000\000\000\000\000\000\000\000\000\000\000\000\000\360?\000\000\000\000\000\000\000\000\000\000\000\000\000\000\000\000\000\000\000\000\000\000\000\000B9\344\025\242,\347?Z\342\251\']\262\345?\365\241\353\355\374F\274?\032\247\332Q\345\221\256?\344K\2067\035,|?\365\3012\237h\227g?Kf\215uh\3001?2X\344Kn \031?~\003\351h\257_\340>\313\010ff\217p\304>\032\300\252\236\236\323\207>[\333\372\375]\347j>\354\024\024\264\033\241,>_=uj{\274\r>\272\237\247\260\321K\315=8\357\234(B\274\254=\000\000\000\000\000\000\000\000\000\000\000\000\000\000\000\000\000\000\000\000\000\000\000\000\000\000\000\000\000\000\000\000\000\000\000\000\000\000\000\000\000\000\000\000\000\000\000\000\000\000\000\000\000\000\000\000\000\000\000\000\000\000\000\000\000\000\000\000\000\000\000\000\310J\323\"\360\377\357?\000\000\000\000\000\000\000\000\000\000\000\000\000\000\000\000\267\373\031\360\024\335o?\000\000\000\000\000\000\000\000\000\000\000\000\000\000\000\000jh\225=\337`\314>\000\000\000\000\000\000\000\000\000\000\000\000\000\000\000\000\3065\317|Q\252\030>\000\000\000\000\000\000\000\000\000\000\000\000\000\000\000\000\000\000\000\000\000\000\000\000\000\000\000\000\000\000\000\000\000\000\000\000\000\000\000\000\000\000\000\000\000\000\000\000\000\000\000\000\000\000\000\000\000\000\000\000\000\000\000\000\000\000\000\000\000\000\000\000\000\000\000\000\000\000\000\000\000\000\000\000\000\000\000\000\000\000\000\000\000\000\000\000\000\000\000\000\000\000\000\000\000\000\000\000\000\000\000\000\000\000\000\000\000\000\000\000\265\3531\254\365}\354?\000\000\000\000\000\000\000\000\355\326\243I\211\275\330?\000\000\000\000\000\000\000\0000\003-Y\005\327\311?\000\000\000\000\000\000\000\000\232\342\322r3\372\273?\000\000\000\000\000\000\000\000\217\006\rCX\230\256?\000\000\000\000\000\000\000\000\2127\346\330\205\302\240?\000\000\000\000\000\000\000\000c~\177+\020W\222?\000\000\000\000\000\000\000\000\302OS@\215\005\204?\000\000\000\000\000\000\000\000!\337u\352\346\313u?\000\000\000\000\000\000\000\000Vn\210\273\033\251g?\000\000\000\000\000\000\000\000\344\365\360\223\301\234Y?\000\000\000\000\000\000\000\000\242\244b\245\306\246K?\000\000\000\000\000\000\000\000\356\'ktO\307=?\207b\000\330Y#\346?\002\321\374\370\024\310`?\372\250\312F_}\333?{\312\020\356N^`?\256L\222\340\035\347\324?\354\n\320D\033\023]?\301\005\231|p\301\320?\345\365\307g+\022W?F\345\025\235\275\204\313?\3634=(\027nW?|\037\222>\234\351\306?tPV\304\r\366B?_5\224\227\324N\303?>o\nW\333\274N?=\322U\231<F\300?\331\334\252\207\223\367B?\317P\rH\251\251\273?\323\224\240\207\017J7?6\303\270\267o\271\267?\207\',\372\"\325\027?\241?\375P7J\264?u\373M\021y\243$?\353\256c\234\317T\261?V\333\371z:\270\020?\260\323Zn%\320\255?\2343_\264\035\r\354?\000\000\000\000\000\000\000\000\000\000\000\000\000\000\000\000\000\000\000\000\000\000\000\000\000\000\000\000\000\000\000\000\000\000\000\000\000\000\000\000\000\000\000\000\000\000\000\000\000\000\000\000\000\000\000\000\000\000\000\000\000\000\000\000\000\000\000\000\000\000\000\000\000\000\000\000\000\000\000\000\000\000\000\000\000\000\000\000\000\000\000\000\000\000\000\000\240SK\246E\314\336?\000\000\000\000\000\000\000\000\000\000\000\000\000\000\000\000\000\000\000\000\000\000\000\000\000\000\000\000\000\000\000\000\000\000\000\000\000\000\000\000\000\000\000\000\000\000\000\000\000\000\000\000\000\000\000\000\000\000\000\000\000\000\000\000\000\000\000\000\000\000\000\000\000\000\000\000\000\000\000\000\000\000\000\000\000\000\000\000\000\000\000\000\000\000\000\000\000\000\000\000\000\000\000\000\000\000\000\000\000\000\000\000\000\000\000\000\000\000\000\000\000\000\000\000\000\000\000\000\000\000\000\000\000\000\000\000\000\000\000\000\000\000\000\000\000\000\000\000\000\000\000\000\000\000\000\000\000\000\000\000\000\000\000\000\000\000\000\000\000\000\000\000\000\000\000\000\000\000\000\000\000\000\000\000\000\000\000\000\000\000\000\000\000\000\000\000\000\000\000\000\000\000\000\000\000\000\000\000\000\000\000\000\000\000\000\000\000\000\000\000\000\000\000\000\000\000\000\000\000\000\000\000\000\000\000\000\000\000\000\000\000\000\000\000\000\000\000\000\000\000\000\000\000\000\000\000\000\000\000\000\000\000\360?\000\000\000\000\000\000\000\000\000\000\000\000\000\000\000\000\000\000\000\000\000\000\000\000-\340\275\364\335\374\357?\374JI3P\\\212?\257\3527\266\266\017\231?\t\004\325V\000\331\'?\353\246\361\321\037\0100?P\020X%)\242\267>\371,{\260\315\361\271>\003cm\376\200)@>\212\334\350\274)\273>>p&5\203\"\342\300=p\372h\255\232\266\274=\000\000\000\000\000\000\000\000\000\000\000\000\000\000\000\000\000\000\000\000\000\000\000\000\000\000\000\000\000\000\000\000\000\000\000\000\000\000\000\000\000\000\000\000\000\000\000\000\000\000\000\000\000\000\000\000\000\000\000\000\000\000\000\000\000\000\000\000\000\000\000\000\000\000\000\000\000\000\000\000\000\000\000\000\000\000\000\000\000\000\000\000\000\000\000\000\000\000\000\000\000\000\000\000\000\000\000\000\000\000\000\000Yv\242Mh~\357?\000\000\000\000\000\000\000\000\000\000\000\000\000\000\000\000\340\276\356#\301\250\306?\000\000\000\000\000\000\000\000\000\000\000\000\000\000\000\000\017}\215c\331)}?\000\000\000\000\000\000\000\000\000\000\000\000\000\000\000\000\365*\026\177\252P\"?\000\000\000\000\000\000\000\000\000\000\000\000\000\000\000\000)\355):\355m\274>\000\000\000\000\000\000\000\000\000\000\000\000\000\000\000\000\374\231\362\032v\257N>\000\000\000\000\000\000\000\000\000\000\000\000\000\000\000\000\371\366\220\246Y\273\330=\000\000\000\000\000\000\000\000\000\000\000\000\000\000\000\000\000\000\000\000\000\000\000\000\000\000\000\000\000\000\000\000\000\000\000\000\000\000\000\000\000\000\000\000\000\000\000\000\010\370\353S+\300\351?\000\000\000\000\000\000\000\000d\351\374\030\327\253\336?\000\000\000\000\000\000\000\000\3167\335\013\206v\322?\000\000\000\000\000\000\000\000\021\324\2428\356A\305?\000\000\000\000\000\000\000\000 -$H\323\240\267?\000\000\000\000\000\000\000\000\223\006\341\375)\222\251?\000\000\000\000\000\000\000\000\230\367\024\361P\032\233?\000\000\000\000\000\000\000\000L\303\"\t\313?\214?\000\000\000\000\000\000\000\000o\000\312<4\n}?\000\000\000\000\000\000\000\000;UW\307\277\201m?\000\000\000\000\000\000\000\000\005\225\326U\344\256]?\000\000\000\000\000\000\000\0004F\2711\036\232M?\000\000\000\000\000\000\000\000j\326\234\300\277K=?\215\')xx\336\356?\250G\021\212e\277\274?\321w\026\034\362\204\315?\206+\247\220pa\204?\300$\020N\336\234\243?\214\366\035\3310\215\242?\323\364\310+w$r?c \3101T?\231?\177\257RU\312\210r?\266%\226h\243f\203?d@\004\315\225\nQ?\360k\301^\241dP?F\320\206\231\333\222j?\005\360\340\335xUW?-\023\014\231\026\000e?g\031$\332-iP?\332G\205=\204\274Q?\"\372\272Y\226m\022?\302-\332a\337\345\000?%\337p\303\362\027<?\255\215]-Hb6?\251^\"\210\177&=?\360\330\033\211\246R2?o\247\022\275\030\355.?(O\307c\\\265\026?\304u>\010\223\317\346?\000\000\000\000\000\000\000\000\000\000\000\000\000\000\000\000\000\000\000\000\000\000\000\000\000\000\000\000\000\000\000\000\000\000\000\000\000\000\000\000\000\000\000\000\000\000\000\000\000\000\000\000\000\000\000\000\000\000\000\000\000\000\000\000hEF\207Gq\346?\000\000\000\000\000\000\000\000\000\000\000\000\000\000\000\000\000\000\000\000\000\000\000\000\000\000\000\000\000\000\000\000\000\000\000\000\000\000\000\000\000\000\000\000\000\000\000\000\000\000\000\000\000\000\000\000\000\000\000\000\000\000\000\000\000\000\000\000\000\000\000\000\000\000\000\000\000\000\000\000\000\000\000\000\000\000\000\000\000\000\000\000\000\000\000\000\000\000\000\000\000\000\000\000\000\000\000\000\000\000\000\000\000\000\000\000\000\000\000\000\000\000\000\000\000\000\000\000\000\000\000\000\000\000\000\000\000\000\000\000\000\000\000\000\000\000\000\000\000\000\000\000\000\000\000\000\000\000\000\000\000\000\000\000\000\000\000\000\000\000\000\000\000\000\000\000\000\000\000\000\000\000\000\000\000\000\000\000\000\000\000\000\000\000\000\000\000\000\000\000\000\000\000\000\000\000\000\000\000\000\000\000\000\000\000\000\000\000\000\000\000\000\000\000\000\000\000\000\000\000\000\000\000\000\000\000\000\000\000\000\000\000\000\000\000\000\000\000\000\000\000\000\000\000\000\000\000\000\000\000\000\000\000\000\000\000\000\000\000\000\000\000\000\000\000\000\000\000\000\000\000\000\000\000\000\000\000\000\000\000\000\000\000\000\000\000\000\000\000\000\000\000\000\000\000\000\000\000\000\000\000\000\000\000\000\000\000\000\360?\215_\232C\341S\347?8\0359y\211\r\331?5\022yU\016~\340?g\216/\020\303s\304?0 t\267f\n\303?8\340\220\r;J\242?|\246\371NV\316\233?\343\357\313k\351\222v?W\022@@\217\270m?\211{Z\216\201GE?\275s\2535\t\0179?\0228\365G\201:\020?\317!6\313\035r\001?g\200\007z$\311\324>\204\2778\032\356\257\304>\227\265\372\332\037\362\226>\226N\013\221\264\\\205>\0313\267\300\312AV>0\207,\314+\211C>\225\302\r\202\315@\023>\326\352\240\2001\010\000>t\203K\315\300\016\316=\331\264\320\2214\335\267=\337\023=x\261N\205=\000\000\000\000\000\000\000\000\233\323\221\325\365\376\357?\000\000\000\000\000\000\000\000\000\000\000\000\000\000\000\000\224\'0\r`P\220?\000\000\000\000\000\000\000\000\000\000\000\000\000\000\000\000?\t\221\261~\302\r?\000\000\000\000\000\000\000\000\000\000\000\000\000\000\000\000\223\007\272\314Q}z>\000\000\000\000\000\000\000\000\000\000\000\000\000\000\000\000H\326\033^\242#\335=\000\000\000\000\000\000\000\000\000\000\000\000\000\000\000\000\000\000\000\000\000\000\000\000\000\000\000\000\000\000\000\000\000\000\000\000\000\000\000\000\000\000\000\000\000\000\000\000\000\000\000\000\000\000\000\000\000\000\000\000\000\000\000\000\000\000\000\000\000\000\000\000\000\000\000\000\000\000\000\000\000\000\000\000\000\000\000\000\000\000\000\000\000\000\000\000\315\261\267=\267\227\355?\000\000\000\000\000\000\000\000\326\2204\236a\357\326?\000\000\000\000\000\000\000\000v\223\216Yq,\277?\000\000\000\000\000\000\000\000\316\232\235\322\322H\243?\000\000\000\000\000\000\000\000y\330\025VL\202\206?\000\000\000\000\000\000\000\000q\322\336Wk<i?\000\000\000\000\000\000\000\000\304\247\250d\365tK?\000\000\000\000\000\000\000\000\264\3030\242\212--?\000\000\000\000\000\000\000\000\354F\203\373*k\016?\000\000\000\000\000\000\000\000\332\331\376\324\2025\357>\000\000\000\000\000\000\000\000:h\034\021.\226\317>\000\000\000\000\000\000\000\000\363\0223@\t\230\257>\000\000\000\000\000\000\000\000nx\023\271\232F\217>\365\021\256Y2\224\324?\267\337.k\032Q\"?\241K;\316\315\354\314?y\0278F\005\312=?\2278\305\201\347\320\310?\220\'\237\260\205.Q?u.z\3438W\307?yp\262\210\314\254x?\333\347\312Sy,\303?\323FQt\375Ql?\251\372x\247\245*\307?\325\367E\263\377\014\220?\371\352r{\353a\300?\316\237\027\017\216H\225?\372?f \335{\276?\346\231\"\320\274\003q?O\211%\322\\ \312?\372C\216\314\316\020p?\200\241g\024\007\333\245?\200\355\334\240\352\340\210?|\346\001\277\021V\317?\010)\305\315\252\366\225?\3656\304\027\203\034\251?\212\201\321@H\265\215?rUc\313\016O\264?\276\037\247\267\000\024\352?\000\000\000\000\000\000\000\000\000\000\000\000\000\000\000\000\000\000\000\000\000\000\000\000\000\000\000\000\000\000\000\000\000\000\000\000\000\000\000\000\000\000\000\000\000\000\000\000\000\000\000\000\000\000\000\000\000\000\000\000\000\000\000\000\000\000\000\000\000\000\000\000\000\000\000\000\000\000\000\000\000\000\000\000\000\000\000\000\000\000\000\000\000\000\000\000\000\000\000\000\000\000\000\000\000\000\000\000\000\000\000\000\000\000\000\000\000\000\000\000\000\000\000\000\000\000\000\000\000\000\000\000\000\000\000\000\000\000\000\000\000\000\000\000\000\000\000\000\000\000\000\000\000\000\000\000\000\000\000\000h\356+\201\235\213\342?\000\000\000\000\000\000\000\000\000\000\000\000\000\000\000\000\000\000\000\000\000\000\000\000\000\000\000\000\000\000\000\000\000\000\000\000\000\000\000\000\000\000\000\000\000\000\000\000\000\000\000\000\000\000\000\000\000\000\000\000\000\000\000\000\000\000\000\000\000\000\000\000\000\000\000\000\000\000\000\000\000\000\000\000\000\000\000\000\000\000\000\000\000\000\000\000\000\000\000\000\000\000\000\000\000\000\000\000\000\000\000\000\000\000\000\000\000\000\000\000\000\000\000\000\000\000\000\000\000\000\000\000\000\000\000\000\000\000\000\000\000\000\000\000\000\000\000\000\000\000\000\000\000\000\000\000\000\000\000\000\000\000\000\000\000\000\000\000\000\000\000\000\000\000\360?\000\000\000\000\000\000\000\000\000\000\000\000\000\000\000\000\000\000\000\000\000\000\000\000\000\000\000\000\000\000\000\000\000\000\000\000\000\000\000\000\000\000\000\000\000\000\000\000<+S\217\271\306\356?\242\010/P\235\371\266?\340J\240k\247p\320?\203yi\327\303W\214?\270x\251\367\203\256\234?\224\370(=\245&S?s\361o\353\264\245_?\326L\342\'\352\333\021?\3200\023\274\367\216\031?a\016+\222\230p\311>\207_;o,H\320>\203]G\353\201Q}>\322?\200\272\035!\201>N\3754\264f_,>;T\037\202\275\261.>\260Sq\202S\252\327=\214YM\221\302\362\327=x\376x\233\203U\201=\371\232?\241\274\220\177=\000\000\000\000\000\000\000\000\000\000\000\000\000\000\000\000\000\000\000\000\000\000\000\000\000\000\000\000\000\000\000\000\000\000\000\000\000\000\000\000\000\000\000\000\000\000\000\000\021|ek\236\352\357?\000\000\000\000\000\000\000\000\000\000\000\000\000\000\000\000N\000\267K>{\262?\000\000\000\000\000\000\000\000\000\000\000\000\000\000\000\000\014\200\372I\327$S?\000\000\000\000\000\000\000\000\000\000\000\000\000\000\000\000\324\333^\241,Z\343>\000\000\000\000\000\000\000\000\000\000\000\000\000\000\000\000\251\"0\252#-h>\000\000\000\000\000\000\000\000\000\000\000\000\000\000\000\000\256\327\010\335p\000\345=\000\000\000\000\000\000\000\000\000\000\000\000\000\000\000\000\000\000\000\000\000\000\000\000\000\000\000\000\000\000\000\000\000\000\000\000\000\000\000\000\000\000\000\000\000\000\000\000\000\000\000\000\000\000\000\000\000\000\000\000\000\000\000\000\000\000\000\000\000\000\000\0000h\323\265\254\377\353?\000\000\000\000\000\000\000\000t\324\310\367\230y\331?\000\000\000\000\000\000\000\000\211\232^jVc\314?\000\000\000\000\000\000\000\000\223h6\3354\254\300?\000\000\000\000\000\000\000\000*\227\252\243\\\021\264?\000\000\000\000\000\000\000\000\245!\004\2438\177\250?\000\000\000\000\000\000\000\000\204\002$\373\343-\236?\000\000\000\000\000\000\000\000\306\200\221\203\313\265\222?\000\000\000\000\000\000\000\0003}\036\371\202O\207?\000\000\000\000\000\000\000\000\265m\220\213J&}?\000\000\000\000\000\000\000\000i\311\000\354rGr?\000\000\000\000\000\000\000\000{\361\003\222\313\372f?\000\000\000\000\000\000\000\000\000F)x?\362\\?\263\225\363\201\205d\356?\321\314|s\224\263\256?\\%\314\304\320l\322?\226\201yg\036\323q?\305{A\315\257D\271?\244\rw\\\226C\212?P|\277#\211\025\241?\311\014\226\321\267S\212?\341\365\360\360\365+\207?\243\311\332YU\204\201?a\232%y\rdq?7\035\220\215\323As?\206\227`<\270F`?\233S]\224\375\300b?tLg\213\261\227R?j\275e\255\260\365P?\002\377%\217}\230F?\017Z\264\254\361;>?\276?\305s;w:?\000\210\202\004\237\300,?.\200\324\022\205\325,?^\224\220\373\335\330\036?\305A3\341\2079\035?$\336\315\336\232=\022?\'\314\230O\002=\014?\362\342uU\334\203\356?\000\000\000\000\000\000\000\000\000\000\000\000\000\000\000\000\000\000\000\000\000\000\000\000\000\000\000\000\000\000\000\000\000\000\000\000\000\000\000\000\000\000\000\000\000\000\000\000\000\000\000\000\000\000\000\000\000\000\000\000\000\000\000\000\000\000\000\000\000\000\000\000\000\000\000\000\000\000\000\000\000\000\000\000\000\000\000\000\000\000\000\000\000\000\000\000\000\000\000\000\000\000\000\000\000\000\000\000\000\000\000\000\000\000\000\000\000\000\000\000\000\000\000\000\000\000\000\000\000\000\000\000\000\000\000\000\000\000\000\000\000\000\000\000\000\000\000\000\000\000\000\000\000\000\000\000\000\000\000\000dH\000\273\007E\323?\000\000\000\000\000\000\000\000\000\000\000\000\000\000\000\000\000\000\000\000\000\000\000\000\000\000\000\000\000\000\000\000\000\000\000\000\000\000\000\000\000\000\000\000\000\000\000\000\000\000\000\000\000\000\000\000\000\000\000\000\000\000\000\000\000\000\000\000\000\000\000\000\000\000\000\000\000\000\000\000\000\000\000\000\000\000\000\000\000\000\000\000\000\000\000\000\000\000\000\000\000\000\000\000\000\000\000\000\000\000\000\000\000\000\000\000\000\000\000\000\000\000\000\000\000\000\000\000\000\000\000\000\000\000\000\000\000\000\000\000\000\000\000\000\000\000\000\000\000\000\000\000\000\000\000\000\000\000\000\000\000\000\000\000\000\000\000\000\000\000\000\000\000\000\360?\000\000\000\000\000\000\000\000\000\000\000\000\000\000\000\000\000\000\000\000\000\000\000\000\000\000\000\000\000\000\000\000\000\000\000\000\000\000\000\000\000\000\000\000\000\000\000\000\032L\270\356&\303\324?\204/\276B\3018\356?\310klK\014\302\233?\361\3260\320\337S\247?\250\341AN\005MN?\305J\350\n\216\271S?s\323\201\352e\353\364>/RP\225\270\004\367>\203\271\006cW$\225>\366\200K:&\204\224>\325\201\r\035\265\3320>Z\326~\252\222\226->\377w\265\034p0\306=\351\223\222e4\305\301=\000\000\000\000\000\000\000\000\000\000\000\000\000\000\000\000\000\000\000\000\000\000\000\000\000\000\000\000\000\000\000\000\000\000\000\000\000\000\000\000\000\000\000\000\000\000\000\000\000\000\000\000\000\000\000\000\000\000\000\000\000\000\000\000\000\000\000\000\000\000\000\000\000\000\000\000\000\000\000\000\000\000\000\000\000\000\000\000@O\0018\226\362\356?\000\000\000\000\000\000\000\000\000\000\000\000\000\000\000\000\212p\360\212\023@\320?\000\000\000\000\000\000\000\000\000\000\000\000\000\000\000\000\324\250\275l5\207\216?\000\000\000\000\000\000\000\000\000\000\000\000\000\000\000\0002\200\022w\376\373;?\000\000\000\000\000\000\000\000\000\000\000\000\000\000\000\000#\2224\212\275\263\337>\000\000\000\000\000\000\000\000\000\000\000\000\000\000\000\000\235\302(\231\007\371x>\000\000\000\000\000\000\000\000\000\000\000\000\000\000\000\000U\272\216l\001a\r>\000\000\000\000\000\000\000\000\000\000\000\000\000\000\000\000\000px$\177\022\233=\000\000\000\000\000\000\000\000\000\000\000\000\000\000\000\000\000\000\000\000\000\000\000\000A\200\300\021+\354\344?\000\000\000\000\000\000\000\000\365\177\363`d-\335?\000\000\000\000\000\000\000\000\254\357\035\376C\370\327?\000\000\000\000\000\000\000\000\365\234\243{\313[\323?\000\000\000\000\000\000\000\000dO\026\032\223u\316?\000\000\000\000\000\000\000\000\304\320R \205u\307?\000\000\000\000\000\000\000\000\003&\276\3253\306\301?\000\000\000\000\000\000\000\000\037\rI\3130\227\272?\000\000\000\000\000\000\000\000\277.\010Dy\257\263?\000\000\000\000\000\000\000\000\034\250\373(\n\346\254?\000\000\000\000\000\000\000\000\362o\332\014\005\017\245?\000\000\000\000\000\000\000\000\020\207U\206\367\177\236?\000\000\000\000\000\000\000\000%\256\321\300O\367\225?\353_\371R\221\243\331?\262\332x\276\251\273\345>\026\257=\275\353\344\321?\007\323\257\230_\302\367>\213T]o>\227\316?\030\222\370\320U\317\035?\214*#E[\225\313?(S\342\340\2363\026?\377\320\365k\212e\311?X\005\247\375\360\210/?\201\203&\217\342\341\307?\310\225\004`\021\0331?\316\034\022u\274\220\306?E\030|n\334 c?T;\200b\n7\305?\363\337\230h\213\300~?GKE\320_6\305?=\276\223|a\203\201?\336\216S\363&_\301?\020\016\367I\216.W?n\355\361\333\035u\306?9|a\277%\351\212?\324jw\\\364e\300?\216I\001\270\346=w?\034\305v\237u\253\300?\360\335\340\237w\247\347?\000\000\000\000\000\000\000\000\000\000\000\000\000\000\000\000\000\000\000\000\000\000\000\000\000\000\000\000\000\000\000\000\000\000\000\000\000\000\000\000\000\000\000\000\000\000\000\000\000\000\000\000\000\000\000\000\000\000\000\000\000\000\000\000\000\000\000\000\000\000\000\000\000\000\000\000\000\000\000\000\000\000\000\000\000\000\000\000\000\000\000\000\000\000\000\000\352\006u\022C\215\345?\000\000\000\000\000\000\000\000\000\000\000\000\000\000\000\000\000\000\000\000\000\000\000\000\000\000\000\000\000\000\000\000\000\000\000\000\000\000\000\000\000\000\000\000\000\000\000\000\000\000\000\000\000\000\000\000\000\000\000\000\000\000\000\000\000\000\000\000\000\000\000\000\000\000\000\000\000\000\000\000\000\000\000\000\000\000\000\000\000\000\000\000\000\000\000\000\000\000\000\000\000\000\000\000\000\000\000\000\000\000\000\000\000\000\000\000\000\000\000\000\000\000\000\000\000\000\000\000\000\000\000\000\000\000\000\000\000\000\000\000\000\000\000\000\000\000\000\000\000\000\000\000\000\000\000\000\000\000\000\000\000\000\000\000\000\000\000\000\000\000\000\000\000\000\000\000\000\000\000\000\000\000\000\000\000\000\000\000\000\000\000\000\000\000\000\000\000\000\000\000\000\000\000\000\000\000\000\000\000\000\000\000\000\000\000\000\000\000\000\000\000\000\000\000\000\000\000\000\000\000\000\000\000\000\000\000\000\000\000\000\000\000\000\000\000\000\000\000\000\000\000\000\000\000\360?\000\000\000\000\000\000\000\000\000\000\000\000\000\000\000\000\000\000\000\000\000\000\000\000\000\000\000\000\000\000\000\000|4y\206\004H\355?\333\013\264h\253\226\330?\234<5o\336\205\276?t\007F\021\251\230\235?\211\021\337\263\206\372y?\375y1\030\027\203S?\177\017\205\342\341\367+?E]ko\363\300\001?\\\027\276h\334\t\326>\305+\rZ\344\254\250>\355&\3048\234e{>\327\\sE\030\277K>p\225\261\220a\037\034>\374\3337&\3662\352=&\256:\263\234\225\270=B\206n\270c-\205=\000\000\000\000\000\000\000\000\000\000\000\000\000\000\000\000\000\000\000\000\000\000\000\000\000\000\000\000\000\000\000\000\000\000\000\000\000\000\000\000\000\000\000\000\000\000\000\000\000\000\000\000\000\000\000\000\000\000\000\000\000\000\000\000\000\000\000\000\000\000\000\000:.\310u\267\331\357?\000\000\000\000\000\000\000\000\000\000\000\000\000\000\000\000\347\211\320\342\364\266\270?\000\000\000\000\000\000\000\000\000\000\000\000\000\000\000\000Z\331m\202(\'a?\000\000\000\000\000\000\000\000\000\000\000\000\000\000\000\000\\\207\317%a<\367>\000\000\000\000\000\000\000\000\000\000\000\000\000\000\000\000G[\373\372\014s\203>\000\000\000\000\000\000\000\000\000\000\000\000\000\000\000\000_\033\311\307\005\244\006>\000\000\000\000\000\000\000\000\000\000\000\000\000\000\000\000\343@\301\245/\256\203=\000\000\000\000\000\000\000\000\000\000\000\000\000\000\000\000\000\000\000\000\000\000\000\000\000\000\000\000\000\000\000\000\000\000\000\000\000\000\000\000\000\000\000\000\000\000\000\000\253U\032\205\246\r\350?\000\000\000\000\000\000\000\000_a\261\033[\177\340?\000\000\000\000\000\000\000\000Z\260\265M\356V\325?\000\000\000\000\000\000\000\000?I\245\376F\206\311?\000\000\000\000\000\000\000\000\337\021S\274|\010\275?\000\000\000\000\000\000\000\000\204\276\307=\324\344\257?\000\000\000\000\000\000\000\000q<\225\261\343\021\241?\000\000\000\000\000\000\000\000\317\307\020f{\347\221?\000\000\000\000\000\000\000\000Eh\017[\253x\202?\000\000\000\000\000\000\000\000\333\311\367\216\177\313r?\000\000\000\000\000\000\000\000\256z\347\'f\346b?\000\000\000\000\000\000\000\000\271\006\352t\372\317R?\000\000\000\000\000\000\000\000h\214\231\r\324\216B?\312\343M\267z\376\324?\211\322>\025\223\202\007?\r\372)\340jf\315?n\332E\005<\021B?T\315v*w\260\311?\372\263R\264k\235k?\363\'\000\203 \r\307?\361\003\212\205\006>t?V^\335q\204\250\304?jT\013ZpYe?\232\025\360\241sf\304?\224hu/v\207\202?;o\316I@\207\305?\200C\017\311\036\2517?\017\222/0\320,\300?\214\226\277\320(\276z?V\027U\311w@\301?\013\247+\224 \315\244?C\001FD\341I\301?\027\233\007$)\220\227?\266\354\234\353\265\264\302?\017\005\031\351c\362\240?\376\304K\206\016\206\273?;\225 b\373\266t?\r\006\204\335\246\355\304?\307\352\351\303\264\272\353?\000\000\000\000\000\000\000\000\000\000\000\000\000\000\000\000\000\000\000\000\000\000\000\000\000\000\000\000\000\000\000\000\000\000\000\000\000\000\000\000\000\000\000\000\000\000\000\000\000\000\000\000\000\000\000\000\000\000\000\000\000\000\000\000\264 \274\334W\361\337?\000\000\000\000\000\000\000\000\000\000\000\000\000\000\000\000\000\000\000\000\000\000\000\000\000\000\000\000\000\000\000\000\000\000\000\000\000\000\000\000\000\000\000\000\000\000\000\000\000\000\000\000\000\000\000\000\000\000\000\000\000\000\000\000\000\000\000\000\000\000\000\000\000\000\000\000\000\000\000\000\000\000\000\000\000\000\000\000\000\000\000\000\000\000\000\000\000\000\000\000\000\000\000\000\000\000\000\000\000\000\000\000\000\000\000\000\000\000\000\000\000\000\000\000\000\000\000\000\000\000\000\000\000\000\000\000\000\000\000\000\000\000\000\000\000\000\000\000\000\000\000\000\000\000\000\000\000\000\000\000\000\000\000\000\000\000\000\000\000\000\000\000\000\000\000\000\000\000\000\000\000\000\000\000\000\000\000\000\000\000\000\000\000\000\000\000\000\000\000\000\000\000\000\000\000\000\000\000\000\000\000\000\000\000\360?\000\000\000\000\000\000\000\000\000\000\000\000\000\000\000\000\000\000\000\000\000\000\000\000\000\000\000\000\000\000\000\000\000\000\000\000\000\000\000\000\000\000\000\000\000\000\000\000\000\000\000\000\000\000\000\000\000\000\000\000\000\000\000\000\000\000\000\000\000\000\000\000\000\000\000\000\000\000\000\000\000\000\000\000\000\000\000\000\000\000\000\000\000\000\000\000\000\000\000\000\000\000\000\000(\034\262\252D\217\353?\267+\241O\377\014\245?T\006s!\343\211\337?\003\360\370\024\027\321\213?\357\360\024\031\024x\275?o\305\200\261\003\"d?I\027\335\2433j\221?\216\367;\255P\0344?\027k-\nK!^?y\352\0270|\257\376>\0314{\016[\217$?Y\007\231P\246\360\302>Ee\377\312L+\347>\256\013l\027\036\242\203>\022\310\"\244N<\246>\201_\356l\206\212A>\345\272&oB\225b>8(~\022s\212\373=t\024\220\230\021\202\033>[\235l\366\007H\263=\376\374+\372)E\322=\000\000\000\000\000\000\000\0001\224L\n w\205=\000\000\000\000\000\000\000\000\000\000\000\000\000\000\000\000\377\377\377\377\377\377\357?\000\000\000\000\000\000\000\000\000\000\000\000\000\000\000\000\316#\252;W\213(>\000\000\000\000\000\000\000\000\000\000\000\000\000\000\000\000\000\000\000\000\000\000\000\000\000\000\000\000\000\000\000\000\000\000\000\000\000\000\000\000\000\000\000\000\000\000\000\000\000\000\000\000\000\000\000\000\000\000\000\000\000\000\000\000\000\000\000\000\000\000\000\000\000\000\000\000\000\000\000\000\000\000\000\000\000\000\000\000\000\000\000\000\000\000\000\000\000\000\000\000\000\000\000\000\000\000\000\000\000\000\000\000\000\000\000\000\000\000\000\000\000\000\000\000\000\000\000\000\000\000\000\000\000\000\000\000\000\000\000\000\000\000\000\000\000\000\000\000\000\000\000\000\000\000\000\000\000\000\000\000\000\000\000\000\000\000\000\000\353@\223;\254\030\354?\000\000\000\000\000\000\000\000\3124\354\233\315N\331?\000\000\000\000\000\000\000\000(l\035O\337\353\313?\000\000\000\000\000\000\000\000\204\313T\033\233<\300?\000\000\000\000\000\000\000\000\360\276\355\326\000Z\263?\000\000\000\000\000\000\000\000/\354\226\306\212d\247?\000\000\000\000\000\000\000\000\354\361\010SW\212\234?\000\000\000\000\000\000\000\000\376\264\222\3755\206\221?\000\000\000\000\000\000\000\000\036r&\371\376\237\205?\000\000\000\000\000\000\000\000\207\221\340t \311z?\000\000\000\000\000\000\000\000t.}\323\201\243p?\000\000\000\000\000\000\000\000 \201y\215\316\270d?\000\000\000\000\000\000\000\000\221\031\334?\036\334Y?\037\004\327c3\325\350?\240\331\037\231\262\336X?\244\324\272\205i\t\334?\227\231A\020\3448T?Q\305i\305Ib\323?K\021\034\203\030\312L?%r\t^\270@\314?\373\016\363pv\205B?\007\230\227\274\034\031\305?\310\250\236}\251\2604?k\026\235\031\017\365\277?sX\227\324\272\304 ?n\3131?\377l\270?B\370\267\242`\213\335>}\373\001\206>\312\262?\205\364\013\216{\024\032?\367Ie\026:\014\255?\220\266\216\234l\325$?m\321[\373\036\211\246?\220\017\243\334c_)?\323<Zr\345\210\241?\334\211\324\036\236\212+?\2101A\372=Z\233?\223\311e\272k\000,?\314\230[\001\033`\225?d\035\026!8\256\346?\000\000\000\000\000\000\000\000\000\000\000\000\000\000\000\000\000\000\000\000\000\000\000\000\000\000\000\000\000\000\000\000\000\000\000\000\000\000\000\000\000\000\000\000\000\000\000\000\000\000\000\000\000\000\000\000\000\000\000\000\000\000\000\000\000\000\000\000\000\000\000\000\000\000\000\000\000\000\000\000\000\000\000\000\000\000\000\000\000\000\000\000\000\000\000\000\000\000\000\000\000\000\000\000\000\000\000\000\000\000\000\000\000\000\000\000\000\000\000\000\000\000\000\000\000\000\000\000\000\000\000\000\000\000\000\000\000\000\000\000\000\000\000\000\000\000\000\000\000\000\000\000\000\000\000\000\000\000\000\000\235\377<z\374\222\346?\000\000\000\000\000\000\000\000\000\000\000\000\000\000\000\000\000\000\000\000\000\000\000\000\000\000\000\000\000\000\000\000\000\000\000\000\000\000\000\000\000\000\000\000\000\000\000\000\000\000\000\000\000\000\000\000\000\000\000\000\000\000\000\000\000\000\000\000\000\000\000\000\000\000\000\000\000\000\000\000\000\000\000\000\000\000\000\000\000\000\000\000\000\000\000\000\000\000\000\000\000\000\000\000\000\000\000\000\000\000\360?\000\000\000\000\000\000\000\000\000\000\000\000\000\000\000\000\000\000\000\000\000\000\000\000\000\000\000\000\000\000\000\000\000\000\000\000\000\000\000\000\000\000\000\000\000\000\000\000\000\000\000\000\000\000\000\000\000\000\000\000\000\000\000\000\000\000\000\000\000\000\000\000\000\000\000\000\000\000\000\000\000\000\000\000\000\000\000\000\000\000\000\000\000\000\000\000\000\000\000\000\000\000\000\000\000\000\000\000\000\000\000\000\350\216G\253\234<\347?M!\202\337Y\320\345?a\311\203O\321!\264?\301\341e\244\263\322\245?\3418\210\264\252{l?\262\361\356O\200\352W?`\202\320@\234|\031?\013?\270\302\037\026\002?5\226\'y(\261\300>\001m\242A\250\344\244>\024\333\257\013(?a>\220\324\231\347\317\206C>@\205h\234\257m\375=\200\265\327A\025\246\336=Y\356\353\360\320a\225=\000\000\000\000\000\000\000\000\000\000\000\000\000\000\000\000\000\000\000\000\000\000\000\000\000\000\000\000\000\000\000\000\000\000\000\000\000\000\000\000\000\000\000\000\000\000\000\000\000\000\000\000\000\000\000\000\000\000\000\000\000\000\000\000\000\000\000\000\000\000\000\000\000\000\000\000\000\000\000\000\354j\341\234\373\365\357?\000\000\000\000\000\000\000\000\000\000\000\000\000\000\000\000v\353\316U\203O\251?\000\000\000\000\000\000\000\000\000\000\000\000\000\000\000\0007?\007\251\217\355A?\000\000\000\000\000\000\000\000\000\000\000\000\000\000\000\000UW\205\301\r\311\310>\000\000\000\000\000\000\000\000\000\000\000\000\000\000\000\000\355\231\201\357Z,E>\000\000\000\000\000\000\000\000\000\000\000\000\000\000\000\000\220\252\027\316Q$\271=\000\000\000\000\000\000\000\000\000\000\000\000\000\000\000\000\000\000\000\000\000\000\000\000\000\000\000\000\000\000\000\000\000\000\000\000\000\000\000\000\000\000\000\000\000\000\000\000\000\000\000\000\000\000\000\000\000\000\000\000\000\000\000\000\000\000\000\000\000\000\000\000\221\371\375\026[g\340?\000\000\000\000\000\000\000\000&W\325\252\006\035\332?\000\000\000\000\000\000\000\000\227\036z.3w\327?\000\000\000\000\000\000\000\000T\237\r#\346\027\325?\000\000\000\000\000\000\000\000lp\316\363\205\275\322?\000\000\000\000\000\000\000\000\361D\003R;r\320?\000\000\000\000\000\000\000\000\005\352`\\\311\214\314?\000\000\000\000\000\000\000\000\302\237\344\324\257\213\310?\000\000\000\000\000\000\000\000r\357T\261\021\356\304?\000\000\000\000\000\000\000\000\363\017\001\256>\270\301?\000\000\000\000\000\000\000\000,\343x_\376\320\275?\000\000\000\000\000\000\000\000\366\320OOx\362\270?\000\000\000\000\000\000\000\000\230\353yU@\305\264?\233\032\303\370\t\276\355?*\3559\337C\257\256?i\004\235\330\017(\325?F\320\002TZ\215\213?\\\034\354\236\316\203\301?\262~\261\216\223\363}?\370\204\351\361\3465\255?\2013\215\205\347<\211?\033:\t\342\3334\230?\037\340\032Z-\023\206?\206\321\252\250Ni\204?\013s\246\220*\004\177?\275\nvp\250|r?\325\374\360\204\311?s?\213\375\231\017M\016c?\203\211_:\362\371e?\310\304\301\010\351{V?JC\261\226\235\265W?\203\027x5\317\270L?\304\020\251\320\220\332H?\322)-\020]\236B?\250\0069K\2715:?2\335\336t\241\2127?\304-\334\0139\341,?\331>\r\213\365\220,?\367\032j\207\326p\356?\000\000\000\000\000\000\000\000\000\000\000\000\000\000\000\000-\211\2153\362\273\323?\000\000\000\000\000\000\000\000\000\000\000\000\000\000\000\000\000\000\000\000\000\000\000\000\000\000\000\000\000\000\000\000\000\000\000\000\000\000\000\000\000\000\000\000\000\000\000\000\000\000\000\000\000\000\000\000\000\000\000\000\000\000\000\000\000\000\000\000\000\000\000\000\000\000\000\000\000\000\000\000\000\000\000\000\000\000\000\000\000\000\000\000\000\000\000\000\000\000\000\000\000\000\000\000\000\000\000\000\000\000\000\000\000\000\000\000\000\000\000\000\000\000\000\000\000\000\000\000\000\000\000\000\000\000\000\000\000\000\000\000\000\000\000\000\000\000\000\000\000\000\000\000\000\000\000\000\000\000\000\000\000\000\000\000\000\000\000\000\000\000\000\000\000\000\000\000\000\000\000\000\000\000\000\000\000\000\000\000\000\000\000\000\000\000\000\000\000\000\000\000\000\000\000\000\000\000\360?\000\000\000\000\000\000\000\000\000\000\000\000\000\000\000\000\000\000\000\000\000\000\000\000\000\000\000\000\000\000\000\000\000\000\000\000\000\000\000\000\000\000\000\000\000\000\000\000\000\000\000\000\000\000\000\000\000\000\000\000\000\000\000\000\000\000\000\000\000\000\000\000\000\000\000\000\000\000\000\000\000\000\000\000\000\000\000\000\000\000\000\000\000\000\000\000\000\000\000\000\000\000\000\000\000\000\000\000\000\000\000\000\000\000\000\000\000\000\000\000\000\000\000\000\000\000\000\000\000\000\000\000\000\000\000\000\000\000\000\000\000\000\000\000\000\000\000\000\000\000\000\000\000\000\000\000\000\000\000\000X(\240BW\340\357?\306\016X-7l\254?\031\201\261\210\222h\261?\000\263\225}w\354a?n:\001\347\352\014_?\"\257\2423n\303\010?q\362OPz\203\001?\201\006\273\263\373\233\247>\0260\000\204\262\353\234>\311\320\314\204\0101A>\321Q\343\340\371\3252>k\300S\260qA\324=\241x6\217eB\304=\000\000\000\000\000\000\000\000\000\000\000\000\000\000\000\000\000\000\000\000\000\000\000\000\000\000\000\000\000\000\000\000\000\000\000\000\000\000\000\000\000\000\000\000\000\000\000\000\000\000\000\000\000\000\000\000\000\000\000\000\000\000\000\000\000\000\000\000\000\000\000\000\000\000\000\000\000\000\000\000\000\000\000\000\000\000\000\000\000\000\000\000\000\000\000\000r\000c\007\367\377\357?\000\000\000\000\000\000\000\000\000\000\000\000\000\000\000\000N\235\372\237\"\366g?\000\000\000\000\000\000\000\000\000\000\000\000\000\000\000\000\036-\341QP\014\300>\000\000\000\000\000\000\000\000\000\000\000\000\000\000\000\000\307\210`\211n\372\004>\000\000\000\000\000\000\000\000\000\000\000\000\000\000\000\000\000\000\000\000\000\000\000\000\000\000\000\000\000\000\000\000\000\000\000\000\000\000\000\000\000\000\000\000\000\000\000\000\000\000\000\000\000\000\000\000\000\000\000\000\000\000\000\000\000\000\000\000\000\000\000\000\000\000\000\000\000\000\000\000\000\000\000\000\000\000\000\000\000\000\000\000\000\000\000\000\000\000\000\000\000\000\000\000\000\000\000\000\000\000\000\000\000\000\000\000\000\000\000\000D3q\234\250\'\357?\000\000\000\000\000\000\000\000j:\342\325J\034\312?\000\000\000\000\000\000\000\000i\203\340\305y\352\270?\000\000\000\000\000\000\000\000\326\361\211\351\317\253\237?\000\000\000\000\000\000\000\000\277\300O\270\016\223\201?\000\000\000\000\000\000\000\000\326M\354\236\372<c?\000\000\000\000\000\000\000\000X\000\222 \030*G?\000\000\000\000\000\000\000\000j\217\t\230*?/?\000\000\000\000\000\000\000\000Kx\227\250&\363\025?\000\000\000\000\000\000\000\000\032Q\003\200\353k\376>\000\000\000\000\000\000\000\000\177Z\223rix\344>\000\000\000\000\000\000\000\000\355\346F\367q\310\312>\000\000\000\000\000\000\000\000\345\353\r\3038%\261>,\260h}q\307\330?\304ER\274_:\336>H\327\332=\036R\321?\203\366[\316\245\370\014?\010O\374\003v\257\315? 8\355\203\037\3667?B\366M\215)\303\312?\037\225I\251\373\310M?\336\240Z\323\375\251\310?\247\320\200zi\001E?\372\326\257\372_z\307?H\245\204@@\017\\?5K\342\206\267\351\305?\233\351mC8\377k?\327B\226\233\034\214\304?\240Vc\036\000\352\016?\216\371\256]\247\027\304?\307CBT\231\264p?_e%\335\244\336\304?\334\214P\030A\234f?P\270h\177\273?\300?\030\266$\201\345Z\202?\350\031I\014\217S\302?D\302GPo\277\235?r\227\006\021*\331\302?\037\311\247\366\n\260\357?\000\000\000\000\000\000\000\000\000\000\000\000\000\000\000\000\000\000\000\000\000\000\000\000\000\000\000\000\000\000\000\000\000\000\000\000\000\000\000\000\000\000\000\000\000\000\000\000`z\311g\016\327\301?\000\000\000\000\000\000\000\000\000\000\000\000\000\000\000\000\000\000\000\000\000\000\000\000\000\000\000\000\000\000\000\000\000\000\000\000\000\000\000\000\000\000\000\000\000\000\000\000\000\000\000\000\000\000\000\000\000\000\000\000\000\000\000\000\000\000\000\000\000\000\000\000\000\000\000\000\000\000\000\000\000\000\000\000\000\000\000\000\000\000\000\000\000\000\000\000\000\000\000\000\000\000\000\000\000\000\000\000\000\000\000\000\000\000\000\000\000\000\000\000\000\000\000\000\000\000\000\000\000\000\000\000\000\000\000\000\000\000\000\000\000\000\000\000\000\000\000\000\000\000\000\000\000\000\000\000\000\000\000\000\000\000\000\000\000\000\000\000\000\000\000\000\000\000\000\000\000\000\000\000\000\000\000\000\000\000\000\000\000\000\000\000\000\000\000\000\000\000\000\000\000\000\000\000\000\000\000\000\000\000\000\000\000\000\000\000\000\000\000\000\000\000\000\000\000\000\000\000\000\000\000\000\000\000\000\000\000\000\000\000\000\000\000\000\000\000\000\000\000\000\000\000\000\000\000\000\000\000\000\000\000\000\000\000\000\000\000\000\000\000\000\000\000\000\000\000\000\000\360?\000\000\000\000\000\000\000\000\000\000\000\000\000\000\000\000\000\000\000\000\000\000\000\000\000\000\000\000\000\000\000\000\000\000\000\000\000\000\000\000\000\000\000\000\000\000\000\000\000\000\000\000\000\000\000\000\037c\232U\260\374\357?\002AZ\244\000\272\234?\177\276\207\216\241\340r?\010.\017Kp\223\023?n\226\344:U1\342>,N\305\211\021:}>\335\022\276*k-F>\2464\265r\206\034\336=\372\211Pi\232\311\243=\000\000\000\000\000\000\000\000\000\000\000\000\000\000\000\000\000\000\000\000\000\000\000\000\000\000\000\000\000\000\000\000\000\000\000\000\000\000\000\000\000\000\000\000\000\000\000\000\000\000\000\000\000\000\000\000\000\000\000\000\000\000\000\000\000\000\000\000\000\000\000\000\000\000\000\000\000\000\000\000\000\000\000\000\000\000\000\000\000\000\000\000\000\000\000\000\000\000\000\000\000\000\000\000\000\000\000\000\000\000\000\000\000\000\000\000\000\000\000\000\000\000\000\000\000\000\000\000*\210\'K\227\362\357?\000\000\000\000\000\000\000\000\000\000\000\000\000\000\000\000\2351\202\026\277G\255?\000\000\000\000\000\000\000\000\000\000\000\000\000\000\000\000\323[.=\243\000H?\000\000\000\000\000\000\000\000\000\000\000\000\000\000\000\000\214\302\332b\2543\323>\000\000\000\000\000\000\000\000\000\000\000\000\000\000\000\0008\361[z\350\373R>\000\000\000\000\000\000\000\000\000\000\000\000\000\000\000\000.I:\353\010\032\312=\000\000\000\000\000\000\000\000\000\000\000\000\000\000\000\000\000\000\000\000\000\000\000\000\000\000\000\000\000\000\000\000\000\000\000\000\000\000\000\000\000\000\000\000\000\000\000\000\000\000\000\000\000\000\000\000\000\000\000\000\000\000\000\000\000\000\000\000\000\000\000\000k\360\343\315\373\376\355?\000\000\000\000\000\000\000\000\035\274\367\363$\264\323?\000\000\000\000\000\000\000\000\031\n\263\226\013\322\301?\000\000\000\000\000\000\000\000\267\203H\230\214C\262?\000\000\000\000\000\000\000\000\263.!l;\230\243?\000\000\000\000\000\000\000\000\331WAk\3629\225?\000\000\000\000\000\000\000\000<\305\247\224\t\352\206?\000\000\000\000\000\000\000\000\200\257]tA\217x?\000\000\000\000\000\000\000\000\004)\203o\200 j?\000\000\000\000\000\000\000\000\205\332<\214\276\233[?\000\000\000\000\000\000\000\000\007\247P\300\007\002M?\000\000\000\000\000\000\000\000\3507R\300\251U>?\000\000\000\000\000\000\000\000\024\350\214\275X\231/?\203uZ\2639\356\353?\214\3735\325\025\252l?\316Y\226\300`\226\331?\3414zt\n\000]?\373\317\025s\332\264\314?\207\251\356\300\326\036B?\017\203\300\r\003\371\300?\346T\346\323\350& ?\224e\234%\230\220\264?\363!\000\020p\205<?\331\265\007F\024E\251?hR\261\232\324}A?\341\330\326\031OV\237?\270\375\253\004\222\rA?\256\322\217qx\216\223?\"\206\013dg\353=?rews\347\206\210?\325\225\026\000\010\2578?\233\005)\2328\340~?B\332X\237\343\2163?\231\232\204\264\022~s?\"\037<\2109\036.?5\323\250\341=\254h?\336#\367\311\253\262&?V\333i\365\214K_?\252K\203\016^a\354?\000\000\000\000\000\000\000\000\000\000\000\000\000\000\000\000\000\000\000\000\000\000\000\000\000\000\000\000\000\000\000\000\000\000\000\000\000\000\000\000\000\000\000\000\000\000\000\000\000\000\000\000\000\000\000\000\000\000\000\000\000\000\000\000\371%-/:\221\335?\000\000\000\000\000\000\000\000\000\000\000\000\000\000\000\000\000\000\000\000\000\000\000\000\000\000\000\000\000\000\000\000\000\000\000\000\000\000\000\000\000\000\000\000\000\000\000\000\000\000\000\000\000\000\000\000\000\000\000\000\000\000\000\000\000\000\000\000\000\000\000\000\000\000\000\000\000\000\000\000\000\000\000\000\000\000\000\000\000\000\000\000\000\000\000\000\000\000\000\000\000\000\000\000\000\000\000\000\000\000\000\000\000\000\000\000\000\000\000\000\000\000\000\000\000\000\000\000\000\000\000\000\000\000\000\000\000\000\000\000\000\000\000\000\000\000\000\000\000\000\000\000\000\000\000\000\000\000\000\000\000\000\000\000\000\000\360?\000\000\000\000\000\000\000\000\000\000\000\000\000\000\000\000\000\000\000\000\000\000\000\000\000\000\000\000\000\000\000\000\000\000\000\000\000\000\000\000\000\000\000\000\000\000\000\000\000\000\000\000\000\000\000\000\000\000\000\000\000\000\000\000\000\000\000\000\000\000\000\000\000\000\000\000\000\000\000\000\000\000\000\000\000\000\000\000\000\000\000\000\000\000\000\000\000\000\000\000\000\000\000\000\000\000\000\000\000\000\000\000\000\000\000\000\000\000\000\000\000\000\000\000\000\000\000\000\000\000\000\000\000\000\000\000\000\000\000\000\000\000\000\000\000\000\000\000\000\000\000\000\221\272\'\241r\236\355?\005\362\356\205J\252\314?\035\335\264\265$-\323?\320\226\312~\017n\245?]\201*.:F\244?\365\n\361>\314\214q?VW\257^\024\035k?D\026#m\002\3263?\241-\024\003#\212*?=\310\251p\223\037\361>\253\371\261\304\324}\344>\014\203\002 \375\352\247>\364\311\374\316\365 \232>u|\364\033\311\r\\>\342\244\355O\243_L>\220\030p\240J\\\014>\327\005\206\236\310\324\372==\354\266P 