node {
  name: "global_step/Initializer/zeros"
  op: "Const"
  attr {
    key: "_class"
    value {
      list {
        s: "loc:@global_step"
      }
    }
  }
  attr {
    key: "_output_shapes"
    value {
      list {
        shape {
        }
      }
    }
  }
  attr {
    key: "dtype"
    value {
      type: DT_INT64
    }
  }
  attr {
    key: "value"
    value {
      tensor {
        dtype: DT_INT64
        tensor_shape {
        }
        int64_val: 0
      }
    }
  }
}
node {
  name: "global_step"
  op: "VariableV2"
  attr {
    key: "_class"
    value {
      list {
        s: "loc:@global_step"
      }
    }
  }
  attr {
    key: "_output_shapes"
    value {
      list {
        shape {
        }
      }
    }
  }
  attr {
    key: "container"
    value {
      s: ""
    }
  }
  attr {
    key: "dtype"
    value {
      type: DT_INT64
    }
  }
  attr {
    key: "shape"
    value {
      shape {
      }
    }
  }
  attr {
    key: "shared_name"
    value {
      s: ""
    }
  }
}
node {
  name: "global_step/Assign"
  op: "Assign"
  input: "global_step"
  input: "global_step/Initializer/zeros"
  attr {
    key: "T"
    value {
      type: DT_INT64
    }
  }
  attr {
    key: "_class"
    value {
      list {
        s: "loc:@global_step"
      }
    }
  }
  attr {
    key: "_output_shapes"
    value {
      list {
        shape {
        }
      }
    }
  }
  attr {
    key: "use_locking"
    value {
      b: true
    }
  }
  attr {
    key: "validate_shape"
    value {
      b: true
    }
  }
}
node {
  name: "global_step/read"
  op: "Identity"
  input: "global_step"
  attr {
    key: "T"
    value {
      type: DT_INT64
    }
  }
  attr {
    key: "_class"
    value {
      list {
        s: "loc:@global_step"
      }
    }
  }
  attr {
    key: "_output_shapes"
    value {
      list {
        shape {
        }
      }
    }
  }
}
node {
  name: "global_step/IsVariableInitialized"
  op: "IsVariableInitialized"
  input: "global_step"
  attr {
    key: "_class"
    value {
      list {
        s: "loc:@global_step"
      }
    }
  }
  attr {
    key: "_output_shapes"
    value {
      list {
        shape {
        }
      }
    }
  }
  attr {
    key: "dtype"
    value {
      type: DT_INT64
    }
  }
}
node {
  name: "global_step/cond/Switch"
  op: "Switch"
  input: "global_step/IsVariableInitialized"
  input: "global_step/IsVariableInitialized"
  attr {
    key: "T"
    value {
      type: DT_BOOL
    }
  }
  attr {
    key: "_output_shapes"
    value {
      list {
        shape {
        }
        shape {
        }
      }
    }
  }
}
node {
  name: "global_step/cond/switch_t"
  op: "Identity"
  input: "global_step/cond/Switch:1"
  attr {
    key: "T"
    value {
      type: DT_BOOL
    }
  }
  attr {
    key: "_output_shapes"
    value {
      list {
        shape {
        }
      }
    }
  }
}
node {
  name: "global_step/cond/switch_f"
  op: "Identity"
  input: "global_step/cond/Switch"
  attr {
    key: "T"
    value {
      type: DT_BOOL
    }
  }
  attr {
    key: "_output_shapes"
    value {
      list {
        shape {
        }
      }
    }
  }
}
node {
  name: "global_step/cond/pred_id"
  op: "Identity"
  input: "global_step/IsVariableInitialized"
  attr {
    key: "T"
    value {
      type: DT_BOOL
    }
  }
  attr {
    key: "_output_shapes"
    value {
      list {
        shape {
        }
      }
    }
  }
}
node {
  name: "global_step/cond/read"
  op: "Identity"
  input: "global_step/cond/read/Switch:1"
  attr {
    key: "T"
    value {
      type: DT_INT64
    }
  }
  attr {
    key: "_output_shapes"
    value {
      list {
        shape {
        }
      }
    }
  }
}
node {
  name: "global_step/cond/read/Switch"
  op: "RefSwitch"
  input: "global_step"
  input: "global_step/cond/pred_id"
  attr {
    key: "T"
    value {
      type: DT_INT64
    }
  }
  attr {
    key: "_class"
    value {
      list {
        s: "loc:@global_step"
      }
    }
  }
  attr {
    key: "_output_shapes"
    value {
      list {
        shape {
        }
        shape {
        }
      }
    }
  }
}
node {
  name: "global_step/cond/Switch_1"
  op: "Switch"
  input: "global_step/Initializer/zeros"
  input: "global_step/cond/pred_id"
  attr {
    key: "T"
    value {
      type: DT_INT64
    }
  }
  attr {
    key: "_class"
    value {
      list {
        s: "loc:@global_step"
      }
    }
  }
  attr {
    key: "_output_shapes"
    value {
      list {
        shape {
        }
        shape {
        }
      }
    }
  }
}
node {
  name: "global_step/cond/Merge"
  op: "Merge"
  input: "global_step/cond/Switch_1"
  input: "global_step/cond/read"
  attr {
    key: "N"
    value {
      i: 2
    }
  }
  attr {
    key: "T"
    value {
      type: DT_INT64
    }
  }
  attr {
    key: "_output_shapes"
    value {
      list {
        shape {
        }
        shape {
        }
      }
    }
  }
}
node {
  name: "global_step/add/y"
  op: "Const"
  attr {
    key: "_output_shapes"
    value {
      list {
        shape {
        }
      }
    }
  }
  attr {
    key: "dtype"
    value {
      type: DT_INT64
    }
  }
  attr {
    key: "value"
    value {
      tensor {
        dtype: DT_INT64
        tensor_shape {
        }
        int64_val: 0
      }
    }
  }
}
node {
  name: "global_step/add"
  op: "Add"
  input: "global_step/cond/Merge"
  input: "global_step/add/y"
  attr {
    key: "T"
    value {
      type: DT_INT64
    }
  }
  attr {
    key: "_output_shapes"
    value {
      list {
        shape {
        }
      }
    }
  }
}
node {
  name: "dnn/input_from_feature_columns/input_layer/coefficients/Const"
  op: "Const"
  attr {
    key: "_output_shapes"
    value {
      list {
        shape {
          dim {
            size: 5000
          }
          dim {
            size: 25
          }
        }
      }
    }
  }
  attr {
    key: "dtype"
    value {
      type: DT_DOUBLE
    }
  }
  attr {
    key: "value"
    value {
      tensor {
        dtype: DT_DOUBLE
        tensor_shape {
          dim {
            size: 5000
          }
          dim {
            size: 25
          }
        }
        tensor_content: "\000\000\000\000\000\000\000\000\000\000\000\000\000\000\360?\000\000\000\000\000\000\000\000\000\000\000\000\000\000\000\000\000\000\000\000\000\000\000\000\000\000\000\000\000\000\000\000\000\000\000\000\000\000\000\000\000\000\000\000\000\000\000\000\000\000\000\000\000\000\000\000\000\000\000\000\000\000\000\000\000\000\000\000\000\000\000\000\000\000\000\000\000\000\000\000\000\000\000\000\000\000\000\000\000\000\000\000\000\000\000\000\000\000\000\000\000\000\000\000\000\000\000\000\000\000\000\000\000\000\000\000\000\000\000\000\000\000\000\000\000\000\000\000\000\000\000\000\000\000\000\000\000\000\000\000\000\000\000\000\000\000\000\000\000\000\000\000\000\000\000\000\000\000\000\000\000\000\000\000\000\000\000\000\000\000\000\000\000\000\000\000\000\000\000\000\000\000\000\000w7\262O\000\374\357?\000\000\000\000\000\000\000\000\034\307\002~\302\367\237?\000\000\000\000\000\000\000\000MAO\261\351\220S?\000\000\000\000\000\000\000\000\0343H\005!?\t?\000\000\000\000\000\000\000\000\327\355EW\276\260\300>\000\000\000\000\000\000\000\000u\347\221y\204av>\000\000\000\000\000\000\000\000c\036\240\342\310I.>\000\000\000\000\000\000\000\000q\205\024\257\223\240\344=\000\000\000\000\000\000\000\000\247\327\260j\373:\234=\000\000\000\000\000\000\000\000\000\000\000\000\000\000\000\000\000\000\000\000\000\000\000\000\000\000\000\000\000\000\000\000\000\000\000\000\000\000\000\000\000\000\000\000\000\000\000\000\000\000\000\000\000\000\000\000\000\000\000\000\000\000\000\000\211\323\177\377\232)\357?\252Q\014AK\027\315?e1\343z\206\324`?\327\246\360\351V$2?a\276\261\031\277\257\275>\317!\357\256\217\311\210>~\313\344Z\017\217\020>\230^\375\321\323^\327=\000\000\000\000\000\000\000\000\000\000\000\000\000\000\000\000\000\000\000\000\000\000\000\000\000\000\000\000\000\000\000\000\000\000\000\000\000\000\000\000\000\000\000\000\000\000\000\000\000\000\000\000\000\000\000\000\000\000\000\000\000\000\000\000\000\000\000\000\000\000\000\000\000\000\000\000\000\000\000\000\000\000\000\000\000\000\000\000\000\000\000\000\000\000\000\000\000\000\000\000\000\000\000\000\000\000\000\000\000\000\000\000\000\000\000\000\000\000\000\000\000\000\000\000\000\000\000\000\000\000\000\000\000\000\000\000\350\222\330\230+\365\357?\000\000\000\000\000\000\000\000\000\000\000\000\000\000\000\000\234\340\340\016\375P\252?\000\000\000\000\000\000\000\000\000\000\000\000\000\000\000\000A\356\304\350\014bC?\000\000\000\000\000\000\000\000\000\000\000\000\000\000\000\000\2464\351\254R\335\313>\000\000\000\000\000\000\000\000\000\000\000\000\000\000\000\000\025O\346v\205\300H>\000\000\000\000\000\000\000\000\000\000\000\000\000\000\000\000\265\366\370\270\347\223\276=\000\000\000\000\000\000\000\000\000\000\000\000\000\000\000\000\000\000\000\000\000\000\000\000\000\000\000\000\000\000\000\000\000\000\000\000\000\000\000\000\000\000\000\000\000\000\000\000\000\000\000\000\000\000\000\000\000\000\000\000\000\000\000\000\000\000\000\000\000\000\000\000\000\000\000\000\000\000\000\000\000\000\000\000\000\000\000\000\000\000\000\000\000\000\000\000\000\000\000\000\000\000\000\000\000\000\000\000\000\000\000\000\000\000\000\000\000\000\000\000\000\000\000\000\000\000\000\000\000\000\000\000\000\000\000\000\000\000\000\000\000\000\000\000\000\000\000\000\000\000\000\000\000\000\000\000\000\000\000\000\000\000\000\000\000\000\000\000\000\000\000\000\000\000\000\000\000\000\000\000\000\000\000\000\000\000\000\000\000\000\000\000\000\000\000\000\000\000\000\000\000\000\000\000\000\000\000\000\000\000\000\000\000\000\000\000\000\000\000\000\000\000\000\000\000\000\000\000\000\000\000\000\000\000\000\000\000\000\000\000\000\000\000\000\000\000\360?\000\000\000\000\000\000\000\000\000\000\000\000\000\000\000\000\000\000\000\000\000\000\000\000e\255\310G\033\362\357?\000\000\000\000\000\000\000\000\246\277\3545\017\273\255?\000\000\000\000\000\000\000\000\320\222h\311\242\361p?\000\000\000\000\000\000\000\000\246\202h\272\225[4?\000\000\000\000\000\000\000\000y\020\r\250?\020\371>\000\000\000\000\000\000\000\000is\213\336lK\277>\000\000\000\000\000\000\000\000f{\240,\261\267\203>\000\000\000\000\000\000\000\000\301\\8\205\342\001I>\000\000\000\000\000\000\000\000s\302\324lR\336\017>\000\000\000\000\000\000\000\000\265_\226\036\214a\324=\000\000\000\000\000\000\000\000\277\037&\024:%\232=\000\000\000\000\000\000\000\000\000\000\000\000\000\000\000\000\000\000\000\000\000\000\000\000\000\000\000\000\000\000\000\000\360\002}\363\242Z\357?\203\226w\220\234S\306?\335\265\327\361M\332\270?\3470\236\372Vo\204?\316B\244\374\246\025p?!]\222\227\031}4?\202W\223\342\310U\032?wi\221n\367Y\334>\316,VO+\217\277>\272|\362+\261\366}>\321\222G<&\325]>\034\036cw\313\236\031>\377\006\221\304&I\367=\247qRo4e\262=m\254Xm\345\n\215=\000\000\000\000\000\000\000\000\000\000\000\000\000\000\000\000\000\000\000\000\000\000\000\000\000\000\000\000\000\000\000\000\000\000\000\000\000\000\000\000\000\000\000\000\000\000\000\000\000\000\000\000\000\000\000\000\000\000\000\000\000\000\000\000\000\000\000\000\000\000\000\000\000\000\000\000\000\000\000\000\274\022\r\344\363\274\357?\000\000\000\000\000\000\000\000\000\000\000\000\000\000\000\000\357\010\264\306\017V\300?\000\000\000\000\000\000\000\000\000\000\000\000\000\000\000\000\031d\245&Q\025n?\000\000\000\000\000\000\000\000\000\000\000\000\000\000\000\000u=\301\006$\010\013?\000\000\000\000\000\000\000\000\000\000\000\000\000\000\000\000\351\356 #\242\004\236>\000\000\000\000\000\000\000\000\000\000\000\000\000\000\000\000\002\314a0\333-\'>\000\000\000\000\000\000\000\000\000\000\000\000\000\000\000\000P\327\324\025\200\261\252=\000\000\000\000\000\000\000\000\000\000\000\000\000\000\000\000\000\000\000\000\000\000\000\000\000\000\000\000\000\000\000\000\000\000\000\000\000\000\000\000\000\000\000\000\000\000\000\000\000\000\000\000\000\000\000\000\000\000\000\000\000\000\000\000\000\000\000\000\000\000\000\000\000\000\000\000\000\000\000\000\000\000\000\000\000\000\000\000\000\000\000\000\000\000\000\000\000\000\000\000\000\000\000\000\000\000\000\000\000\000\000\000\000\000\000\000\000\000\000\000\000\000\000\000\000\000\000\000\000\000\000\000\000\000\000\000\000\000\000\000\000\000\000\000\000\000\000\000\000\000\000\000\000\000\000\000\000\000\000\000\000\000\000\000\000\000\000\000\000\000\000\000\000\000\000\000\000\000\000\000\000\000\000\000\000\000\000\000\000\000\000\000\000\000\000\000\000\000\000\000\000\000\000\000\000\000\360?\000\000\000\000\000\000\000\000\000\000\000\000\000\000\000\000\000\000\000\000\000\000\000\000\000\000\000\000\000\000\000\000\000\000\000\000\000\000\000\000BZPy%,\353?\000\000\000\000\000\000\000\000O\270_\231Z\240\332?\000\000\000\000\000\000\000\000\250\200Bi\206\364\317?\000\000\000\000\000\000\000\000\206C Hc6\304?\000\000\000\000\000\000\000\000lf\024\352\2023\272?\000\000\000\000\000\000\000\000\307\1771\223\0349\261?\000\000\000\000\000\000\000\000\231\253\276\315\375\331\246?\000\000\000\000\000\000\000\000S\246e\266\373\203\236?\000\000\000\000\000\000\000\000\200_\370\266\003y\224?\000\000\000\000\000\000\000\000\231\251\306\227T\222\213?\000\000\000\000\000\000\000\000\313E\342\241\333\236\202?\000\000\000\000\000\000\000\0006\006\n\344\3775y?\000\000\000\000\000\000\000\000\265\274f\034\314\031q?\271\225\345B\031\375\357?h\241\233\234\234\365\223?\021\321$X=\215\222?\247\304\375\312s\273*?T\230\335\364\302\221!?\223\226\302\2629\234\263>\240\260Z\274\003\014\245>\242\205\252a\252\3323>\245\321g\2421t\">\234X/\021w\264\256=\254\005\303\261\301\206\231=\000\000\000\000\000\000\000\000\000\000\000\000\000\000\000\000\000\000\000\000\000\000\000\000\000\000\000\000\000\000\000\000\000\000\000\000\000\000\000\000\000\000\000\000\000\000\000\000\000\000\000\000\000\000\000\000\000\000\000\000\000\000\000\000\000\000\000\000\000\000\000\000\000\000\000\000\000\000\000\000\000\000\000\000\000\000\000\000\000\000\000\000\000\000\000\000\000\000\000\000\000\000\000\000\000\000\000\000\000\000\000\000s|\357\377\377\377\357?\000\000\000\000\000\000\000\000\000\000\000\000\000\000\000\000\246\360\274-AA\360>\000\000\000\000\000\000\000\000\000\000\000\000\000\000\000\000\2328+\035x\212\315=\000\000\000\000\000\000\000\000\000\000\000\000\000\000\000\000\000\000\000\000\000\000\000\000\000\000\000\000\000\000\000\000\000\000\000\000\000\000\000\000\000\000\000\000\000\000\000\000\000\000\000\000\000\000\000\000\000\000\000\000\000\000\000\000\000\000\000\000\000\000\000\000\000\000\000\000\000\000\000\000\000\000\000\000\000\000\000\000\000\000\000\000\000\000\000\000\000\000\000\000\000\000\000\000\000\000\000\000\000\000\000\000\000\000\000\000\000\000\000\000\000\000\000\000\000\000\000\000\000\000\000\000\000\000\000\000\000\000\000\000\000\000\000\000\000\000\000\000\000\000\000\000\000\000\000\000\000\000\000\000\000\000\000\000\000\000\000\000\000\000\000\000\000\000\000\000\000\000\000\000\000\000\000\000\000\000\000\000\000\000\000\000\000\000\000\000\000\000\000\000\000\000\000\000\000\000\000\000\000\000\000\000\000\000\000\000\000\000\000\000\000\000\000\000\000\000\000\000\000\000\000\000\000\000\000\000\000\000\000\000\000\000\000\000\000\000\000\000\000\000\000\000\000\000\000\000\000\000\000\000\000\000\000\000\000\000\000\000\000\000\000\000\000\000\000\000\000\000\000\000\000\000\000\000\000\000\000\000\000\000\000\000\000\000\000\000\000\000\000\000\000\000\000\000\000\000\000\000\000\000\000\000\000\000\000\000\000\000\000\000\000\000\000\000\000\000\000\000\000\000\000\000\000\000\000\000\000\000\000\000\000\000\360?\254&\252\220Q\375\357?\000\000\000\000\000\000\000\000\2427\267yU/\232?\000\000\000\000\000\000\000\000/\314\352\304(@J?\000\000\000\000\000\000\000\000K\001\212(s\275\373>\000\000\000\000\000\000\000\000\373\365\201\377\261\t\256>\000\000\000\000\000\000\000\000G\326\237(d~`>\000\000\000\000\000\000\000\000\221\200\006\364\276G\022>\000\000\000\000\000\000\000\000\216\313^\3415d\304=\000\000\000\000\000\000\000\000\000\000\000\000\000\000\000\000\000\000\000\000\000\000\000\000\000\000\000\000\000\000\000\000\000\000\000\000\000\000\000\000\000\000\000\000\000\000\000\000\000\000\000\000\000\000\000\000\000\000\000\000\000\000\000\000\000\000\000\000\000\000\000\000\000\000\000\000\000\000\000\000\347\246k;\351\355\341?\303\\=\352\357\\\351?\023\237K\224\276\252\307?\217\342\367MUT\303?\212\275\241l\010\202\231?\224\233\210x\035#\220?\265\305\243\3155ca?Lu\023I\341\227R?\233;\214Z\224Y!?\265\016\243\267\274\\\020?\372\177\272;\370O\333>\273Wm3rL\307>\352?F\356I\300\221>fx\3218\253\333{>\226N\0021\207\246C>\244r\235\247\236\265,>7\210v\324o\361\362=c\346\263\236=\377\331=\255\315\306\214\322\034\240=\327\331\330\366\031\236r=\000\000\000\000\000\000\000\000\000\000\000\000\000\000\000\000\000\000\000\000\000\000\000\000\000\000\000\000\000\000\000\000\000\000\000\000\000\000\000\000\374\274\360\247\246\377\357?\000\000\000\000\000\000\000\000\000\000\000\000\000\000\000\000\222>\2117v\347\202?\000\000\000\000\000\000\000\000\000\000\000\000\000\000\000\000\355\247\377fo\372\363>\000\000\000\000\000\000\000\000\000\000\000\000\000\000\000\000[\366\331x\305\232T>\000\000\000\000\000\000\000\000\000\000\000\000\000\000\000\000\213=\211\374\022C\252=\000\000\000\000\000\000\000\000\000\000\000\000\000\000\000\000\000\000\000\000\000\000\000\000\000\000\000\000\000\000\000\000\000\000\000\000\000\000\000\000\000\000\000\000\000\000\000\000\000\000\000\000\000\000\000\000\000\000\000\000\000\000\000\000\000\000\000\000\000\000\000\000\000\000\000\000\000\000\000\000\000\000\000\000\000\000\000\000\000\000\000\000\000\000\000\000\000\000\000\000\000\000\000\000\000\000\000\000\000\000\000\000\000\000\000\000\000\000\000\000\000\000\000\000\000\000\000\000\000\000\000\000\000\000\000\000\000\000\000\000\000\000\000\000\000\000\000\000\000\000\000\000\000\000\000\000\000\000\000\000\000\000\000\000\000\000\000\000\000\000\000\000\000\000\000\000\000\000\000\000\000\000\360?\000\000\000\000\000\000\000\000\000\000\000\000\000\000\000\000\000\000\000\000\000\000\000\000\000\000\000\000\000\000\000\000\000\000\000\000\000\000\000\000\000\000\000\000\000\000\000\000\000\000\000\000\000\000\000\000\000\000\000\000\000\000\000\000\000\000\000\000\000\000\000\000\000\000\000\000\000\000\000\000\000\000\000\000\000\000\000\000\000\000\000\000\000\000\000\000\000\000\000\000\000\000\000\000\000\000\000\000\000\000\000\000id\356 {)\356?\000\000\000\000\000\000\000\000\014]\310\274i\224\323?\000\000\000\000\000\000\000\000\2636-\3340\"\277?\000\000\000\000\000\000\000\0009g\304\326m\027\252?\000\000\000\000\000\000\000\000\013\324\314\255\360g\226?\000\000\000\000\000\000\000\000%\017\267\374\227\203\203?\000\000\000\000\000\000\000\000\300\316\240\302\347&q?\000\000\000\000\000\000\000\000\262&YY\310X^?\000\000\000\000\000\000\000\000\251\373\2047\223\371J?\000\000\000\000\000\000\000\000\356e#\023\371\0208?\000\000\000\000\000\000\000\000\344G\376(\315\210%?\000\000\000\000\000\000\000\000\252\007\314\274\233P\023?\000\000\000\000\000\000\000\0002\260\214\304\304[\001?XU\242\\\343a\344?!\300!\354\233Q\345?\267%\262\253\251\327\324?.\261\377}%,\311?H\234\256.\342f\261?\026\263c\352\240G\240?\r\203d\217\325`\202?o*\210<\324\017m?DL\021l\227iL?\\\204\207T\326\3173?\376jw\335\006S\021?\351\033o\266\224\332\365>\337{\350v\343q\321>Z\027]\260\023>\264>\267\026\366\231\201\353\215>\215Z\037\301\021)p>o\017\003P\370WF>\330\265\327\237 \254&>\321\202\021\375\352\215\375=P)\344\336\357]\334=\n\203Jq:\212\261=K\000WL\001\373\217=\000\000\000\000\000\000\000\000\000\000\000\000\000\000\000\000\000\000\000\000\000\000\000\000:6\335\367\377\377\357?\000\000\000\000\000\000\000\000\000\000\000\000\000\000\000\000\246{$\007\234\321&?\000\000\000\000\000\000\000\000\000\000\000\000\000\000\000\000gc\262\016\234\033=>\000\000\000\000\000\000\000\000\000\000\000\000\000\000\000\000\000\000\000\000\000\000\000\000\000\000\000\000\000\000\000\000\000\000\000\000\000\000\000\000\000\000\000\000\000\000\000\000\000\000\000\000\000\000\000\000\000\000\000\000\000\000\000\000\000\000\000\000\000\000\000\000\000\000\000\000\000\000\000\000\000\000\000\000\000\000\000\000\000\000\000\000\000\000\000\000\000\000\000\000\000\000\000\000\000\000\000\000\000\000\000\000\000\000\000\000\000\000\000\000\000\000\000\000\000\000\000\000\000\000\000\000\000\000\000\000\000\000\000\000\000\000\000\000\000\000\000\000\000\000\000\000\000\000\000\000\000\000\000\000\000\000\000\000\000\000\000\000\000\000\000\000\000\000\000\000\000\000\000\000\000\000\000\000\000\000\000\000\000\000\000\000\000\000\000\000\000\000\000\000\000\000\000\000\000\000\000\000\000\000\000\000\000\000\000\000\000\000\000\000\000\000\000\000\000\000\000\000\000\000\000\000\000\000\000\000\000\000\000\000\000\000\000\000\000\000\000\000\000\000\000\000\000\000\000\000\000\000\000\000\000\000\000\000\000\000\000\000\000\000\000\000\000\000\000\000\000\000\000\000\000\000\000\000\000\000\360?\000\000\000\000\000\000\000\000\000\000\000\000\000\000\000\000\000\000\000\000\000\000\000\000\000\000\000\000\000\000\000\000\000\000\000\000\000\000\000\000\000\000\000\000\000\000\000\000\000\000\000\000\000\000\000\0004\332O\245\3726\355?\000\000\000\000\000\000\000\000\014_\007c\364\323\326?\000\000\000\000\000\000\000\000\225w\353:\244\330\305?\000\000\000\000\000\000\000\000`\277#\205\245\t\266?\000\000\000\000\000\000\000\000\360\206Mh\237\307\246?\000\000\000\000\000\000\000\000\371\034#\371\200\341\227?\000\000\000\000\000\000\000\000`\316v\240\024D\211?\000\000\000\000\000\000\000\000\256\276\231\375\203\347z?\000\000\000\000\000\000\000\000\331\371\210]S\311l?\000\000\000\000\000\000\000\000\244\364\357Q\375\351^?\000\000\000\000\000\000\000\000\033y\370I\357\245P?\000\000\000\000\000\000\000\000\301\032\002\324W\371A?\000\000\000\000\000\000\000\000mg\016\276\240q3?&\020\371\017\347Y\343?\354;\221\356\006z\351?\374$\035$A|\221?\207\3721v\334\224\212?\014\304\275#\347\314)?,\022\020\002\236a\036?\215\\87\313\023\270>\254T\331\351I\366\247>\014\0065t#r@>\260Jcup\336,>brP\336\306\270\301=\270\270M5\213#\254=\000\000\000\000\000\000\000\000\000\000\000\000\000\000\000\000\000\000\000\000\000\000\000\000\000\000\000\000\000\000\000\000\000\000\000\000\000\000\000\000\000\000\000\000\000\000\000\000\000\000\000\000\000\000\000\000\000\000\000\000\000\000\000\000\000\000\000\000\000\000\000\000\000\000\000\000\000\000\000\000\000\000\000\000\000\000\000\000\000\000\000\000\000\000\000\000\000\000\000\000\000\000\000\000`\210o\215-\376\357?\000\000\000\000\000\000\000\000\000\000\000\000\000\000\000\000\235\232\227\177\220\230\225?\000\000\000\000\000\000\000\000\000\000\000\000\000\000\000\000\347\213h\363\330\023\032?\000\000\000\000\000\000\000\000\000\000\000\000\000\000\000\000)~\253c\360\272\216>\000\000\000\000\000\000\000\000\000\000\000\000\000\000\000\000\3540\037\326f`\366=\000\000\000\000\000\000\000\000\000\000\000\000\000\000\000\000\000\000\000\000\000\000\000\000\000\000\000\000\000\000\000\000\000\000\000\000\000\000\000\000\000\000\000\000\000\000\000\000\000\000\000\000\000\000\000\000\000\000\000\000\000\000\000\000\000\000\000\000\000\000\000\000\000\000\000\000\000\000\000\000\000\000\000\000\000\000\000\000\000\000\000\000\000\000\000\000\000\000\000\000\000\000\000\000\000\000\000\000\000\000\000\000\000\000\000\000\000\000\000\000\000\000\000\000\000\000\000\000\000\000\000\000\000\000\000\000\000\000\000\000\000\000\000\000\000\000\000\000\000\000\000\000\000\000\000\000\000\000\000\000\000\000\000\000\000\000\000\000\000\000\000\000\000\000\000\000\000\000\000\000\000\000\000\000\000\000\000\000\000\000\000\000\000\000\000\000\000\000\000\000\000\000\000\000\000\000\000\000\000\000\000\000\000\000\000\000\000\000\000\000\000\000\000\000\000\000\000\000\000\000\000\000\000\000\000\000\000\000\000\000\000\000\000\000\000\000\000\000\000\000\000\000\000\000\360?\000\000\000\000\000\000\000\000\000\000\000\000\000\000\000\000\000\000\000\000\000\000\000\000\000\000\000\000\000\000\000\000\000\000\000\000\000\000\000\000\240\265\253\372\374\356\356?\000\000\000\000\000\000\000\000\247$T\225w\'\317?\000\000\000\000\000\000\000\0009X$\376\3116\263?\000\000\000\000\000\000\000\000\266\035\350Dk\373\230?\000\000\000\000\000\000\000\000\263\355\355\216W\244\200?\000\000\000\000\000\000\000\000\\~\344S\235|f?\000\000\000\000\000\000\000\000`\300U\177\025\252N?\000\000\000\000\000\000\000\000JW|c\024\0135?\000\000\000\000\000\000\000\0005,\311B,\005\035?\000\000\000\000\000\000\000\000a\200]\037\237\025\004?\000\000\000\000\000\000\000\000\200\271\tu\310\341\353>\000\000\000\000\000\000\000\000\031\377\2561Mf\323>\000\000\000\000\000\000\000\000\243\351!\357\221\014\273>K\335X\202:\271\355?\017\354\326:\320&\326?6\006\240%`}\300?\"\016e6`a\234?\037R\257\217\230\340}?f\032\272\375^\352S?\337A\246\302_\0361?\231\237\376}\264I\003?\356\354\2641K\267\334>\371\215\321\033\310\210\254>\237,$B\242\377\202>\372l\216\320|\023Q>\357:X0\002\302$>\010\367\\\022\214)\361=\020ni|\244P\303=+\274j\344\342\256\211=\000\000\000\000\000\000\000\000\000\000\000\000\000\000\000\000\000\000\000\000\000\000\000\000\000\000\000\000\000\000\000\000\000\000\000\000\000\000\000\000\000\000\000\000\000\000\000\000\000\000\000\000\000\000\000\000\000\000\000\000\000\000\000\000\000\000\000\000\000\000\000\000\344$]\346\353\363\357?\000\000\000\000\000\000\000\000\000\000\000\000\000\000\000\000\034.v\222\200\312\253?\000\000\000\000\000\000\000\000\000\000\000\000\000\000\000\000\232#j:\225\236E?\000\000\000\000\000\000\000\000\000\000\000\000\000\000\000\000,\304\252\t\301i\320>\000\000\000\000\000\000\000\000\000\000\000\000\000\000\000\000h9\020\321S\314N>\000\000\000\000\000\000\000\000\000\000\000\000\000\000\000\000|\313\2759\257\027\304=\000\000\000\000\000\000\000\000\000\000\000\000\000\000\000\000\000\000\000\000\000\000\000\000\000\000\000\000\000\000\000\000\000\000\000\000\000\000\000\000\000\000\000\000\000\000\000\000\000\000\000\000\000\000\000\000\000\000\000\000\000\000\000\000\000\000\000\000\000\000\000\000\000\000\000\000\000\000\000\000\000\000\000\000\000\000\000\000\000\000\000\000\000\000\000\000\000\000\000\000\000\000\360?\000\000\000\000\000\000\000\000\000\000\000\000\000\000\000\000\000\000\000\000\000\000\000\000\000\000\000\000\000\000\000\000\000\000\000\000\000\000\000\000\000\000\000\000\000\000\000\000\000\000\000\000\000\000\000\000\000\000\000\000\000\000\000\000\000\000\000\000\000\000\000\000\000\000\000\000\000\000\000\000\000\000\000\000\000\000\000\000\000\000\000\000\000\000\000\000\000\000\000\000\000\000\000\000\000\000\000\000\000\000\000\000\000\000\000\000\000\000\000\000\000\000\000\000\000\000\000\000\000\000\000\000\000\000\000\000\000\000\000\000\000\000\000\000\000\000\000\000\000\000\000\000\000\000\000\000\000\000\000\000\000\000\000\000\000\000\000\000<\t\010x]\315\353?\000\000\000\000\000\000\000\000\366\227\010\335\365\311\331?\000\000\000\000\000\000\000\000\034=\247j0L\315?\000\000\000\000\000\000\000\000Z\352\344\252\303\212\301?\000\000\000\000\000\000\000\000\345\253\363V\206\206\265?\000\000\000\000\000\000\000\000g\r/\373\304\311\252?\000\000\000\000\000\000\000\000\370\337q)\207\322\240?\000\000\000\000\000\000\000\000x\000\350i\321C\225?\000\000\000\000\000\000\000\000\032\334QGt\002\213?\000\000\000\000\000\000\000\000Vz-ll7\201?\000\000\000\000\000\000\000\000\014\203\333\336F\003v?\000\000\000\000\000\000\000\000\357\372.Zi6l?\000\000\000\000\000\000\000\000\277\321>\027s\035b?\003)\311w\270g\350?\235\035\274>_G\341?\372t\3115\346\313\324?\345Dp7l\000\301?\030\207\313\255]\360\254?+s|\240]S\222?\305\211\215\030\366wy?[!\263\013\352B[?kE\030\264\332g@?{(\223\264L\371\036?]v\232w\004\254\000?\'<\3400\272x\334>\021\350P$\313\372\273>/\325\177\226\t\372\225>\376\261=\t\264\376s>\374\377\006\320\303=M>\034\236\3647\332\342(>%\214\341\031\340\027\001>Q\332!\214On\333=\372u\343\030k\322\261=\271\n\334d\362!\213=\000\000\000\000\000\000\000\000\000\000\000\000\000\000\000\000\000\000\000\000\000\000\000\000\000\000\000\000\000\000\000\000ir(I3\346\356?\000\000\000\000\000\000\000\000\000\000\000\000\000\000\000\000\3669>\361\244\234\320?\000\000\000\000\000\000\000\000\000\000\000\000\000\000\000\000\332\267\253\275\252\363\217?\000\000\000\000\000\000\000\000\000\000\000\000\000\000\000\000\230M\346\342\355\374=?\000\000\000\000\000\000\000\000\000\000\000\000\000\000\000\000\317\276\346\021!d\341>\000\000\000\000\000\000\000\000\000\000\000\000\000\000\000\000\257v\217jy\r|>\000\000\000\000\000\000\000\000\000\000\000\000\000\000\000\000\000Xd!\n\345\020>\000\000\000\000\000\000\000\000\000\000\000\000\000\000\000\000^\242\013\265\013\341\237=\000\000\000\000\000\000\000\000\000\000\000\000\000\000\000\000\000\000\000\000\000\000\000\000\000\000\000\000\000\000\000\000\000\000\000\000\000\000\000\000\000\000\000\000\000\000\000\000\000\000\000\000\000\000\000\000\000\000\000\000\000\000\000\000\000\000\000\000\000\000\000\000\000\000\000\000\000\000\000\000\000\000\000\000\000\000\000\000\000\000\000\000\000\000\000\000\000\000\000\000\000\000\000\000\000\000\000\000\000\000\000\000\000\000\000\000\000\000\000\000\000\000\000\000\000\000\000\000\000\000\000\000\000\000\000\000\000\000\000\000\000\000\000\000\000\000\000\000\000\000\360?\000\000\000\000\000\000\000\000\000\000\000\000\000\000\000\000\000\000\000\000\000\000\000\000\000\000\000\000\000\000\000\000\000\000\000\000\000\000\000\000\000\000\000\000\000\000\000\000\000\000\000\000\000\000\000\000\000\000\000\000\000\000\000\000\000\000\000\000\000\000\000\000t`8L\313]\356?\000\000\000\000\000\000\000\000g\222\016\026\233\254\322?\000\000\000\000\000\000\000\000\225\257*lB!\274?\000\000\000\000\000\000\000\000\344d\236\0001U\246?\000\000\000\000\000\000\000\000<\002\274\223\016+\222?\000\000\000\000\000\000\000\000\226Hi\"\320\372}?\000\000\000\000\000\000\000\000wO\247}\215\366h?\000\000\000\000\000\000\000\000\321\230=\223\242\353T?\000\000\000\000\000\000\000\000$\241\267\n\330\235A?\000\000\000\000\000\000\000\000C\316\237\376S\307-?\000\000\000\000\000\000\000\000\257B\237\231\020>\031?\000\000\000\000\000\000\000\000ET\2405\311r\005?\000\000\000\000\000\000\000\000\360r\002 \276B\362>\207y\377\272\220\254\315?\224\312Y\256\244A\356?\023h\026\344N\261\266?A\250\036\341\246\267\312?\256\t\370\017\244V\214?\322\345\315\363\025\330\231?\321$p\343\305aV?r1\253\346L@a?{\270\216s\211\340\031?\n\313\373\270\006\227!?\2521\206\275\205\231\327>\203\016\361 W\005\335>\367\354\304 \225\305\221>\215\313\026\346[\032\224>\225\217\323\245\177\313F>\326\364\214\234&\001H>\357\021tm\000v\371=5\312\352\253{/\371=\266\201U.\221/\251=\240\037L\001\302\220\247=\000\000\000\000\000\000\000\000\000\000\000\000\000\000\000\000\000\000\000\000\000\000\000\000\000\000\000\000\000\000\000\000\000\000\000\000\000\000\000\000\213\000\336\324\347\007\357?\000\000\000\000\000\000\000\000\000\000\000\000\000\000\000\000\276m\230c\2306\317?\000\000\000\000\000\000\000\000\000\000\000\000\000\000\000\000\200$\n\373\002\025\214?\000\000\000\000\000\000\000\000\000\000\000\000\000\000\000\000\327u`\022\367\2478?\000\000\000\000\000\000\000\000\000\000\000\000\000\000\000\000\324\332\317,\334\300\332>\000\000\000\000\000\000\000\000\000\000\000\000\000\000\000\000Y\\}Rw/t>\000\000\000\000\000\000\000\000\000\000\000\000\000\000\000\000\235c\220\035\276\276\006>\000\000\000\000\000\000\000\000\000\000\000\000\000\000\000\000\022\005\034\0367\023\224=\000\000\000\000\000\000\000\000\000\000\000\000\000\000\000\000\000\000\000\000\000\000\000\000\000\000\000\000\000\000\000\000\000\000\000\000\000\000\000\000\000\000\000\000\000\000\360?\000\000\000\000\000\000\000\000\000\000\000\000\000\000\000\000\000\000\000\000\000\000\000\000\000\000\000\000\000\000\000\000\000\000\000\000\000\000\000\000\000\000\000\000\000\000\000\000\000\000\000\000\000\000\000\000\000\000\000\000\000\000\000\000\000\000\000\000\000\000\000\000\000\000\000\000\000\000\000\000\000\000\000\000\000\000\000\000\000\000\000\000\000\000\000\000\000\000\000\000\000\000\000\000\000\000\000\000\000\000\000\000\000\000\000\000\000\000\000\000\000\000\000\000\000\000\000\000\000\000\000\000\000\000\000\000\000\000\000\000\000\000\000\000\000\000\000\000\000\000\000\000\000\000\000\000\000\000\000\000\000\000\000\000\000\000\000\000\000\000\000\000\000\000\000\000\031\253\207\3071\010\357?\000\000\000\000\000\000\000\0005\003\223\235C\330\315?\000\000\000\000\000\000\000\000\333\336(l\260\223\261?\000\000\000\000\000\000\000\000\322l\034F\324\322\225?\000\000\000\000\000\000\000\000\306\311L+\355\303{?\000\000\000\000\000\000\000\000\304\343\334\274\270\351a?\000\000\000\000\000\000\000\000\013#\253;\214SG?\000\000\000\000\000\000\000\000\ny\313<\202\222.?\000\000\000\000\000\000\000\000\341\272\310\241p!\024?\000\000\000\000\000\000\000\000^\203\357\357\300\233\372>\000\000\000\000\000\000\000\000\272\221#F\021\243\341>\000\000\000\000\000\000\000\000G\361_C\312o\307>\000\000\000\000\000\000\000\000\256yNT\2144\257>L1\231.5\002\353?)\335\t\037e\027\340?\\\201m\177\265}\306?\t(}\203\030\362\256?\342&\270\327\241\225\216?\\\272\321SQLp?$;:\345\327MJ?&{p;z\261\'?C\032\034\246\341\216\000?\223\214\273v\226N\332>\360\260\2465\235q\260>h\034\237\234\232\241\207>\224\204a\375\362\367Z>6\301~\"G\3231>\353\330\361<i\325\002>\341\314\320}O-\327=\340\254\335::\350\246=\000\000\000\000\000\000\000\000\000\000\000\000\000\000\000\000\000\000\000\000\000\000\000\000\000\000\000\000\000\000\000\000\000\000\000\000\000\000\000\000\000\000\000\000\000\000\000\000\000\000\000\000\000\000\000\000\000\000\000\000\000\000\000\0006\312j\223\263\235\357?\000\000\000\000\000\000\000\000\000\000\000\000\000\000\000\000\363\256\256\036\353\301\303?\000\000\000\000\000\000\000\000\000\000\000\000\000\000\000\000\033\345\032&4\026v?\000\000\000\000\000\000\000\000\000\000\000\000\000\000\000\000\200\203\245\226t\030\030?\000\000\000\000\000\000\000\000\000\000\000\000\000\000\000\000\342\033\313\325=>\260>\000\000\000\000\000\000\000\000\000\000\000\000\000\000\000\000\"\"\216\034\251t>>\000\000\000\000\000\000\000\000\000\000\000\000\000\000\000\000iR\254\352\016R\305=\000\000\000\000\000\000\000\000\000\000\000\000\000\000\000\000\000\000\000\000\000\000\000\000\000\000\000\000\000\000\000\000\000\000\000\000\000\000\000\000\000\000\000\000\000\000\000\000\000\000\000\000\000\000\000\000\000\000\000\000\000\000\000\000\000\000\000\000\000\000\000\000\000\000\000\000\000\000\000\000\000\000\000\000\000\000\000\000\000\000\000\000\000\000\000\000\000\000\000\000\000\000\000\000\000\000\000\000\000\000\000\000\000\000\000\000\000\000\000\000\000\000\000\000\000\000\000\000\000\000\000\000\000\000\000\000\000\000\000\000\000\000\000\000\000\000\000\000\000\000\000\000\000\000\000\000\000\000\000\000\000\000\000\000\000\000\000\000\000\000\000\000\000\000\360?\000\000\000\000\000\000\000\000\000\000\000\000\000\000\000\000\000\000\000\000\000\000\000\000\000\000\000\000\000\000\000\000\000\000\000\000\000\000\000\000\000\000\000\000\000\000\000\000\000\000\000\000\000\000\000\000\000\000\000\000\000\000\000\000\000\000\000\000\000\000\000\0008\244\256\321\215\035\352?\000\000\000\000\000\000\000\000\323\312\027\276\216\214\333?\000\000\000\000\000\000\000\0009{\034=\337\313\321?\000\000\000\000\000\000\000\000\206\212!\361y<\310?\000\000\000\000\000\000\000\000\224D\206\\(\351\300?\000\000\000\000\000\000\000\000\220\216m\253\003\357\267?\000\000\000\000\000\000\000\000)W)\233\266\027\261?\000\000\000\000\000\000\000\000q6\025\246o\222\250?\000\000\000\000\000\000\000\000\314`\331\360/\277\241?\000\000\000\000\000\000\000\000\003\311[f\307\272\231?\000\000\000\000\000\000\000\000\246\365\274\252\323\264\222?\000\000\000\000\000\000\000\000g\033\035\230\360C\213?\000\000\000\000\000\000\000\000\273_\261\265\340\350\203?aYEK\030\204\326?\251 \240\317\021[\355?\032\363\315\207\005=\272?w\273\256\227 \300\303?z\213\002\327\035\367\210?\224\335/\006\337\034\215?`?\rm\364\013N?\023\221\253\031\341\234M?vVO\301\327w\n?\244\305\007rp\001\007?\257+\241\307Hd\302>\220}iJY\353\274>\306)\375u\344\032u>]B@\226\306\206n>T\273\265\301\026\240$>\205\003\3562\315\305\033>LQ\033\350\203\215\321=\021W\201\010\2323\306=+\355\203}\325:z=\000\000\000\000\000\000\000\000\000\000\000\000\000\000\000\000\000\000\000\000\000\000\000\000\000\000\000\000\000\000\000\000\000\000\000\000\000\000\000\000\000\000\000\000\000\000\000\0000\210f\373\377\377\357?\000\000\000\000\000\000\000\000\000\000\000\000\000\000\000\000_\255:w9(!?\000\000\000\000\000\000\000\000\000\000\000\000\000\000\000\000s\001\342<\243t0>\000\000\000\000\000\000\000\000\000\000\000\000\000\000\000\000\000\000\000\000\000\000\000\000\000\000\000\000\000\000\000\000\000\000\000\000\000\000\000\000\000\000\000\000\000\000\000\000\000\000\000\000\000\000\000\000\000\000\000\000\000\000\000\000\000\000\000\000\000\000\000\000\000\000\000\000\000\000\000\000\000\000\000\000\000\000\000\000\000\000\000\000\000\000\000\000\000\000\000\000\000\000\000\000\000\000\000\000\000\000\000\000\000\000\000\000\000\000\000\000\000\000\000\000\000\000\000\000\000\000\000\000\000\000\000\000\000\000\000\000\000\000\000\000\000\000\000\000\000\000\000\000\000\000\000\000\000\000\000\000\000\000\000\000\000\000\000\000\000\000\000\000\000\000\000\000\000\000\000\000\000\000\000\000\000\000\000\000\000\000\000\000\000\000\000\000\000\000\000\000\000\000\000\000\000\000\000\000\000\000\000\000\000\000\000\000\000\000\000\000\000\000\000\000\000\000\000\000\000\000\000\000\000\000\000\000\000\000\000\000\000\000\000\000\000\000\000\000\000\000\000\000\000\000\000\000\000\000\000\000\000\000\000\000\000\000\000\000\000\000\000\000\000\000\000\000\000\000\000\000\000\000\000\000\000\000\000\000\000\000\000\000\000\000\000\000\000\000\000\000\000\000\000\000\000\000\000\000\000\000\000\000\000\000\000\000\000\000\000\000\000\000\000\000\000\000\000\000\000\000\000\000\000\000\360?\000\000\000\000\000\000\000\000\353\311F\362\002\340\357?\000\000\000\000\000\000\000\000\247XB\370\025x\266?\000\000\000\000\000\000\000\000\207\257h\247\374e\203?\000\000\000\000\000\000\000\000S\3579\035;\247Q?\000\000\000\000\000\000\000\000\262\254\350\246:v ?\000\000\000\000\000\000\000\000\270Qi\372\034#\357>\000\000\000\000\000\000\000\000\341X\250\356\020\270\275>\000\000\000\000\000\000\000\000_\333p\026\216\214\214>\000\000\000\000\000\000\000\000G\367\325\031\202\216[>\000\000\000\000\000\000\000\000v\031t\025w\262*>\000\000\000\000\000\000\000\000HqMC\273\360\371=\000\000\000\000\000\000\000\0003\023\240\\\350C\311=\000\000\000\000\000\000\000\0003%Y~\021\250\230=\001\301\022\204\261\262\305?P\306\310\247\214\331\356?\245\207\334\326\300R\256?\337\366 \300+\344\310?H\210LT\346L\201?9j\222\264\"\000\226?\203\003\331\304m\370H?\004Y\220\262Z\326Z?!\235e$\027a\n?\002.s\351\357\000\031?]\013\265Ut\373\305>Ty\244\305\310\330\322>\017\232\303\346\\@~>\344\017\253\023\256\333\207>/D\364M+\2721>\356-T\315\341\007:>\317\021\036f\246\027\342=\030\r~i\221\364\350=\276\225\335\256\"Z\220=\032 ~EN\267\224=\000\000\000\000\000\000\000\000\000\000\000\000\000\000\000\000\000\000\000\000\000\000\000\000\000\000\000\000\000\000\000\000\000\000\000\000\000\000\000\000\202S\353\346\204\377\357?\000\000\000\000\000\000\000\000\000\000\000\000\000\000\000\000\224!\205\002\2040\206?\000\000\000\000\000\000\000\000\000\000\000\000\000\000\000\000!M\007\\\264\206\373>\000\000\000\000\000\000\000\000\000\000\000\000\000\000\000\000\273\313\202Gf\251`>\000\000\000\000\000\000\000\000\000\000\000\000\000\000\000\000\340(\341\324{\355\270=\000\000\000\000\000\000\000\000\000\000\000\000\000\000\000\000\000\000\000\000\000\000\000\000\000\000\000\000\000\000\000\000\000\000\000\000\000\000\000\000\000\000\000\000\000\000\000\000\000\000\000\000\000\000\000\000\000\000\000\000\000\000\000\000\000\000\000\000\000\000\000\000\000\000\000\000\000\000\000\000\000\000\000\000\000\000\000\000\000\000\000\000\000\000\000\000\000\000\000\000\000\000\000\000\000\000\000\000\000\000\000\000\000\000\000\000\000\000\000\000\000\000\000\000\000\000\000\000\000\000\000\000\000\000\000\000\000\000\000\000\000\000\000\000\000\000\000\000\000\000\000\000\000\000\000\000\000\000\000\000\000\000\000\000\000\000\000\000\000\000\000\000\000\000\000\000\000\000\000\000\000\000\000\000\000\000\000\000\000\000\000\000\000\000\000\000\000\000\000\000\000\000\000\000\000\000\000\000\000\000\000\000\000\000\000\000\000\000\000\000\000\000\000\000\000\000\000\000\000\000\000\000\000\000\000\000\000\000\000\000\000\000\000\000\000\000\000\000\000\000\000\000\000\000\000\000\000\000\000\000\000\000\360?\000\000\000\000\000\000\000\000\000\000\000\000\000\000\000\000\000\000\000\000\000\000\000\000\000\000\000\000\000\000\000\000\232\246]b\264@\356?\000\000\000\000\000\000\000\000\021\243g`^0\323?\000\000\000\000\000\000\000\0008\226\351^@\320\275?\000\000\000\000\000\000\000\000\017ly\320\301i\250?\000\000\000\000\000\000\000\000\3363M9\021|\224?\000\000\000\000\000\000\000\000\033\316\377\212\240n\201?\000\000\000\000\000\000\000\000\271$J\344D\361m?\000\000\000\000\000\000\000\000\353\314\034V\304\341Y?\000\000\000\000\000\000\000\000\352\371\243\335\263zF?\000\000\000\000\000\000\000\000J\352\313\234\241\2303?\000\000\000\000\000\000\000\000s1\246\254\020\"!?\000\000\000\000\000\000\000\000,\202\261\245\327\007\016?\000\000\000\000\000\000\000\000\014\257z\026\357^\372>\223\222X\026N\n\346?\343{\362\273\n3\347?@\361\346\322n\213k?\221\235\017\016A\275`?\350\2417R\\\033\334>\362Zs\2640v\312>*O%\252\241#B>\332\314\355\312\272\335,>e\201\271AE\312\234=\000\000\000\000\000\000\000\000\000\000\000\000\000\000\000\000\000\000\000\000\000\000\000\000\000\000\000\000\000\000\000\000\000\000\000\000\000\000\000\000\000\000\000\000\000\000\000\000\000\000\000\000\000\000\000\000\000\000\000\000\000\000\000\000\000\000\000\000\000\000\000\000\000\000\000\000\000\000\000\000\000\000\000\000\000\000\000\000\000\000\000\000\000\000\000\000\000\000\000\000\000\000\000\000\000\000\000\000\000\000\000\000\000\000\000\000\000\000\000\000\000\000\000\000\000\000\000\000\214C\216\320\302\343\356?\000\000\000\000\000\000\000\000\000\000\000\000\000\000\000\000\233--\377\235\256\320?\000\000\000\000\000\000\000\000\000\000\000\000\000\000\000\000\332x\243\226\277\035\220?\000\000\000\000\000\000\000\000\000\000\000\000\000\000\000\000\n\213s\033yc>?\000\000\000\000\000\000\000\000\000\000\000\000\000\000\000\000oGa\034\020\264\341>\000\000\000\000\000\000\000\000\000\000\000\000\000\000\000\000\234\025\000@\222\257|>\000\000\000\000\000\000\000\000\000\000\000\000\000\000\000\000\324f\354O\271Z\021>\000\000\000\000\000\000\000\000\000\000\000\000\000\000\000\000k\024D\'\221r\240=\000\000\000\000\000\000\000\000\000\000\000\000\000\000\000\000\000\000\000\000\000\000\000\000\000\000\000\000\000\000\000\000\000\000\000\000\000\000\000\000\000\000\000\000\000\000\000\000\000\000\000\000\000\000\000\000\000\000\000\000\000\000\000\000\000\000\000\000\000\000\000\000\000\000\000\000\000\000\000\000\000\000\000\000\000\000\000\000\000\000\000\000\000\000\000\000\000\000\000\000\000\000\000\000\000\000\000\000\000\000\000\000\000\000\000\000\000\000\000\000\000\000\000\000\000\000\000\000\000\000\000\000\000\000\360?\000\000\000\000\000\000\000\000\000\000\000\000\000\000\000\000\000\000\000\000\000\000\000\000\000\000\000\000\000\000\000\000\000\000\000\000\000\000\000\000\000\000\000\000\000\000\000\000\000\000\000\000\000\000\000\000\000\000\000\000\000\000\000\000\000\000\000\000\000\000\000\000\000\000\000\000\000\000\000\000\000\000\000\000\000\000\000\000\023\210\210u\3678\355?\000\000\000\000\000\000\000\000{yL%n\316\326?\000\000\000\000\000\000\000\000\013\202~\000\227\314\305?\000\000\000\000\000\000\000\000Zr\243d\254\366\265?\000\000\000\000\000\000\000\000\227\315\353H\371\254\246?\000\000\000\000\000\000\000\000\213\243\243\3352\276\227?\000\000\000\000\000\000\000\000\021 \010\034\361\026\211?\000\000\000\000\000\000\000\000\204\324\251=+\257z?\000\000\000\000\000\000\000\0005\375c\0320\204l?\000\000\000\000\000\000\000\000{\327l\372?\226^?\000\000\000\000\000\000\000\000\247NL\226\273sP?\000\000\000\000\000\000\000\000i\271?C\243\275A?\000\000\000\000\000\000\000\000\255I\237r\027+3?U6\302\306J\331\354?\376I`Z\022a\266?\034\206\314P\217\233\332?\211\200\242Hq\325\227?\335\343\213\213\216\t\264?\341\354\350Y8\316k?\341\007\331\2228\026\203?\327_\313~\233b6?d \241\275b\235J?\270\243\215=:\207\373>\306$\177\2424F\r?\037\240\002\346jc\273>\302\026\351\254z\226\312>\340\037\3044\264\341v>f\204p%\252\220\204>\',\002\303\363y0>\306\230\312\321*\264;>\306I\334\224j\331\344=\355\213-\t\232\206\360=\245\020\215\234C\207\227==K\243w:\261\241=\000\000\000\000\000\000\000\000\000\000\000\000\000\000\000\000\000\000\000\000\000\000\000\000\000\000\000\000\000\000\000\000+\253b[Cv\357?\000\000\000\000\000\000\000\000\000\000\000\000\000\000\000\000\240 \223\240qZ\307?\000\000\000\000\000\000\000\000\000\000\000\000\000\000\000\000\373\377\357WC\002\177?\000\000\000\000\000\000\000\000\000\000\000\000\000\000\000\000c\301\237\241A\027$?\000\000\000\000\000\000\000\000\000\000\000\000\000\000\000\000\322\207\006b7\026\300>\000\000\000\000\000\000\000\000\000\000\000\000\000\000\000\000\266g<\234\316\351Q>\000\000\000\000\000\000\000\000\000\000\000\000\000\000\000\000\2010\371\344H\312\335=\000\000\000\000\000\000\000\000\000\000\000\000\000\000\000\000\000\000\000\000\000\000\000\000\000\000\000\000\000\000\000\000\000\000\000\000\000\000\000\000\000\000\000\000\000\000\000\000\000\000\000\000\000\000\000\000\000\000\000\000\000\000\000\000\000\000\000\000\000\000\000\000\000\000\000\000\000\000\000\000\000\000\000\000\000\000\000\000\000\000\000\000\000\000\000\000\000\000\000\000\000\000\000\000\000\000\000\000\000\000\000\000\000\000\000\000\000\000\000\000\000\000\000\000\000\000\000\000\000\000\000\000\000\000\360?\000\000\000\000\000\000\000\000\000\000\000\000\000\000\000\000\000\000\000\000\000\000\000\000\000\000\000\000\000\000\000\000\000\000\000\000\000\000\000\000\000\000\000\000\000\000\000\000\000\000\000\000\000\000\000\000\000\000\000\000\000\000\000\000\000\000\000\000\000\000\000\000\000\000\000\000\000\000\000\000\000\000\000\000\000\000\000\000\000\000\000\000\000\000\000\000\000\000\000\000\000\000\000\000\000\000\000\000\000\000\000\000E6\265\226\362\313\357?\000\000\000\000\000\000\000\000\217\254V\252\006\212\274?\000\000\000\000\000\000\000\000\200\023\200\246O_\217?\000\000\000\000\000\000\000\000,\373,@\024-b?\000\000\000\000\000\000\000\000k\207\"\365\324\2245?\000\000\000\000\000\000\000\000wV|\316\365\374\t?\000\000\000\000\000\000\000\000u50\215H\225\337>\000\000\000\000\000\000\000\000;\014\264@\311P\263>\000\000\000\000\000\000\000\000\320\321\354VB\275\207>\000\000\000\000\000\000\000\000\244\307\261\037\265H]>\000\000\000\000\000\000\000\000\271-\351\003m\0352>\000\000\000\000\000\000\000\000o\354\347\032\026w\006>\000\000\000\000\000\000\000\000\206\013\026OS\352\333=p\307\244L\304\262\354?\034e\'\014-\333\326?\345\201\304=\021.\320?\n\274\013\330d\302\255?\252b\364\010\372\312\235?_+\324\305\0169u?\234\362\301\026\022Ya?\257\007^\200o\3434?\010\3432\203\357\222\035?\313\227h)\235g\357>\332\250\2478m\342\323>\026\247o\323\200\031\243>\360c\016\312E\024\206>\250\352\333\313\034\202S>2\334\364\021\362\3404>Z\017]vy,\001>\007\320\251nm1\341=\007\253\363\037\205\221\252=\227\332\224a\300\223\212=\000\000\000\000\000\000\000\000\000\000\000\000\000\000\000\000\000\000\000\000\000\000\000\000\000\000\000\000\000\000\000\000\000\000\000\000\000\000\000\000\000\000\000\000\000\000\000\000\270\271\003E\004\373\357?\000\000\000\000\000\000\000\000\000\000\000\000\000\000\000\000s\250\236\032\375\332\241?\000\000\000\000\000\000\000\000\000\000\000\000\000\000\000\000; b\221M\3251?\000\000\000\000\000\000\000\000\000\000\000\000\000\000\000\000&\314m\336\274a\261>\000\000\000\000\000\000\000\000\000\000\000\000\000\000\000\000\316?\356\r\351\357$>\000\000\000\000\000\000\000\000\000\000\000\000\000\000\000\000cV\322\342\r\335\220=\000\000\000\000\000\000\000\000\000\000\000\000\000\000\000\000\000\000\000\000\000\000\000\000\000\000\000\000\000\000\000\000\000\000\000\000\000\000\000\000\000\000\000\000\000\000\000\000\000\000\000\000\000\000\000\000\000\000\000\000\000\000\000\000\000\000\000\000\000\000\000\000\000\000\000\000\000\000\000\000\000\000\000\000\000\000\000\000\000\000\000\000\000\000\000\000\000\000\000\000\000\000\000\000\000\000\000\000\000\000\000\000\000\000\000\000\000\000\000\000\000\000\000\000\000\000\000\000\000\000\000\000\000\000\000\000\000\000\000\000\000\000\000\000\000\000\000\000\000\000\000\000\000\000\000\000\000\000\000\000\000\000\000\000\000\000\000\000\000\000\000\000\000\000\000\000\000\000\000\000\000\000\000\000\000\000\000\000\000\000\000\000\000\000\000\000\000\000\000\000\000\000\000\000\000\000\360?\000\000\000\000\000\000\000\000\000\000\000\000\000\000\000\000\000\000\000\000\000\000\000\000\000\000\000\000\000\000\000\000\000\000\000\000\000\000\000\000\000\000\000\000\000\000\000\000\000\000\000\000\000\000\000\000\000\000\000\000\000\000\000\000\265{\021\205C\375\357?\000\000\000\000\000\000\000\000?-S\210|s\232?\000\000\000\000\000\000\000\000\366,\301\016\214\311J?\000\000\000\000\000\000\000\000\261\254\276\257[\230\374>\000\000\000\000\000\000\000\000\346R\327\234aG\257>\000\000\000\000\000\000\000\000,\240\242`\220Ya>\000\000\000\000\000\000\000\000\366\376@\220\275l\023>\000\000\000\000\000\000\000\000\271\270\217\'z\343\305=\000\000\000\000\000\000\000\000\212\341\377\222\033\001u=\000\000\000\000\000\000\000\000\000\000\000\000\000\000\000\000\000\000\000\000\000\000\000\000\000\000\000\000\000\000\000\000\000\000\000\000\000\000\000\000\000\000\000\000\000\000\000\000\000\000\000\000\000\000\000\000\000\000\000\000\000\000\000\000E?\350\nf%\351?g\353|\211y\270\326?\200\2758\213pr\336?,+\031f\036\304\277?>cL\305\272\031\276?\017\275Y\260kS\230?\020\n\275\216\020\322\222?\356\014\237\245\237\265i?\030\313\267\271\3449a?\017\273\216J\266\3004?\200\01082\301\337(?\363\376\230Y\n\033\373>\300l\341Pe\250\355>:\235(K\217\272\275>\333\000\014\262o\035\256>\232#\356\330C\032|>\327\022h\322\014\241j>\014\177\003f\231W7>w\260\327ms\332$>\212fg-_J\361=wVK\025\367N\335=pOL\247l\035\247=\265\360\364/>\252\222=\000\000\000\000\000\000\000\000\000\000\000\000\000\000\000\000\356(qv\300\026\357?\000\000\000\000\000\000\000\000\000\000\000\000\000\000\000\000_\341\305\205&H\316?\000\000\000\000\000\000\000\000\000\000\000\000\000\000\000\000\004\204Z\305\275a\212?\000\000\000\000\000\000\000\000\000\000\000\000\000\000\000\0009\020\036\321\035n6?\000\000\000\000\000\000\000\000\000\000\000\000\000\000\000\000\257\3020LW\221\327>\000\000\000\000\000\000\000\000\000\000\000\000\000\000\000\000\330\321\357F\0248q>\000\000\000\000\000\000\000\000\000\000\000\000\000\000\000\000!\220f\221\331\311\002>\000\000\000\000\000\000\000\000\000\000\000\000\000\000\000\000?\266\307\264\334\016\220=\000\000\000\000\000\000\000\000\000\000\000\000\000\000\000\000\000\000\000\000\000\000\000\000\000\000\000\000\000\000\000\000\000\000\000\000\000\000\000\000\000\000\000\000\000\000\000\000\000\000\000\000\000\000\000\000\000\000\000\000\000\000\000\000\000\000\000\000\000\000\360?\000\000\000\000\000\000\000\000\000\000\000\000\000\000\000\000\000\000\000\000\000\000\000\000\000\000\000\000\000\000\000\000\000\000\000\000\000\000\000\000\000\000\000\000\000\000\000\000\000\000\000\000\000\000\000\000\000\000\000\000\000\000\000\000\000\000\000\000\000\000\000\000\000\000\000\000\000\000\000\000\000\000\000\000\000\000\000\000\000\000\000\000\000\000\000\000\000\000\000\000\000\000\000\000\000\000\000\000\000\000\000\000\000\000\000\000\000\000\000\000\000\000\000\000\000\000\000\000\000\000\000\000\000\000\000\000\000\000\000\000\000\000\000\000\000\000\000\000\000\000\000\000\275\265RFt\370\357?\000\000\000\000\000\000\000\000n\346\201\005\267\360\245?\000\000\000\000\000\000\000\000\rCA\350\332pb?\000\000\000\000\000\000\000\000\312\2043T\204V ?\000\000\000\000\000\000\000\000R\265\204[\'\252\335>\000\000\000\000\000\000\000\000\223\256yX\034P\233>\000\000\000\000\000\000\000\000\312<\274\272!aY>\000\000\000\000\000\000\000\0000\364\341\332D\274\027>\000\000\000\000\000\000\000\000\205J\205f\354M\326=\000\000\000\000\000\000\000\000\333\327\317a\200\t\225=\000\000\000\000\000\000\000\000\000\000\000\000\000\000\000\000\000\000\000\000\000\000\000\000\000\000\000\000\000\000\000\000\000\000\000\000\000\000\000\000\000\000\000\000\000\000\000\000W}\006\362\205\033\343?\365O|O\265\213\346?\323\262`\204\223\343\323?j\206\032\233)\031\313?\n\304G\016G\347\260?\214\255\210X\342\326\241?\242z\344@\371+\202?\207\014\371\260U5p?\213&\002U\303\230L?\353\271\3533\266~6?$\232\305#\312\277\021?\331\321\276p\030B\371>?B\240\252h1\322>\220\221\017c\254\320\267>\3410n|%\303\217>\343\226!\370uZs>6\330\323\361\001%H>,?\333Uw\243+>[\324g@\"A\000>\266z\0025\240\231\341=d\344SX\240\243\263=\235\270(\256&\020\224=\000\000\000\000\000\000\000\000\000\000\000\000\000\000\000\000\000\000\000\000\000\000\000\000\263\336\335\315\231\277\357?\000\000\000\000\000\000\000\000\000\000\000\000\000\000\000\000PcO\352\n\003\300?\000\000\000\000\000\000\000\000\000\000\000\000\000\000\000\000\267\031\t+.\344l?\000\000\000\000\000\000\000\000\000\000\000\000\000\000\000\000\013;\365\027\347o\t?\000\000\000\000\000\000\000\000\000\000\000\000\000\000\000\000\235\340C\301o\255\233>\000\000\000\000\000\000\000\000\000\000\000\000\000\000\000\000I\245\213\030\321\360$>\000\000\000\000\000\000\000\000\000\000\000\000\000\000\000\000\354\335t?e\251\247=\000\000\000\000\000\000\000\000\000\000\000\000\000\000\000\000\000\000\000\000\000\000\000\000\000\000\000\000\000\000\000\000\000\000\000\000\000\000\000\000\000\000\000\000\000\000\000\000\000\000\000\000\000\000\000\000\000\000\000\000\000\000\000\000\000\000\000\000\000\000\000\000\000\000\000\000\000\000\000\000\000\000\000\000\000\000\000\000\000\000\000\000\000\000\000\000\000\000\000\000\000\000\000\000\000\000\000\000\000\000\000\000\000\000\000\000\000\000\000\000\000\000\000\000\000\000\000\000\000\000\000\000\000\000\000\000\000\000\000\000\000\000\000\000\000\000\000\000\000\000\000\000\000\000\000\000\000\000\000\000\000\000\000\000\000\000\000\000\000\000\000\000\000\000\000\000\000\000\000\000\000\000\000\000\000\000\000\000\000\000\000\000\000\000\000\000\000\000\000\000\000\000\000\000\000\000\360?\000\000\000\000\000\000\000\000\000\000\000\000\000\000\000\000\000\000\000\000\000\000\000\000\000\000\000\000\000\000\000\000\000\000\000\000\000\000\000\000\241\270\177{\037\366\356?\000\000\000\000\000\000\000\000_\000\262*\324\312\316?\000\000\000\000\000\000\000\000V\375\"\025\334\300\262?\000\000\000\000\000\000\000\000\025\336\371n\007\024\230?\000\000\000\000\000\000\000\000r)\007&\264\255\177?\000\000\000\000\000\000\000\000{\244\231wp\"e?\000\000\000\000\000\000\000\000\235\024I)\301uL?\000\000\000\000\000\000\000\000\202\003\222\312II3?\000\000\000\000\000\000\000\000\365\313\247o\273C\032?\000\000\000\000\000\000\000\0006\013c\2034\363\001?\000\000\000\000\000\000\000\000\360\035\323\206t\233\350>\000\000\000\000\000\000\000\000\360\262\326\3403\350\320>\000\000\000\000\000\000\000\000-%X\033eG\267>\003\020M}>P\355?e\001}I\351\231\331?9\340e\323\000\337\234?\033\231\016\330\232\035}?\262I0\320\25177?\314W.\346\357\"\022?\351\035F\317\364\235\307>ZN\232<\020/\237>\002\266\356\241X\225Q>\352\301\336:\273y$>C\275\340`)\247\324=\366\321\2443EJ\246=\000\000\000\000\000\000\000\000\000\000\000\000\000\000\000\000\000\000\000\000\000\000\000\000\000\000\000\000\000\000\000\000\000\000\000\000\000\000\000\000\000\000\000\000\000\000\000\000\000\000\000\000\000\000\000\000\000\000\000\000\000\000\000\000\000\000\000\000\000\000\000\000\000\000\000\000\000\000\000\000\000\000\000\000\000\000\000\000\000\000\000\000\000\000\000\000\000\000\000\000\000\000\000\000\227\204\220\246\010w\356?\000\000\000\000\000\000\000\000\000\000\000\000\000\000\000\000\327K\002\003\265\210\323?\000\000\000\000\000\000\000\000\000\000\000\000\000\000\000\000\\\3260\002\327g\226?\000\000\000\000\000\000\000\000\000\000\000\000\000\000\000\000Y-\202\255|\024I?\000\000\000\000\000\000\000\000\000\000\000\000\000\000\000\000\004p*\213\334X\361>\000\000\000\000\000\000\000\000\000\000\000\000\000\000\000\000\025\346O\253\266\257\220>\000\000\000\000\000\000\000\000\000\000\000\000\000\000\000\000\002\352\204\356\230\370\'>\000\000\000\000\000\000\000\000\000\000\000\000\000\000\000\000\216\314jy#\371\272=\000\000\000\000\000\000\000\000\000\000\000\000\000\000\000\000\000\000\000\000\000\000\000\000\000\000\000\000\000\000\000\000\000\000\000\000\000\000\000\000\000\000\000\000\000\000\000\000\000\000\000\000\000\000\000\000\000\000\000\000\000\000\000\000\000\000\000\000\000\000\360?\000\000\000\000\000\000\000\000\000\000\000\000\000\000\000\000\000\000\000\000\000\000\000\000\000\000\000\000\000\000\000\000\000\000\000\000\000\000\000\000\000\000\000\000\000\000\000\000\000\000\000\000\000\000\000\000\000\000\000\000\000\000\000\000\000\000\000\000\000\000\000\000\000\000\000\000\000\000\000\000\000\000\000\000\000\000\000\000\000\000\000\000\000\000\000\000\000\000\000\000\000\000\000\000\000\000\000\000\000\000\000\000\000\000\000\000\000\000\000\000\000\000\000\000\000\000\000\000\000\000\000\000\000\000\000\000\000\000\000\000\000\000\000\000\000\000\000\000\000\000\000\000\340T\266\314\033l\352?\000\000\000\000\000\000\000\000QkH\225\nV\333?\000\000\000\000\000\000\000\000\243Gc\256\235Q\321?\000\000\000\000\000\000\000\000\330d\224\030\272!\307?\000\000\000\000\000\000\000\000e\001\212\364\241\250\277?\000\000\000\000\000\000\000\000\n\313\177\237\307\370\265?\000\000\000\000\000\000\000\000U\312o\337a\307\256?\000\000\000\000\000\000\000\000\026V\211\371\222\262\245?\000\000\000\000\000\000\000\0001\3448\277\365\274\236?\000\000\000\000\000\000\000\000%\351N+p\332\225?\000\000\000\000\000\000\000\000\377d\226Z\030*\217?\000\000\000\000\000\000\000\0005\021\242cGF\206?\000\000\000\000\000\000\000\000}\017I\364x\347\177?Q\242B\247B)\341?\037P9\020\244\313\352?\352J4\262/\036\264?\027\271\332\370\303\"\262?\211\327\220T\236As?\312\2223\\\201\344j?\346\275p\236zP\'?w@\214\375\244\204\033?\1776\017\017\026\251\324>\265\326\377\343\226\201\305>\013vK3[\342|>\304\026\177D;2k>J7\003\364\377\253 >i\221\243\016\034\341\014>Q\305}\250\361c\300=,-\237%c`\252=\000\000\000\000\000\000\000\000\000\000\000\000\000\000\000\000\000\000\000\000\000\000\000\000\000\000\000\000\000\000\000\000\000\000\000\000\000\000\000\000\000\000\000\000\000\000\000\000\000\000\000\000\000\000\000\000\000\000\000\000\000\000\000\000\000\000\000\000\000\000\000\000\2065\246B\2648\357?\000\000\000\000\000\000\000\000\000\000\000\000\000\000\000\000\014\300}\376\342\006\314?\000\000\000\000\000\000\000\000\000\000\000\000\000\000\000\000]0z\342\307\200\206?\000\000\000\000\000\000\000\000\000\000\000\000\000\000\000\000\274\334\237?\351\2411?\000\000\000\000\000\000\000\000\000\000\000\000\000\000\000\000z\006\347\211\005\023\321>\000\000\000\000\000\000\000\000\000\000\000\000\000\000\000\000\263G\241&b\376f>\000\000\000\000\000\000\000\000\000\000\000\000\000\000\000\000\331c\377)\\\037\367=\000\000\000\000\000\000\000\000\000\000\000\000\000\000\000\000Fw\025\234\006g|=\000\000\000\000\000\000\000\000\000\000\000\000\000\000\000\000\000\000\000\000\000\000\000\000\000\000\000\000\000\000\000\000\000\000\000\000\000\000\000\000\000\000\000\000\000\000\000\000\000\000\000\000\000\000\000\000\000\000\000\000\000\000\000\000\000\000\000\000\000\000\000\000\000\000\000\000\000\000\000\000\000\000\000\000\000\000\000\000\000\000\000\000\000\000\360?\000\000\000\000\000\000\000\000\000\000\000\000\000\000\000\000\000\000\000\000\000\000\000\000\000\000\000\000\000\000\000\000\000\000\000\000\000\000\000\000\000\000\000\000\000\000\000\000\000\000\000\000\000\000\000\000\000\000\000\000\000\000\000\000\000\000\000\000\000\000\000\000\000\000\000\000\000\000\000\000\000\000\000\000\000\000\000\000\000\000\000\000\000\000\000\000\000\000\000\000\000\000\000\000\000\000\000\000\000\000\000\000\000\000\000\000\000\000\000\000\000\000\000\000\000\000\000\000G\'\206\350\346=\354?\000\000\000\000\000\000\000\000\235\241\320\003H\014\331?\000\000\000\000\000\000\000\000\234\337F\300F5\313?\000\000\000\000\000\000\000\000\312,5R9\'\277?\000\000\000\000\000\000\000\000\020\264z\376\216F\262?\000\000\000\000\000\000\000\000 \301$\322\027\277\245?\000\000\000\000\000\000\000\000\000Bf\035n\035\232?\000\000\000\000\000\000\000\000\202\351}\032c\220\217?\000\000\000\000\000\000\000\000\334\010\206H\240*\203?\000\000\000\000\000\000\000\000\020\234D\246\345\\w?\000\000\000\000\000\000\000\000T\253\262i\310\217l?\000\000\000\000\000\000\000\000F|8\023\027\200a?\000\000\000\000\000\000\000\000\337\230\273S\373|U?\025z\034\370\"\242\332?hX@}C\351\354?\037\324i\274\373`\260?\275\321\357\277\271\207\264?9\376y\235\315rp?\002\250\034\r\275\360o?\020\355>\207\355\344$?\362\210\260\2709%!?\302P\260\3550m\323>\031\237\311k\t\036\314>E\216\213a\256~|>!\342\t\r\023\247r>\227_\307\224\215A!>\t\266F\266\373\307\024>\367r\021#\223\314\301=\216G7\352~\364\263=\000\000\000\000\000\000\000\000\000\000\000\000\000\000\000\000\000\000\000\000\000\000\000\000\000\000\000\000\000\000\000\000\000\000\000\000\000\000\000\000\000\000\000\000\000\000\000\000\000\000\000\000\000\000\000\000\000\000\000\000\000\000\000\000\000\000\000\000\000\000\000\000\316\344\273\200\376\377\357?\000\000\000\000\000\000\000\000\000\000\000\000\000\000\000\000~\327E\346\301\223S?\000\000\000\000\000\000\000\000\000\000\000\000\000\000\000\000\257PE\320\333l\225>\000\000\000\000\000\000\000\000\000\000\000\000\000\000\000\000FY9\005\365\341\306=\000\000\000\000\000\000\000\000\000\000\000\000\000\000\000\000\000\000\000\000\000\000\000\000\000\000\000\000\000\000\000\000\000\000\000\000\000\000\000\000\000\000\000\000\000\000\000\000\000\000\000\000\000\000\000\000\000\000\000\000\000\000\000\000\000\000\000\000\000\000\000\000\000\000\000\000\000\000\000\000\000\000\000\000\000\000\000\000\000\000\000\000\000\000\000\000\000\000\000\000\000\000\000\000\000\000\000\000\000\000\000\000\000\000\000\000\000\000\000\000\000\000\000\000\000\000\000\000\000\000\000\000\000\000\000\000\000\000\000\000\000\000\000\000\000\000\000\000\000\000\000\000\000\000\000\000\000\000\000\000\000\000\000\000\000\000\000\000\000\000\000\000\000\000\000\000\000\000\000\000\000\000\000\000\000\000\000\000\000\000\000\000\000\000\000\000\000\000\000\000\000\000\000\000\000\000\000\000\000\000\000\000\000\000\000\000\000\000\000\000\000\000\000\000\000\000\000\000\000\000\000\000\000\000\000\000\000\000\360?\000\000\000\000\000\000\000\000\000\000\000\000\000\000\000\000\000\000\000\000\000\000\000\000\000\000\000\000\000\000\000\000\000\000\000\000\000\000\000\000\000\000\000\000\000\000\000\000\000\000\000\000\000\000\000\000\000\000\000\000\000\000\000\000\000\000\000\000\000\000\000\000\000\000\000\000\000\000\000\000\271\242\260\034\3502\356?\000\000\000\000\000\000\000\000E\004\\\030Vl\323?\000\000\000\000\000\000\000\000\312\250*\272\257\231\276?\000\000\000\000\000\000\000\000\213\304[\264\231h\251?\000\000\000\000\000\000\000\000\351\037N\255c\236\225?\000\000\000\000\000\000\000\000N\222YZ\260\247\202?\000\000\000\000\000\000\000\000\266\226\257\321\372>p?\000\000\000\000\000\000\000\000\362\367\000w\264z\\?\000\000\000\000\000\000\000\000H\256&\274\366\024I?\000\000\000\000\000\000\000\000\312\023%=\342+6?\000\000\000\000\000\000\000\000\021\254\315-\377\247#?\000\000\000\000\000\000\000\000\nGb]\320w\021?\000\000\000\000\000\000\000\000T\266/w\275\033\377>\362\352\340tc\r\312?\226\232 W\337\034\357?\004M0\034\334\r\244?>\236\t\000\217\247\273?\260\2117\357]5i?\322g\002\210@\355z?\031\271]\007}\n$?\241\367%\215\235\0272?\324so\266\273R\327>\357\003\333\013\254\221\342>\242W;\370\036i\205>\232\"\025\247\205\326\216>j\245\2468\301:0>\354\n>\n\234\2005>\267X\022\364+\364\324=E\373\215\3577\330\331=\233\330=1\335)w=\000\000\000\000\000\000\000\000\000\000\000\000\000\000\000\000\000\000\000\000\000\000\000\000\000\000\000\000\000\000\000\000\000\000\000\000\000\000\000\000\000\000\000\000\000\000\000\000\000\000\000\000\000\000\000\000\000\000\000\000\000\000\000\000\206a\352\247\210\241\356?\000\000\000\000\000\000\000\000\000\000\000\000\000\000\000\000\375\r\333\3207z\322?\000\000\000\000\000\000\000\000\000\000\000\000\000\000\000\000f\010\024\027M\360\223?\000\000\000\000\000\000\000\000\000\000\000\000\000\000\000\000\"\377\211\3729\377D?\000\000\000\000\000\000\000\000\000\000\000\000\000\000\000\000\371\221Q\275rS\353>\000\000\000\000\000\000\000\000\000\000\000\000\000\000\000\000\205\000\200H\207\272\210>\000\000\000\000\000\000\000\000\000\000\000\000\000\000\000\000\361Tj7\330\265 >\000\000\000\000\000\000\000\000\000\000\000\000\000\000\000\000Y\264g%\215\260\261=\000\000\000\000\000\000\000\000\000\000\000\000\000\000\000\000\000\000\000\000\000\000\000\000\000\000\000\000\000\000\000\000\000\000\000\000\000\000\000\000\000\000\000\000\000\000\000\000\000\000\000\000\000\000\000\000\000\000\000\000\000\000\000\000\000\000\000\000\000\000\360?\000\000\000\000\000\000\000\000\000\000\000\000\000\000\000\000\000\000\000\000\000\000\000\000\000\000\000\000\000\000\000\000\000\000\000\000\000\000\000\000\000\000\000\000\000\000\000\000\000\000\000\000\000\000\000\000\000\000\000\000\000\000\000\000\000\000\000\000\000\000\000\000\000\000\000\000\000\000\000\000\000\000\000\000\000\000\000\000\000\000\000\000\000\000\000\000\000\000\000\000\000\000\000\000\000\000\000\000\000\000\000\000\000\000\000\000\000\000\000\000\000\000\000\000\000\000\000\000\000\000\000\000\000\000\000\000\000\000\000\000\000\000\000\000\000\000\000\000\000\000\000\000(;aU\371\261\357?\000\000\000\000\000\000\000\000\347\271N \241_\301?\000\000\000\000\000\000\000\000\263\036\007}\267S\227?\000\000\000\000\000\000\000\000\016\366\275\302\344\201p?\000\000\000\000\000\000\000\000\035\025\310<\236\360G?\000\000\000\000\000\000\000\000\026Vo\222\020\233!?\000\000\000\000\000\000\000\000\206#\232\2754\"\372>\000\000\000\000\000\000\000\000&\277\264\277\214\205\323>\000\000\000\000\000\000\000\000oO\005$\031N\255>\000\000\000\000\000\000\000\000^\362XN\271\023\206>\000\000\000\000\000\000\000\000\001\332a\207>\256`>\000\000\000\000\000\000\000\000\314s_\006PD9>\000\000\000\000\000\000\000\000{\213\204T\236,\023>\235\305\037H\0164\357?\245]\324/N\367\261?\203R\216q[\314\312?\256C\240Q\023\321\201?\226w\\\330\256\312\222?\306\025\035\213\340ZC?KPoN\n\253P?\327\334\347\256\315\004\375>\ndu\257m\244\005?\260\005\343\356^\235\260>\263M\344 \221*\266>+t,W\356\310^>?\362(\355\017\277b>R\037&@\354\362\007>\355\002o\232\352\000\013>\273x\356\366\315\016\260=\242\004\331N\305\357\260=\000\000\000\000\000\000\000\000\000\000\000\000\000\000\000\000\000\000\000\000\000\000\000\000\000\000\000\000\000\000\000\000\000\000\000\000\000\000\000\000\000\000\000\000\000\000\000\000\000\000\000\000\000\000\000\000\000\000\000\000\000\000\000\000\270\014\331U{\373\357?\000\000\000\000\000\000\000\000\000\000\000\000\000\000\000\000K\324\221\320\207\000\241?\000\000\000\000\000\000\000\000\000\000\000\000\000\000\000\000\017\350\023e\037+0?\000\000\000\000\000\000\000\000\000\000\000\000\000\000\000\000A\370\340$\242\002\256>\000\000\000\000\000\000\000\000\000\000\000\000\000\000\000\000z,v\004\2475!>\000\000\000\000\000\000\000\000\000\000\000\000\000\000\000\000\230m\267\373\030s\213=\000\000\000\000\000\000\000\000\000\000\000\000\000\000\000\000\000\000\000\000\000\000\000\000\000\000\000\000\000\000\000\000\000\000\000\000\000\000\000\000\000\000\000\000\000\000\000\000\000\000\000\000\000\000\000\000\000\000\000\000\000\000\000\000\000\000\000\000\000\000\000\000\000\000\000\000\000\000\000\000\000\000\000\000\000\000\000\000\000\000\000\000\000\000\000\000\000\000\000\000\000\000\000\000\000\000\000\000\000\000\000\000\000\000\000\000\000\000\000\000\000\000\000\000\000\000\000\000\000\000\000\000\000\000\000\000\000\000\000\000\000\000\000\000\000\000\000\000\000\000\000\000\000\000\000\000\000\000\000\000\000\000\000\000\000\000\000\000\000\000\000\000\000\000\000\000\000\000\000\000\000\000\000\000\000\000\000\000\000\000\000\000\000\000\000\000\000\000\000\000\000\000\000\000\000\000\000\000\000\000\000\000\000\000\000\000\000\000\000\000\000\000\000\000\000\000\000\000\000\000\360?\000\000\000\000\000\000\000\000\000\000\000\000\000\000\000\000\000\000\000\000\000\000\000\000\000\000\000\000\000\000\000\000\000\000\000\000\000\000\000\000\313\306y6t\317\357?\000\000\000\000\000\000\000\000\265\2414v\370\224\273?\000\000\000\000\000\000\000\000\316\257\263\360YJ\215?\000\000\000\000\000\000\000\000\271\305\030\372\306d`?\000\000\000\000\000\000\000\000\376MgV\324\3152?\000\000\000\000\000\000\000\000P}\rp\356\337\005?\000\000\000\000\000\000\000\000\002\014\216=r\256\331>\000\000\000\000\000\000\000\000\320\315\353\354\201X\256>\000\000\000\000\000\000\000\000\370V\374/\273\003\202>\000\000\000\000\000\000\000\000\236N\014\371\262wU>\000\000\000\000\000\000\000\0000\362\363\220V\250)>\000\000\000\000\000\000\000\000\301y%F\027\275\376=\000\000\000\000\000\000\000\000%\343b\312\017s\322=\214\220&LJx\357?6k\033\027\346\327\306?\213\272\222\220\200+\240?\\\033U\276>\033k?\317\360\245\267\246\";?\311\326L\033\027\236\001?\247\222\241\232\316\314\314>{\3369q\036\233\217>\264\227\236+d_V>\016\230\207\2012\247\025>\006\014\331\217\"k\333=\tc\242%\334\000\230=\000\000\000\000\000\000\000\000\000\000\000\000\000\000\000\000\000\000\000\000\000\000\000\000\000\000\000\000\000\000\000\000\000\000\000\000\000\000\000\000\000\000\000\000\000\000\000\000\000\000\000\000\000\000\000\000\000\000\000\000\000\000\000\000\000\000\000\000\000\000\000\000\000\000\000\000\000\000\000\000\000\000\000\000\000\000\000\000\000\000\000\000\000\000\000\000\000\000\000\000\000\000\000\000\331\005\240\266\032\342\357?\000\000\000\000\000\000\000\000\000\000\000\000\000\000\000\0007\241H\252\307\330\265?\000\000\000\000\000\000\000\000\000\000\000\000\000\000\000\000\036\276\354@T\307Z?\000\000\000\000\000\000\000\000\000\000\000\000\000\000\000\0009\022\334D1\004\360>\000\000\000\000\000\000\000\000\000\000\000\000\000\000\000\000\232\034\267hV\255w>\000\000\000\000\000\000\000\000\000\000\000\000\000\000\000\000]\237\220\262\270V\370=\000\000\000\000\000\000\000\000\000\000\000\000\000\000\000\000\000\000\000\000\000\000\000\000\000\000\000\000\000\000\000\000\000\000\000\000\000\000\000\000\000\000\000\000\000\000\000\000\000\000\000\000\000\000\000\000\000\000\000\000\000\000\000\000\000\000\000\000\000\000\000\000\000\000\000\000\000\000\000\000\000\000\000\000\000\000\000\000\000\000\000\000\000\000\000\000\000\000\000\000\000\000\000\000\000\000\000\000\000\000\000\000\000\000\000\000\000\000\000\000\000\000\000\000\000\000\000\000\000\000\000\000\000\000\000\000\000\000\000\000\000\000\000\000\000\000\000\000\000\000\000\000\000\000\000\000\000\000\000\000\000\000\000\000\000\000\000\000\000\000\000\000\000\000\000\000\000\000\000\000\000\000\000\000\000\000\000\000\000\000\000\000\000\000\000\000\000\000\000\000\000\000\000\000\000\000\000\000\000\000\000\000\000\000\000\000\000\000\000\000\000\000\000\000\000\000\000\000\000\000\000\000\000\000\000\000\000\000\000\000\000\000\000\000\000\000\000\000\000\000\000\000\000\000\000\000\000\000\000\000\000\000\360?\000\000\000\000\000\000\000\000h\230\304\270\303\255\355?\000\000\000\000\000\000\000\000\\\035\243\316\260g\325?\000\000\000\000\000\000\000\000\r3\322\252K\350\302?\000\000\000\000\000\000\000\000u\310\177\371\307\232\261?\000\000\000\000\000\000\000\000)3\242\256\337\313\240?\000\000\000\000\000\000\000\000\037\033\033\321\250@\220?\000\000\000\000\000\000\000\000\207\027\301\017\036\276\177?\000\000\000\000\000\000\000\000|\207\025\244\3332o?\000\000\000\000\000\000\000\000\273x\322\223\242\317^?\000\000\000\000\000\000\000\000\234\323L0q\212N?\000\000\000\000\000\000\000\000A\000B\321\235\\>?\000\000\000\000\000\000\000\000\304\334\300\353\205A.?\000\000\000\000\000\000\000\000eq\366\326\3225\036?\315\207\217P\211>\357?\262\333.N,W\312?49\007\026\317\265\260?\214+\244\376RD\200?\333,\214\345*0]?\030\023\244\304^\002&?\357\202\260\337Z\037\000?w\0371\235\235\214\304>\271^*Q\223\022\232>\201\345\031\360\254N]>W\305{\231$\2410>\245-\316\204{\350\360=\014\357\\h\036\204\301=\312%s\016^Y\200=\000\000\000\000\000\000\000\000\000\000\000\000\000\000\000\000\000\000\000\000\000\000\000\000\000\000\000\000\000\000\000\000\000\000\000\000\000\000\000\000\000\000\000\000\000\000\000\000\000\000\000\000\000\000\000\000\000\000\000\000\000\000\000\000\000\000\000\000\000\000\000\000\000\000\000\000\000\000\000\000\000\000\000\000\000\000\000\000\245\000\330\372\377\377\357?\000\000\000\000\000\000\000\000\000\000\000\000\000\000\000\000\215{\253lw*\"?\000\000\000\000\000\000\000\000\000\000\000\000\000\000\000\000d\342.\014\221r2>\000\000\000\000\000\000\000\000\000\000\000\000\000\000\000\000\000\000\000\000\000\000\000\000\000\000\000\000\000\000\000\000\000\000\000\000\000\000\000\000\000\000\000\000\000\000\000\000\000\000\000\000\000\000\000\000\000\000\000\000\000\000\000\000\000\000\000\000\000\000\000\000\000\000\000\000\000\000\000\000\000\000\000\000\000\000\000\000\000\000\000\000\000\000\000\000\000\000\000\000\000\000\000\000\000\000\000\000\000\000\000\000\000\000\000\000\000\000\000\000\000\000\000\000\000\000\000\000\000\000\000\000\000\000\000\000\000\000\000\000\000\000\000\000\000\000\000\000\000\000\000\000\000\000\000\000\000\000\000\000\000\000\000\000\000\000\000\000\000\000\000\000\000\000\000\000\000\000\000\000\000\000\360?\000\000\000\000\000\000\000\000\000\000\000\000\000\000\000\000\000\000\000\000\000\000\000\000\000\000\000\000\000\000\000\000\000\000\000\000\000\000\000\000\000\000\000\000\000\000\000\000\000\000\000\000\000\000\000\000\000\000\000\000\000\000\000\000\000\000\000\000\000\000\000\000\000\000\000\000\000\000\000\000\000\000\000\000\000\000\000\000\000\000\000\000\000\000\000\000\000\000\000\000\000\000\000\000\000\000\000\000\000\000\000\000\000\000\000\000\000\000\000\000\000\000\000\000\000\000\000\000\000\000\000\000\000\000\000\000\000\000\000\000\000\000\000\000\000\000\000\000\000\000\000\000\000\000\000\000\000\000\000\000\214\265\266\027\235\356\356?\000\000\000\000\000\000\000\000\207\303(\232H,\317?\000\000\000\000\000\000\000\000p\313R\375\366<\263?\000\000\000\000\000\000\000\000gY\372s\236\007\231?\000\000\000\000\000\000\000\000\004\356\237\266?\257\200?\000\000\000\000\000\000\000\000\302\257\025M\034\217f?\000\000\000\000\000\000\000\000t\254D\\o\310N?\000\000\000\000\000\000\000\000\003\032\356\002n#5?\000\000\000\000\000\000\000\000\270\021D\r\235+\035?\000\000\000\000\000\000\000\000$x\270l\2273\004?\000\000\000\000\000\000\000\000\211\267oZ\020\020\354>\000\000\000\000\000\000\000\000\344[P\005\302\211\323>\000\000\000\000\000\000\000\000\317\t\355\213\214B\273>M\235\265{\366\374\357?\266\315;\220\300\000\207?gU\362/\222e\231?\275iQ\177\234\026%?b\367\335\327\247v0?\2648\374[\246-\265>2\256\232\366\337\377\272>n4!\000\205Z=>\2714\207BC4@>\224oyG\315\022\277=\246\352`\232\254\252\276=\000\000\000\000\000\000\000\000\000\000\000\000\000\000\000\000\000\000\000\000\000\000\000\000\000\000\000\000\000\000\000\000\000\000\000\000\000\000\000\000\000\000\000\000\000\000\000\000\000\000\000\000\000\000\000\000\000\000\000\000\000\000\000\000\000\000\000\000\000\000\000\000\000\000\000\000\000\000\000\000\000\000\000\000\000\000\000\000\000\000\000\000\000\000\000\000\000\000\000\000\000\000\000\000\000\000\000\000\000\000\000\000\266q\201\225\246\323\357?\000\000\000\000\000\000\000\000\000\000\000\000\000\000\000\000P\373\267\357B\230\272?\000\000\000\000\000\000\000\000\000\000\000\000\000\000\000\000\024\023\311\313q\340c?\000\000\000\000\000\000\000\000\000\000\000\000\000\000\000\000\363\333\373!\323\376\374>\000\000\000\000\000\000\000\000\000\000\000\000\000\000\000\000\004\360\251\027\333\"\212>\000\000\000\000\000\000\000\000\000\000\000\000\000\000\000\000_d\324.\271a\020>\000\000\000\000\000\000\000\000\000\000\000\000\000\000\000\000\307I\301\367\177\205\216=\000\000\000\000\000\000\000\000\000\000\000\000\000\000\000\000\000\000\000\000\000\000\000\000\000\000\000\000\000\000\000\000\000\000\000\000\000\000\000\000\000\000\000\000\000\000\000\000\000\000\000\000\000\000\000\000\000\000\000\000\000\000\000\000\000\000\000\000\000\000\000\000\000\000\000\000\000\000\000\000\000\000\000\000\000\000\000\000\000\000\000\000\000\000\000\000\000\000\000\000\000\000\000\000\000\000\000\000\000\000\000\000\000\000\000\000\000\000\000\000\000\000\000\000\000\000\000\000\000\000\000\000\000\000\000\000\000\000\000\000\000\000\000\000\000\000\000\000\000\000\360?\000\000\000\000\000\000\000\000\000\000\000\000\000\000\000\000\000\000\000\000\000\000\000\000\000\000\000\000\000\000\000\000\000\000\000\000\000\000\000\000\000\000\000\000\000\000\000\000\000\000\000\000\000\000\000\000\000\000\000\000\000\000\000\000\000\000\000\000\000\000\000\000\000\000\000\000\000\000\000\000\000\000\000\000\000\000\000\000\000\000\000\000\000\000\000\000\024\227\217.\036*\356?\000\000\000\000\000\000\000\000\306m\335&\272\221\323?\000\000\000\000\000\000\000\000\376\t$\260\376\030\277?\000\000\000\000\000\000\000\000e\355^\353\230\013\252?\000\000\000\000\000\000\000\000\312F\"S=Z\226?\000\000\000\000\000\000\000\000=]O\204\224t\203?\000\000\000\000\000\000\000\000\215\361o\235\000\027q?\000\000\000\000\000\000\000\000\362UT\037\3347^?\000\000\000\000\000\000\000\000\307e\331\025\017\330J?\000\000\000\000\000\000\000\000\313\212\257\255G\3577?\000\000\000\000\000\000\000\000?\271MiCg%?\000\000\000\000\000\000\000\000\214\366\363\007}/\023?\000\000\000\000\000\000\000\000:OZ8F;\001?!\346\330\211i\355\353?1\214Z\351t\270\317?4\034c_\346\027\332?\366\355I\nu\034\261?\316s\317\210\357\347\263?\213\344a\257\0029\204?\034\364\236Im5\203?\341\324\313\317\032~P?\354*\303+8\"K?\335\r\274\371\306\213\024?\330\320\260d\326;\016?\020\224\351\2417\265\324>\270N\022\241#\321\313>\ny/\021\233\206\221>p\324m\366\313\313\205>\276\333\267\031\200\221I>\201XF\300\232\276=>z\272s\276Lc\000>\031\315\306\310i\371\361=<\027d+\017\274\262=i\231\330\177b~\243=\000\000\000\000\000\000\000\000\000\000\000\000\000\000\000\000\000\000\000\000\000\000\000\000\000\000\000\000\000\000\000\000\254\244\303\370\377\377\357?\000\000\000\000\000\000\000\000\000\000\000\000\000\000\000\000\206$\210h\376\204%?\000\000\000\000\000\000\000\000\000\000\000\000\000\000\000\000\345\243\313e1\3439>\000\000\000\000\000\000\000\000\000\000\000\000\000\000\000\000\000\000\000\000\000\000\000\000\000\000\000\000\000\000\000\000\000\000\000\000\000\000\000\000\000\000\000\000\000\000\000\000\000\000\000\000\000\000\000\000\000\000\000\000\000\000\000\000\000\000\000\000\000\000\000\000\000\000\000\000\000\000\000\000\000\000\000\000\000\000\000\000\000\000\000\000\000\000\000\000\000\000\000\000\000\000\000\000\000\000\000\000\000\000\000\000\000\000\000\000\000\000\000\000\000\000\000\000\000\000\000\000\000\000\000\000\000\000\000\000\000\000\000\000\000\000\000\000\000\000\000\000\000\000\000\000\000\000\000\000\000\000\000\000\000\000\000\000\000\000\000\000\000\000\000\000\000\000\000\000\000\000\000\000\000\000\000\000\000\000\000\000\000\000\000\000\000\000\000\000\000\000\000\000\000\000\000\000\000\000\000\000\000\000\000\000\000\000\000\000\000\000\000\000\000\000\000\000\000\000\000\000\000\000\000\000\000\000\000\000\000\000\000\000\000\000\000\000\000\000\000\000\000\000\000\000\000\000\000\000\000\000\000\000\000\000\000\000\000\000\000\000\000\000\000\000\000\000\000\000\000\000\000\000\000\000\000\000\000\000\000\000\000\000\000\000\000\000\000\000\000\000\000\000\000\000\000\000\000\000\000\000\000\000\000\000\000\000\000\000\000\000\000\000\000\000\000\000\000\000\000\000\000\000\000\000\000\000\000\000\000\000\000\000\000\000\360?9\275\214\323\327u\354?\000\000\000\000\000\000\000\000\276\020\316\024\352\237\330?\000\000\000\000\000\000\000\000\210$*>\'\030\312?\000\000\000\000\000\000\000\000\320{\t\246\302%\275?\000\000\000\000\000\000\000\0008\211\320\353R\256\260?\000\000\000\000\000\000\000\000\024\322\250B\031]\243?\000\000\000\000\000\000\000\000\237r5?\\\257\226?\000\000\000\000\000\000\000\000[\025\263\206\177\277\212?\000\000\000\000\000\000\000\000\010d\\\345\247\260\177?\000\000\000\000\000\000\000\000A\334\361\267\214\327r?\000\000\000\000\000\000\000\000\203\343\366\023\273xf?\000\000\000\000\000\000\000\000\32679NL\335Z?\000\000\000\000\000\000\000\000\216*{\241\377\026P?7d\362>! \354?\020\236\213\027\375\003\331?\322L\021Yl\322\320?\257\204\2601\312F\261?\257\016\333L\024n\240?b\267\220\222\032$z?\321R\253\373XLd?_\002\013\373uK;?\037v\257\341\310Z\"?c\366\252\331L\304\365>\315\370\351i\031/\332>n\235\335rW\026\254>\317\034=\374\336\327\216>\335{\225\265\030o^>Kn\362\353\353\360>>}Z\356\240 l\014>:*\343|\233\007\353= %k\273\266R\267=\315\003\271\024\013\265\224=\000\000\000\000\000\000\000\000\000\000\000\000\000\000\000\000\000\000\000\000\000\000\000\000\000\000\000\000\000\000\000\000\000\000\000\000\000\000\000\000\000\000\000\000\000\000\000\000\261-\036\221\207V\357?\000\000\000\000\000\000\000\000\000\000\000\000\000\000\000\000\342\317\215M\244\337\311?\000\000\000\000\000\000\000\000\000\000\000\000\000\000\000\000\\\210#\224U\033\203?\000\000\000\000\000\000\000\000\000\000\000\000\000\000\000\000\203F8\365\020\212+?\000\000\000\000\000\000\000\000\000\000\000\000\000\000\000\000Y\r\366i\364\206\310>\000\000\000\000\000\000\000\000\000\000\000\000\000\000\000\000\331\003\223\"\027a^>\000\000\000\000\000\000\000\000\000\000\000\000\000\000\000\000\035t=c\365\030\354=\000\000\000\000\000\000\000\000\000\000\000\000\000\000\000\000\000\000\000\000\000\000\000\000\000\000\000\000\000\000\000\000\000\000\000\000\000\000\000\000\000\000\000\000\000\000\000\000\000\000\000\000\000\000\000\000\000\000\000\000\000\000\000\000\000\000\000\000\000\000\000\000\000\000\000\000\000\000\000\000\000\000\000\000\000\000\000\000\000\000\000\000\000\000\000\000\000\000\000\000\000\000\000\000\000\000\000\000\000\000\000\000\000\000\000\000\000\000\000\000\000\000\000\000\000\000\000\000\000\000\000\000\000\000\000\000\000\000\000\000\000\000\000\000\000\000\000\000\000\000\000\000\000\000\000\000\000\000\000\000\000\000\000\000\000\000\000\000\000\000\000\000\000\000\000\000\000\000\000\000\000\000\000\000\000\000\000\000\000\000\360?\000\000\000\000\000\000\000\000\000\000\000\000\000\000\000\000\000\000\000\000\000\000\000\000\000\000\000\000\000\000\000\000\000\000\000\000\000\000\000\000\000\000\000\000\000\000\000\000\000\000\000\000\000\000\000\000x\242I7\350`\357?\000\000\000\000\000\000\000\000\313%,\345\324`\310?\000\000\000\000\000\000\000\000\336\034\236\257=2\247?\000\000\000\000\000\000\000\000\232\210\205@\366C\207?\000\000\000\000\000\000\000\000\"w\360\363A\351g?\000\000\000\000\000\000\000\000\032\233\232\233a\354H?\000\000\000\000\000\000\000\000|\360\"$\3057*?\000\000\000\000\000\000\000\0003?T\310\021\302\013?\000\000\000\000\000\000\000\000\r\006m\002\236\207\355>\000\000\000\000\000\000\000\000B|\331\357\327\207\317>\000\000\000\000\000\000\000\000\177D\340t\013\342\260>\000\000\000\000\000\000\000\000\265=\262\006\203\037\222>\000\000\000\000\000\000\000\000F\217\274g+~s>\022\302\232\336}\200\304?Z\267\005\235\222\204\357??\261VQZ\027\222?\010\023\370\325\243\016\260?\013\205\306\343\256\021J?\024\330\310g4\354a?\301\345G\255\030\302\367>\210\210\231\275\377\233\013?!\247s\207\014\262\237>\254z\n\202\361=\260>\356\316t\006a\255@>:\227\"\370\270\353N>\336\304\343\006\262\373\334=F}&\262 \267\350=\000\000\000\000\000\000\000\000\000\000\000\000\000\000\000\000\000\000\000\000\000\000\000\000\000\000\000\000\000\000\000\000\000\000\000\000\000\000\000\000\000\000\000\000\000\000\000\000\000\000\000\000\000\000\000\000\000\000\000\000\000\000\000\000\000\000\000\000\000\000\000\000\000\000\000\000\000\000\000\000\000\000\000\000\000\000\000\000S\270\302\3541\377\357?\000\000\000\000\000\000\000\000\000\000\000\000\000\000\000\000;?L\304\264\265\214?\000\000\000\000\000\000\000\000\000\000\000\000\000\000\000\000w\373~ir\n\007?\000\000\000\000\000\000\000\000\000\000\000\000\000\000\000\000\310\202\341\347\252\013r>\000\000\000\000\000\000\000\000\000\000\000\000\000\000\000\000\264U\356\227bw\321=\000\000\000\000\000\000\000\000\000\000\000\000\000\000\000\000\000\000\000\000\000\000\000\000\000\000\000\000\000\000\000\000\000\000\000\000\000\000\000\000\000\000\000\000\000\000\000\000\000\000\000\000\000\000\000\000\000\000\000\000\000\000\000\000\000\000\000\000\000\000\000\000\000\000\000\000\000\000\000\000\000\000\000\000\000\000\000\000\000\000\000\000\000\000\000\000\000\000\000\000\000\000\000\000\000\000\000\000\000\000\000\000\000\000\000\000\000\000\000\000\000\000\000\000\000\000\360?\000\000\000\000\000\000\000\000\000\000\000\000\000\000\000\000\000\000\000\000\000\000\000\000\000\000\000\000\000\000\000\000\000\000\000\000\000\000\000\000\000\000\000\000\000\000\000\000\000\000\000\000\000\000\000\000\000\000\000\000\000\000\000\000\000\000\000\000\000\000\000\000\000\000\000\000\000\000\000\000\000\000\000\000\000\000\000\000\000\000\000\000\000\000\000\000\000\000\000\000\000\000\000\000\000\000\000\000\000\000\000\000\000\000\000\000\000\000\000\000\000\000\000\000\000\000\000\000\000\000\000\000\000\000\000\000\000\000\000\000\000\000\000\000\000\000\000\000\000\000\000\000\000\000\000\000\000\000\000\000\000\000\000\000\000\000\000\000\242W\303\220~/\352?\000\000\000\000\000\000\000\000\305\005\r\233\t\201\333?\000\000\000\000\000\000\000\000\331&F\370\330\260\321?\000\000\000\000\000\000\000\000\002qY[\036\375\307?\000\000\000\000\000\000\000\000\361v\217m\200\252\300?\000\000\000\000\000\000\000\000\361BU6W|\267?\000\000\000\000\000\000\000\000\213?\343\246T\263\260?\000\000\000\000\000\000\000\000\241\214\235\261\252\347\247?\000\000\000\000\000\000\000\000\216\262\343{\3220\241?\000\000\000\000\000\000\000\000\216\332\357\366\347\320\230?\000\000\000\000\000\000\000\000\n\326\325@\350\366\221?\000\000\000\000\000\000\000\000\237\265\352\202C\022\212?\000\000\000\000\000\000\000\000!\tmE\257\364\202?\241tD<\376\177\354?\356-0\000Z\027\313?\226]\033gU\035\331?C\271\023\377\374\220\253?\366}\201\305\365\021\262?\376\367\336i \272~?\236h\221\357&r\200?\351|\335\215\205\242G?\342\267\233\023\020\351E?\257\332\371<\023\305\013?+\257n\347\235\006\007?\035\264G\253\304e\312>\030\332\032\251\034\373\303>!\336\031\2724\022\205>\364\222\3011?\210}>\317\264\241\334:\376<>|<\031\240a\0013>a\256\0352\314\206\361=\237V\300\222\350\251\345=*\266!\036\266\345\242=\205#Bp\352\006\226=\000\000\000\000\000\000\000\000\000\000\000\000\000\000\000\000\000\000\000\000\000\000\000\000\000\000\000\000\000\000\000\000\220\263\260\376\377\377\357?\000\000\000\000\000\000\000\000\000\000\000\000\000\000\000\000\315\211\3173\250O\022?\000\000\000\000\000\000\000\000\000\000\000\000\000\000\000\000x\301\250!g\276\022>\000\000\000\000\000\000\000\000\000\000\000\000\000\000\000\000\000\000\000\000\000\000\000\000\000\000\000\000\000\000\000\000\000\000\000\000\000\000\000\000\000\000\000\000\000\000\000\000\000\000\000\000\000\000\000\000\000\000\000\000\000\000\000\000\000\000\000\000\000\000\000\000\000\000\000\000\000\000\000\000\000\000\000\000\000\000\000\000\000\000\000\000\000\000\000\000\000\000\000\000\000\000\000\000\000\000\000\000\000\000\000\000\000\000\000\000\000\000\000\000\000\000\000\000\000\000\000\000\000\000\000\000\000\000\000\000\000\000\000\000\000\000\000\000\000\000\000\000\000\000\000\000\000\000\000\000\000\000\360?\000\000\000\000\000\000\000\000\000\000\000\000\000\000\000\000\000\000\000\000\000\000\000\000\000\000\000\000\000\000\000\000\000\000\000\000\000\000\000\000\000\000\000\000\000\000\000\000\000\000\000\000\000\000\000\000\000\000\000\000\000\000\000\000\000\000\000\000\000\000\000\000\000\000\000\000\000\000\000\000\000\000\000\000\000\000\000\000\000\000\000\000\000\000\000\000\000\000\000\000\000\000\000\000\000\000\000\000\000\000\000\000\000\000\000\000\000\000\000\000\000\000\000\000\000\000\000\000\000\000\000\000\000\000\000\000\000\000\000\000\000\000\000\000\000\000\000\000\000\000\000\000\000\000\000\000\000\000\000\000\000\000\000\000\000\000\000\000\000\000\000\000\000\000\000\000\000\000\000\000\000\000\000\000\372\306v\034\024\352\357?\000\000\000\000\000\000\000\000\223YR\352\373\243\262?\000\000\000\000\000\000\000\000o\250E?F\253z?\000\000\000\000\000\000\000\000\234\354\253\n\022\034D?\000\000\000\000\000\000\000\000\035\220\026@z\023\017?\000\000\000\000\000\000\000\000\354)\244\025\037Z\330>\000\000\000\000\000\000\000\000FW|^?B\243>\000\000\000\000\000\000\000\000\275\324e\210\242\250n>\000\000\000\000\000\000\000\000b\357\301\3548\2058>\000\000\000\000\000\000\000\000B\\0\\\375\256\003>\000\000\000\000\000\000\000\000\177\236\277\252\306\261\317=\000\000\000\000\000\000\000\000\342\020\302\213\001\224\231=\000\000\000\000\000\000\000\000\000\000\000\000\000\000\000\000w\226\341\177:\304\330?\024\005\276\244\250\323\353?%\261)\036\365\240\307?Q\212o\227\315\247\316?\021\231\363\217\016h\242?\320H\352&^\177\242?\331\2536\376\004#r?\237\265\265\357\365\316n?H!\031\332\032):?3\222/\365k\2303?h\031\246\274\331\303\375>\303\2465\200\267*\364>e\017\3519\314\366\273>\260\032\236R\251m\261>i\274\2756\303_v>\353-\374\330\221\366i>j=2\273\231-/>G\203\364p\013\376 >\202\372H\225\n=\343=\204\001Q\271\373\325\323=d\367y\220+N\225=\221\357R \247\301\202=\000\000\000\000\000\000\000\000\000\000\000\000\000\000\000\000\000\000\000\000\000\000\000\0000p\036\341\377\377\357?\000\000\000\000\000\000\000\000\000\000\000\000\000\000\000\000\'\2346Er:6?\000\000\000\000\000\000\000\000\000\000\000\000\000\000\000\000\306L\300\026\363\236[>\000\000\000\000\000\000\000\000\000\000\000\000\000\000\000\000\000\000\000\000\000\000\000\000\000\000\000\000\000\000\000\000\000\000\000\000\000\000\000\000\000\000\000\000\000\000\000\000\000\000\000\000\000\000\000\000\000\000\000\000\000\000\000\000\000\000\000\000\000\000\000\000\000\000\000\000\000\000\000\000\000\000\000\000\000\000\000\000\000\000\000\000\000\000\000\000\000\000\000\000\000\000\000\000\000\000\000\000\000\000\000\000\000\000\000\000\000\000\000\000\000\000\000\000\000\000\000\000\000\000\000\000\000\000\000\000\000\000\000\000\000\000\000\000\000\000\000\000\000\000\000\000\000\000\000\000\000\000\000\000\000\000\000\000\000\000\000\000\000\000\000\000\000\000\000\000\000\000\000\000\000\000\000\000\000\000\000\000\000\000\000\000\000\000\000\000\000\000\000\000\000\000\000\000\000\000\000\000\000\000\000\000\000\000\000\000\000\000\000\000\000\000\000\000\000\000\000\000\000\000\000\000\000\000\000\000\000\000\000\000\000\000\000\000\000\000\000\000\000\000\000\000\000\000\000\000\000\000\000\000\000\000\000\000\000\000\000\000\000\000\000\000\000\000\000\000\000\000\000\000\000\000\000\000\000\000\000\000\000\000\000\000\000\000\000\000\000\000\000\000\000\000\000\000\000\000\000\000\000\000\000\000\000\000\000\000\000\000\000\000\000\000\000\000\000\000\000\000\000\000\000\000\000\000\000\000\000\000\000\000\000\000\360?\013u\374\335\332`\356?\000\000\000\000\000\000\000\0006\347!\354L\236\322?\000\000\000\000\000\000\000\000-K1\263h\363\273?\000\000\000\000\000\000\000\000\235w\t\325\217\035\246?\000\000\000\000\000\000\000\000\263\332\177&6\356\221?\000\000\000\000\000\000\000\000/\335\306\343\305|}?\000\000\000\000\000\000\000\000\2032g\004Txh?\000\000\000\000\000\000\000\000\231\375F\032\025pT?\000\000\000\000\000\000\000\000\271\225\000\t\344&A?\000\000\000\000\000\000\000\000\016\034\023J!\345,?\000\000\000\000\000\000\000\000\3738\026\230\031i\030?\000\000\000\000\000\000\000\000\213{\225\261\333\253\004?\000\000\000\000\000\000\000\000\204\336\244D!\212\361>u\374\343\241\257\316\343?\233\033\316gn[\346?6\335n\234~\353\322?t \033\217\275\250\310?\305\336\240\232\003\203\255?\002\207P*I\313\235? g\006\240.\035}?\362I\335\226X\327h?v\224\362Y\244\005E?S\245\337\3038\243/?\346z\007\366l\362\007?\205\t\'\177\253L\360>=\212u\271X\206\306>\375r\225\026\2614\254>\245j\004\221&\013\202>\222\345}2\302\010e>m\246\351\213j,9>\330h\307+\321\220\033>\253A\305T\202\032\357=\200I\321Z\301\033\320=\240\202\243\221;>\241=\000\000\000\000\000\000\000\000\000\000\000\000\000\000\000\000\000\000\000\000\000\000\000\000\000\000\000\000\000\000\000\000(I\342\345E\353\357?\000\000\000\000\000\000\000\000\000\000\000\000\000\000\000\000\205\275\265\027i2\262?\000\000\000\000\000\000\000\000\000\000\000\000\000\000\000\000\037C\360\027\274\216R?\000\000\000\000\000\000\000\000\000\000\000\000\000\000\000\000}\356\316\223 x\342>\000\000\000\000\000\000\000\000\000\000\000\000\000\000\000\000\344\375\353\200Y\267f>\000\000\000\000\000\000\000\000\000\000\000\000\000\000\000\000\265\227I\250\221m\343=\000\000\000\000\000\000\000\000\000\000\000\000\000\000\000\000\000\000\000\000\000\000\000\000\000\000\000\000\000\000\000\000\000\000\000\000\000\000\000\000\000\000\000\000\000\000\000\000\000\000\000\000\000\000\000\000\000\000\000\000\000\000\000\000\000\000\000\000\000\000\000\000\000\000\000\000\000\000\000\000\000\000\000\000\000\000\000\000\000\000\000\000\000\000\000\000\000\000\000\000\000\000\000\000\000\000\000\000\000\000\000\000\000\000\000\000\000\000\000\000\000\000\000\000\000\000\000\000\000\000\000\000\000\000\360?\000\000\000\000\000\000\000\000\000\000\000\000\000\000\000\000\000\000\000\000\000\000\000\000\000\000\000\000\000\000\000\000\000\000\000\000\000\000\000\000\000\000\000\000\000\000\000\000\000\000\000\000\000\000\000\000\000\000\000\000\000\000\000\000\000\000\000\000\000\000\000\000\000\000\000\000\000\000\000\000\000\000\000\000\000\000\000\000\000\000\000\000\000\000\000\000\000\000\000\000\000\000\000\000\000\000\000\000\000\000\000\000\000\000\000\000\000\000\000\000\000\000\000\000\000\000\000\000\000\000\000\000\000\000\000\000F\027\251,\222\004\355?\000\000\000\000\000\000\000\000\316\300q\263<Z\327?\000\000\000\000\000\000\000\000$\234\332\365R\004\307?\000\000\000\000\000\000\000\000\345:\014\312\313\351\267?\000\000\000\000\000\000\000\000\273\27368Eu\251?\000\000\000\000\000\000\000\000<\321\307\223\266|\233?\000\000\000\000\000\000\000\000\301+\320\371\224\363\215?\000\000\000\000\000\000\000\000\016w\224^\213l\200?\000\000\000\000\000\000\000\000\212b]\247D\031r?\000\000\000\000\000\000\000\000\232\023\003)\225\004d?\000\000\000\000\000\000\000\000\236\327\324}\2444V?\000\000\000\000\000\000\000\000,yY\211\372\260H?\000\000\000\000\000\000\000\000\211\202\376Fz\202;?A8G\200\245f\353?\271Ue\035\373O\222?\217\334Z\347\330\r\340?]\353\032\322&\307x?3\016\2760L\270\276?\302g\336d\361\\R?a7\370\252\303\226\222?A\326t\323:\310\"?\231\255:JDw`?\024\304\223\336PX\355>\354F\025\247\226\002\'?+\035\335\256\350\213\262>\241\235\247[%\215\352>M\357\354K\226\257s>7\315\257+\207\027\252>P=S\257j\0022>\322\267\233w\tTf>va\313\256\026\364\354=\231\300i\346\001\354 >\273\037F\261?\301\244=\346\367\312\321C\004\327=\000\000\000\000\000\000\000\000-\227}U\303\027\212=\000\000\000\000\000\000\000\000\000\000\000\000\000\000\000\000\356\353K\374\370\377\357?\000\000\000\000\000\000\000\000\000\000\000\000\000\000\000\000\317\302\333\343\0260e?\000\000\000\000\000\000\000\000\000\000\000\000\000\000\000\000\344\341\"3\203\030\271>\000\000\000\000\000\000\000\000\000\000\000\000\000\000\000\000\341\363A+\021\002\375=\000\000\000\000\000\000\000\000\000\000\000\000\000\000\000\000\000\000\000\000\000\000\000\000\000\000\000\000\000\000\000\000\000\000\000\000\000\000\000\000\000\000\000\000\000\000\000\000\000\000\000\000\000\000\000\000\000\000\000\000\000\000\000\000\000\000\000\000\000\000\000\000\000\000\000\000\000\000\000\000\000\000\000\000\000\000\000\000\000\000\000\000\000\000\000\000\000\000\000\000\000\000\000\000\000\000\000\000\000\000\000\000\000\000\000\000\000\000\000\000\000\000\000\000\000\000\000\000\000\000\000\000\000\000\000\000\000\000\000\000\000\000\000\000\000\000\000\000\000\000\000\000\000\000\000\000\000\000\000\000\000\000\000\000\000\000\000\000\000\000\000\000\000\000\000\000\000\000\000\000\000\000\000\000\000\000\000\000\000\000\000\000\000\000\000\000\000\000\360?\000\000\000\000\000\000\000\000\000\000\000\000\000\000\000\000\000\000\000\000\000\000\000\000\000\000\000\000\000\000\000\000\000\000\000\000\000\000\000\000\000\000\000\000\000\000\000\000\000\000\000\000\000\000\000\000\000\000\000\000\000\000\000\000\000\000\000\000\000\000\000\000\000\000\000\000\000\000\000\000\000\000\000\000\000\000\000\000\000\000\000\000\000\000\000\000\000\000\000\000\000\000\000\000\000\000\000\000\000\000\000\000\000\000\000\000\000\000\000\000\306\017\320R\224\376\357?\000\000\000\000\000\000\000\000\244\356\302:\204\020\223?\000\000\000\000\000\000\000\000\261\256\016k|\323;?\000\000\000\000\000\000\000\000}\017\350\314\327g\345>\000\000\000\000\000\000\000\000\340\213\223G\214\337\220>\000\000\000\000\000\000\000\000\256,\r\237v\372:>\000\000\000\000\000\000\000\000\255\014x%6\304\345=\000\000\000\000\000\000\000\000mu\0343\322\254\221=\000\000\000\000\000\000\000\000\000\000\000\000\000\000\000\000\000\000\000\000\000\000\000\000\000\000\000\000\000\000\000\000\000\000\000\000\000\000\000\000\000\000\000\000\000\000\000\000\000\000\000\000\000\000\000\000\000\000\000\000\000\000\000\000\000\000\000\000\000\000\000\000\000\000\000\000\000\000\000\000\241\337<\244Z2\345?d/\254\352\246O\343?\016\037\302;\262\203\330?\351\346\313\227\356\311\311?rUyk\035&\267?f\203\237;\371\334\242?U\357%fs\246\213?\266\212\004\376\322\ns?\300\223\244\263R,X?@\307\001\264\036]=?{.\346\206\221\253 