node {
  name: "global_step/Initializer/zeros"
  op: "Const"
  attr {
    key: "_class"
    value {
      list {
        s: "loc:@global_step"
      }
    }
  }
  attr {
    key: "_output_shapes"
    value {
      list {
        shape {
        }
      }
    }
  }
  attr {
    key: "dtype"
    value {
      type: DT_INT64
    }
  }
  attr {
    key: "value"
    value {
      tensor {
        dtype: DT_INT64
        tensor_shape {
        }
        int64_val: 0
      }
    }
  }
}
node {
  name: "global_step"
  op: "VariableV2"
  attr {
    key: "_class"
    value {
      list {
        s: "loc:@global_step"
      }
    }
  }
  attr {
    key: "_output_shapes"
    value {
      list {
        shape {
        }
      }
    }
  }
  attr {
    key: "container"
    value {
      s: ""
    }
  }
  attr {
    key: "dtype"
    value {
      type: DT_INT64
    }
  }
  attr {
    key: "shape"
    value {
      shape {
      }
    }
  }
  attr {
    key: "shared_name"
    value {
      s: ""
    }
  }
}
node {
  name: "global_step/Assign"
  op: "Assign"
  input: "global_step"
  input: "global_step/Initializer/zeros"
  attr {
    key: "T"
    value {
      type: DT_INT64
    }
  }
  attr {
    key: "_class"
    value {
      list {
        s: "loc:@global_step"
      }
    }
  }
  attr {
    key: "_output_shapes"
    value {
      list {
        shape {
        }
      }
    }
  }
  attr {
    key: "use_locking"
    value {
      b: true
    }
  }
  attr {
    key: "validate_shape"
    value {
      b: true
    }
  }
}
node {
  name: "global_step/read"
  op: "Identity"
  input: "global_step"
  attr {
    key: "T"
    value {
      type: DT_INT64
    }
  }
  attr {
    key: "_class"
    value {
      list {
        s: "loc:@global_step"
      }
    }
  }
  attr {
    key: "_output_shapes"
    value {
      list {
        shape {
        }
      }
    }
  }
}
node {
  name: "global_step/IsVariableInitialized"
  op: "IsVariableInitialized"
  input: "global_step"
  attr {
    key: "_class"
    value {
      list {
        s: "loc:@global_step"
      }
    }
  }
  attr {
    key: "_output_shapes"
    value {
      list {
        shape {
        }
      }
    }
  }
  attr {
    key: "dtype"
    value {
      type: DT_INT64
    }
  }
}
node {
  name: "global_step/cond/Switch"
  op: "Switch"
  input: "global_step/IsVariableInitialized"
  input: "global_step/IsVariableInitialized"
  attr {
    key: "T"
    value {
      type: DT_BOOL
    }
  }
  attr {
    key: "_output_shapes"
    value {
      list {
        shape {
        }
        shape {
        }
      }
    }
  }
}
node {
  name: "global_step/cond/switch_t"
  op: "Identity"
  input: "global_step/cond/Switch:1"
  attr {
    key: "T"
    value {
      type: DT_BOOL
    }
  }
  attr {
    key: "_output_shapes"
    value {
      list {
        shape {
        }
      }
    }
  }
}
node {
  name: "global_step/cond/switch_f"
  op: "Identity"
  input: "global_step/cond/Switch"
  attr {
    key: "T"
    value {
      type: DT_BOOL
    }
  }
  attr {
    key: "_output_shapes"
    value {
      list {
        shape {
        }
      }
    }
  }
}
node {
  name: "global_step/cond/pred_id"
  op: "Identity"
  input: "global_step/IsVariableInitialized"
  attr {
    key: "T"
    value {
      type: DT_BOOL
    }
  }
  attr {
    key: "_output_shapes"
    value {
      list {
        shape {
        }
      }
    }
  }
}
node {
  name: "global_step/cond/read"
  op: "Identity"
  input: "global_step/cond/read/Switch:1"
  attr {
    key: "T"
    value {
      type: DT_INT64
    }
  }
  attr {
    key: "_output_shapes"
    value {
      list {
        shape {
        }
      }
    }
  }
}
node {
  name: "global_step/cond/read/Switch"
  op: "RefSwitch"
  input: "global_step"
  input: "global_step/cond/pred_id"
  attr {
    key: "T"
    value {
      type: DT_INT64
    }
  }
  attr {
    key: "_class"
    value {
      list {
        s: "loc:@global_step"
      }
    }
  }
  attr {
    key: "_output_shapes"
    value {
      list {
        shape {
        }
        shape {
        }
      }
    }
  }
}
node {
  name: "global_step/cond/Switch_1"
  op: "Switch"
  input: "global_step/Initializer/zeros"
  input: "global_step/cond/pred_id"
  attr {
    key: "T"
    value {
      type: DT_INT64
    }
  }
  attr {
    key: "_class"
    value {
      list {
        s: "loc:@global_step"
      }
    }
  }
  attr {
    key: "_output_shapes"
    value {
      list {
        shape {
        }
        shape {
        }
      }
    }
  }
}
node {
  name: "global_step/cond/Merge"
  op: "Merge"
  input: "global_step/cond/Switch_1"
  input: "global_step/cond/read"
  attr {
    key: "N"
    value {
      i: 2
    }
  }
  attr {
    key: "T"
    value {
      type: DT_INT64
    }
  }
  attr {
    key: "_output_shapes"
    value {
      list {
        shape {
        }
        shape {
        }
      }
    }
  }
}
node {
  name: "global_step/add/y"
  op: "Const"
  attr {
    key: "_output_shapes"
    value {
      list {
        shape {
        }
      }
    }
  }
  attr {
    key: "dtype"
    value {
      type: DT_INT64
    }
  }
  attr {
    key: "value"
    value {
      tensor {
        dtype: DT_INT64
        tensor_shape {
        }
        int64_val: 0
      }
    }
  }
}
node {
  name: "global_step/add"
  op: "Add"
  input: "global_step/cond/Merge"
  input: "global_step/add/y"
  attr {
    key: "T"
    value {
      type: DT_INT64
    }
  }
  attr {
    key: "_output_shapes"
    value {
      list {
        shape {
        }
      }
    }
  }
}
node {
  name: "dnn/input_from_feature_columns/input_layer/coefficients/Const"
  op: "Const"
  attr {
    key: "_output_shapes"
    value {
      list {
        shape {
          dim {
            size: 5000
          }
          dim {
            size: 25
          }
        }
      }
    }
  }
  attr {
    key: "dtype"
    value {
      type: DT_DOUBLE
    }
  }
  attr {
    key: "value"
    value {
      tensor {
        dtype: DT_DOUBLE
        tensor_shape {
          dim {
            size: 5000
          }
          dim {
            size: 25
          }
        }
        tensor_content: "\000\000\000\000\000\000\000\000\000\000\000\000\000\000\360?\000\000\000\000\000\000\000\000\000\000\000\000\000\000\000\000\000\000\000\000\000\000\000\000\000\000\000\000\000\000\000\000\000\000\000\000\000\000\000\000\000\000\000\000\000\000\000\000\000\000\000\000\000\000\000\000\000\000\000\000\000\000\000\000\000\000\000\000\000\000\000\000\000\000\000\000\000\000\000\000\000\000\000\000\000\000\000\000\000\000\000\000\000\000\000\000\000\000\000\000\000\000\000\000\000\000\000\000\000\000\000\000\000\000\000\000\000\000\000\000\000\000\000\000\000\000\000\000\000\000\000\000\000\000\000\000\000\000\000\000\000\000\000\000\000\000\000\000\000\000\000\000\000\000\000\000\000\000\000\000\000\000\000\000\000\000\000\000\000\000\000\000\000\000\000\000\000\000\000\000\000\000\000\000\'\265\247\243\352\377\357?\017\302\274\250\316uq?q\004u9LMX?\250$\262\034j\237\316>\242]\0372q#\256>\032\013\244\314\303j\035>\340\347\304\216\232\243\367=\000\000\000\000\000\000\000\000\000\000\000\000\000\000\000\000\000\000\000\000\000\000\000\000\000\000\000\000\000\000\000\000\000\000\000\000\000\000\000\000\000\000\000\000\000\000\000\000\000\000\000\000\000\000\000\000\000\000\000\000\000\000\000\000\000\000\000\000\000\000\000\000\000\000\000\000\000\000\000\000\000\000\000\000\000\000\000\000\000\000\000\000\000\000\000\000\000\000\000\000\000\000\000\000\000\000\000\000\000\000\000\000\000\000\000\000\000\000\000\000\000\000\000\000\000\000\000\000\000\000\000\000\000\000\000\000\000\000\000\000\000\000\000\000\001\324\016\212/{\356?\000\000\000\000\000\000\000\000\000\000\000\000\000\000\000\000\3405\263U\002o\323?\000\000\000\000\000\000\000\000\000\000\000\000\000\000\000\000E)M\361\004*\226?\000\000\000\000\000\000\000\000\000\000\000\000\000\000\000\0000\007\303tI\253H?\000\000\000\000\000\000\000\000\000\000\000\000\000\000\000\000\024\312\'\242V\367\360>\000\000\000\000\000\000\000\000\000\000\000\000\000\000\000\000\316\342\304I9:\220>\000\000\000\000\000\000\000\000\000\000\000\000\000\000\000\000{%\354 \375-\'>\000\000\000\000\000\000\000\000\000\000\000\000\000\000\000\000/#O\326N\357\271=\000\000\000\000\000\000\000\000\000\000\000\000\000\000\000\000\000\000\000\000\000\000\000\000\216^}DX,\357?\000\000\000\000\000\000\000\000\357\227\302Z\250\316\313?\000\000\000\000\000\000\000\000:\333x\336\020H\256?\000\000\000\000\000\000\000\000i.7\332}S\221?\000\000\000\000\000\000\000\000\370\300q#\330At?\000\000\000\000\000\000\000\000\237\0057\314C\364W?\000\000\000\000\000\000\000\000\310\366T\366w\203<?\000\000\000\000\000\000\000\000\025 \005\305\023\n!?\000\000\000\000\000\000\000\000\377\270\326\261\310j\004?\000\000\000\000\000\000\000\000z=\220\217\002\201\350>\000\000\000\000\000\000\000\000TN\326\207)p\315>\000\000\000\000\000\000\000\000\17750\021w\261\261>\000\000\000\000\000\000\000\000\245\037\375\235LF\225>0\251\2301a\035\344?N\273\241\324\231\377G?\240,\314Z\304!\332?\266a\300\231\200iI?\255/.r\035\312\324?\202\247\346\304\351XH?o\355\357q\362n\321?\264O]Yi\211G?\361\344G\252\223\366\315?\025\322\322l\021Z@?\203\331\356\215\020\036\312?g\247\003\222\244`M?w\200\246U}\354\306?\020\252h\357\221l\365>\311gt \345m\304?\272\333L%\355\345F?y\023\006\370Y\372\301?mO\324R\235U@?\340\311\234\023\361#\300?\360V(\022^`9?\032\362\031\026\267\020\275?h\361CJ\342\3143?\362\024\243\356\262\355\271?\026w\005~\371\271\023?\240\343\350\016OG\267?\271\272f\372HC\356?\000\000\000\000\000\000\000\000\000\000\000\000\000\000\000\000\000\000\000\000\000\000\000\000\000\000\000\000\000\000\000\000\000\000\000\000\000\000\000\000\000\000\000\000\000\000\000\000\000\000\000\000\000\000\000\000\000\000\000\000\000\000\000\000M\332\334\372\322\314\324?\000\000\000\000\000\000\000\000\000\000\000\000\000\000\000\000\000\000\000\000\000\000\000\000\000\000\000\000\000\000\000\000\000\000\000\000\000\000\000\000\000\000\000\000\000\000\000\000\000\000\000\000\000\000\000\000\000\000\000\000\000\000\000\000\000\000\000\000\000\000\000\000\000\000\000\000\000\000\000\000\000\000\000\000\000\000\000\000\000\000\000\000\000\000\000\000\000\000\000\000\000\000\000\000\000\000\000\000\000\000\000\000\000\000\000\000\000\000\000\000\000\000\000\000\000\000\000\000\000\000\000\000\000\000\000\000\000\000\000\000\000\000\000\000\000\000\000\000\000\000\000\000\000\000\000\000\000\000\000\000\000\000\000\000\000\000\000\000\000\000\000\000\000\000\000\000\000\000\000\000\000\000\000\000\000\000\000\000\000\000\000\000\000\000\000\000\000\000\000\000\000\000\000\000\000\000\000\000\000\000\000\000\000\000\360?\000\000\000\000\000\000\000\000\000\000\000\000\000\000\000\000\000\000\000\000\000\000\000\000\000\000\000\000\000\000\000\000\000\000\000\000\000\000\000\000\000\000\000\000\000\000\000\000\000\000\000\000\000\000\000\000\000\000\000\000\000\000\000\000\000\000\000\000\000\000\000\000\000\000\000\000\000\000\000\000\000\000\000\000\000\000\000\000\000\000\000\000\000\000\000\000\000\000\000\000\000\000\000\000\200\361,\r\334\356\336?\207\215\006r\205M\352?\267l\312\017,*\313?\017`\254\220\003\254\312?\373\353\\!Yz\243?[H\226\271\255\240\235?;Z\252$\203\252q?\267cx\336\357\265f?y\270\3746tt7?m\356>\333\220\227*?\323\323_\370e\220\370>`\017\211q\3350\351>E\024\036L\005>\265>>\263\370\376\345\t\244>\222\351=\304\322Io>\260\036F=<z[>\265\313\030u\362\020$>\020R\006?\232\215\020>\216\246\346=I\313\326=\033\372\351=I\311\301=B$\332b\335\245\206=\000\000\000\000\000\000\000\000\000\000\000\000\000\000\000\000\000\000\000\000\000\000\000\000\000\000\000\000\000\000\000\000\265\227\273\254\273\374\357?\000\000\000\000\000\000\000\000\000\000\000\000\000\000\000\0001\227A\275s\352\234?\000\000\000\000\000\000\000\000\000\000\000\000\000\000\000\000\347\242\335\0316a\'?\000\000\000\000\000\000\000\000\000\000\000\000\000\000\000\000\024\232\257\245\256r\242>\000\000\000\000\000\000\000\000\000\000\000\000\000\000\000\000\262\016\214CH\375\021>\000\000\000\000\000\000\000\000\000\000\000\000\000\000\000\000\365z\360p\n\211v=\000\000\000\000\000\000\000\000\000\000\000\000\000\000\000\000\000\000\000\000\000\000\000\000\000\000\000\000\000\000\000\000\000\000\000\000\000\000\000\000\000\000\000\000\000\000\000\000\000\000\000\000\000\000\000\000\000\000\000\000\000\000\000\000\000\000\000\000\000\000\000\000L\323\n6<\307\357?\000\000\000\000\000\000\000\000\343fQ\265\"\306\275?\000\000\000\000\000\000\000\000\262^\226\273\353\r\221?\000\000\000\000\000\000\000\000\260\005,\316\227\216d?\000\000\000\000\000\000\000\000\270hT\274QW9?\000\000\000\000\000\000\000\000i\365\227\377\037\235\017?\000\000\000\000\000\000\000\000\200b\354g\303\332\343>\000\000\000\000\000\000\000\000iM\213\215\376\010\271>\000\000\000\000\000\000\000\000;\300*\320\305\240\217>\000\000\000\000\000\000\000\000\030\272\321\353\r\375c>\000\000\000\000\000\000\000\000\025\3378\320\254?9>\000\000\000\000\000\000\000\000\000_A\324J\327\017>\000\000\000\000\000\000\000\000n\031[\215w\006\344=4\037cr\2526\357?\301\t\000U\231t\213?\214\024\001w\264#\313?\017\351\237\2228\254d?Q\024\227\010z\242\254?\")\243\245\272\247l?:!\327\rc\317\217?\206\360\n\252\341\227`?\003Ev^\230>r??\3564\005\204\252N?`\031Ie@\223U?\035\364\315\254\243u9?\352]x\t0]:?\221\017Fr\272\343#?\241\214\307I\371\253 ?@\013T\204\232\364\r?\207\341\022\272\271\315\005?\336\023\327\372S\021\366>\254 b\336\320a\355>>9\250\327\326\017\340> \021M\327\200K\324>]\031F\253\204B\307>{\300n\3432\226\274>e\311\306\362]\325\260>\347\323n\016\263n\244>$\3177\351\030\222\350?\000\000\000\000\000\000\000\000\303\320f\2471\200\344?\000\000\000\000\000\000\000\000\000\000\000\000\000\000\000\000\000\000\000\000\000\000\000\000\000\000\000\000\000\000\000\000\000\000\000\000\000\000\000\000\000\000\000\000\000\000\000\000\000\000\000\000\000\000\000\000\000\000\000\000\000\000\000\000\000\000\000\000\000\000\000\000\000\000\000\000\000\000\000\000\000\000\000\000\000\000\000\000\000\000\000\000\000\000\000\000\000\000\000\000\000\000\000\000\000\000\000\000\000\000\000\000\000\000\000\000\000\000\000\000\000\000\000\000\000\000\000\000\000\000\000\000\000\000\000\000\000\000\000\000\000\000\000\000\000\000\000\000\000\000\000\000\000\000\000\000\000\000\000\000\000\000\000\000\000\000\000\000\000\000\000\000\000\000\000\000\000\000\000\000\000\000\000\000\000\000\000\000\000\000\000\000\000\000\000\000\000\000\000\000\000\000\000\000\000\000\000\000\000\000\000\000\000\000\000\000\000\000\000\000\000\000\000\000\000\000\000\000\000\000\000\000\000\000\000\000\000\000\000\000\000\000\000\000\000\000\000\000\000\000\000\000\000\000\000\000\000\000\000\000\000\000\000\000\000\000\000\000\000\000\000\000\000\000\000\000\000\000\000\000\000\000\000\000\000\000\000\000\000\000\000\000\000\000\000\000\000\000\000\000\000\000\360?\000\000\000\000\000\000\000\000\000\000\000\000\000\000\000\000\000\000\000\000\000\000\000\000\000\000\000\000\000\000\000\000\000\000\000\000\000\000\000\000\000\000\000\000\000\000\000\000\000\000\000\000\000\000\000\000\000\000\000\000\000\000\000\000\000\000\000\000\000\000\000\000[\022\207o\227\254\356?\273\354\346\302x\203\321?\032\241\233\321\213\372\263?\336\367\261\221\331W\212?%9\032=\325?e?\223\261\362(\377\2635?U\2739^\210\226\014?T\354%\031_\255\330>\246;\330\356\223&\254>\2634\203y+nu>\344sEA\252\335E>M\341\301\340\021\035\016>\346i\\\002h\014\334=\260\311%\016G\276\241=\000\000\000\000\000\000\000\000\000\000\000\000\000\000\000\000\000\000\000\000\000\000\000\000\000\000\000\000\000\000\000\000\000\000\000\000\000\000\000\000\000\000\000\000\000\000\000\000\000\000\000\000\000\000\000\000\000\000\000\000\000\000\000\000\000\000\000\000\000\000\000\000\000\000\000\000\000\000\000\000\000\000\000\000\000\000\000\000\310\021\376B\377\377\357?\000\000\000\000\000\000\000\000\000\000\000\000\000\000\000\000\315\324\274\327\371~K?\000\000\000\000\000\000\000\000\000\000\000\000\000\000\000\000\265/6V\266!\205>\000\000\000\000\000\000\000\000\000\000\000\000\000\000\000\000v\205\251u\273\262\257=\000\000\000\000\000\000\000\000\000\000\000\000\000\000\000\000\000\000\000\000\000\000\000\000\000\000\000\000\000\000\000\000\000\000\000\000\000\000\000\000\000\000\000\000\000\000\000\000\000\000\000\000\000\000\000\000\000\000\000\000\000\000\000\000\000\000\000\000\000\000\000\000\000\000\000\000\000\000\000\000\000\000\000\000\000\000\000\000\000\000\000\000\000\000\000\000\000\000\000\000\000\000\000\000\000\000\000\000\000\000\000\000\000\000\000\000\000\000\000\000\242A\233\225\035i\352?\000\000\000\000\000\000\000\000\216\250,G\257X\333?\000\000\000\000\000\000\000\000\010\331\272\366\251V\321?\000\000\000\000\000\000\000\000\262\342o\357\235,\307?\000\000\000\000\000\000\000\000\216\241Q\034\267\274\277?\000\000\000\000\000\000\000\000{\024\225\235\365\t\266?\000\000\000\000\000\000\000\000\231\316T\346|\343\256?\000\000\000\000\000\000\000\000\256\t\020\014\340\310\245?\000\000\000\000\000\000\000\000\352\205\273)\217\337\236?\000\000\000\000\000\000\000\000B1\264}\314\364\225?\000\000\000\000\000\000\000\000m\335\356\027\250Q\217?\000\000\000\000\000\000\000\000%\",4\221c\206?\000\000\000\000\000\000\000\000d\264X\357%\t\200?+\322\3345mV\356?\214\332\220\026\273\237\244?p\036>L\203\303\322?\020N\370\206lkk?\001\2353:Au\273?r\276]~\200,\200?\272\342\003\272T\265\244?q{k~a\326\200?\024;\001\024\207\353\217?,8\243\216\303\230w?d\356b\016\253\224y?%\363\331\3512\033l?\274\205+X\361\327e?\034\210+\252q\223^?\255\367\375\023\242&T?z?\215m\256\204O?\353\206h\177\306\352C?\200\301\270\356\316\225??;\354q\345\341\2244?,n\301-\352j/?\242\227\326\212\233\255%?\25396\230\030\207\037?8FH\030B\343\026?\372\250\232\265|\035\020?\353K\n@\020\017\010?\241\026\205\244\\\315\351?\000\000\000\000\000\000\000\000\000\000\000\000\000\000\000\000\000\000\000\000\000\000\000\000\000\000\000\000\000\000\000\000\000\000\000\000\000\000\000\000\304]\204\215j\355\342?\000\000\000\000\000\000\000\000\000\000\000\000\000\000\000\000\000\000\000\000\000\000\000\000\000\000\000\000\000\000\000\000\000\000\000\000\000\000\000\000\000\000\000\000\000\000\000\000\000\000\000\000\000\000\000\000\000\000\000\000\000\000\000\000\000\000\000\000\000\000\000\000\000\000\000\000\000\000\000\000\000\000\000\000\000\000\000\000\000\000\000\000\000\000\000\000\000\000\000\000\000\000\000\000\000\000\000\000\000\000\000\000\000\000\000\000\000\000\000\000\000\000\000\000\000\000\000\000\000\000\000\000\000\000\000\000\000\000\000\000\000\000\000\000\000\000\000\000\000\000\360?\000\000\000\000\000\000\000\000\000\000\000\000\000\000\000\000\000\000\000\000\000\000\000\000\000\000\000\000\000\000\000\000\000\000\000\000\000\000\000\000\000\000\000\000\000\000\000\000\000\000\000\000\000\000\000\000\000\000\000\000\000\000\000\000\000\000\000\000\000\000\000\000\000\000\000\000\000\000\000\000\000\000\000\000\000\000\000\000\000\000\000\000\000\000\000\000\000\000\000\000\000\000\000\000\000\000\000\000\000\000\000\000\000\000\000\000\000\000\000\000\000\000\000\000\000\000\000\000\000\000\000\000\000\000\000\000\000\000\000\000\000\000\000\000\000\000\000\000\000\000\000\000\000\000\000\000\000\000\000\000\000\000\000\000\000\000\000\000\000\000\000\000\000\000\000\000\000\000\000\000\000\000\000\000\000\000\000\000\000\000\000\000\007t\234\204\210^\326?\366\336\205O\325\310\352?\217\235\322\257\346\256\316?V\013\356\235&6\325?\355\352Yv\230.\261?\213\302C!\302f\262?\207&\300\346GW\210?\\\036\'\220$\010\206?n\004\331\213\034=Y?\301\354|\366\231%T?\341\242\250\262\222\244$?f\032t\201k\317\035?j\260rR\001\342\353>\227,\360\254\367\204\342>>lS\247}\t\260>E\322M9\014\325\243>\324\206-\036\222\020p>\030\225D\273G\251b>>\256\351\236\336\200,>vXh\225\273Q\037>\336\000c\333\366\260\346=\007\026\361\307I\267\327=\346\353\207\3306W\240=\227\257@\177\277\312\220=\000\000\000\000\000\000\000\000\340\302\226,\306\306\357?\000\000\000\000\000\000\000\000\000\000\000\000\000\000\000\000\240\347\2653\0212\276?\000\000\000\000\000\000\000\000\000\000\000\000\000\000\000\000\224,U\222\002\252i?\000\000\000\000\000\000\000\000\000\000\000\000\000\000\000\000\273\221:\361wI\005?\000\000\000\000\000\000\000\000\000\000\000\000\000\000\000\000\224\317d\310\376\321\225>\000\000\000\000\000\000\000\000\000\000\000\000\000\000\000\000%\324\374\255\033\033\037>\000\000\000\000\000\000\000\000\000\000\000\000\000\000\000\000%\300\227\306U\216\240=\000\000\000\000\000\000\000\000\000\000\000\000\000\000\000\000\000\000\000\000\000\000\000\000\000\000\000\000\000\000\000\000\000\000\000\000\000\000\000\000\000\000\000\000\000\000\000\000\365o|KP\031\356?\000\000\000\000\000\000\000\000\306\245\310F\221q\325?\000\000\000\000\000\000\000\000\005\323>\3431\372\253?\000\000\000\000\000\000\000\000\242T\241\031\240Gz?\000\000\000\000\000\000\000\000\2177Cl\020dD?\000\000\000\000\000\000\000\000\254\335\344\006\263\323\013?\000\000\000\000\000\000\000\000\\\326yy\351H\321>\000\000\000\000\000\000\000\000[\377g\352\224\370\223>\000\000\000\000\000\000\000\000r2\023#B\305U>\000\000\000\000\000\000\000\000G\206\031*C\237\026>\000\000\000\000\000\000\000\000D\2065S\367\211\326=\000\000\000\000\000\000\000\000\361\2452\335Y\330\225=\000\000\000\000\000\000\000\000\000\000\000\000\000\000\000\000\2557I\360\232u\345?\373r\305\317?\004.?\010x}\233.\033\333?@\315\324\252\2417.?\032d\346c\210\367\324?\221\035,\313{\217+?\351\014;\255m\030\321?\r\r\335>\374\020(?*ym\023\346\220\314?\276\005NG\353h$?\206\371\347\032\2004\310?\312f\0007\201\341 ?\247k\'\376\354\262\304?\312\305\035>}9\033?\217\363b\025\262\320\301?[\037T\201mR\025?\277\372c\214G\320\276?\212\\\227\314~\026\020?\306X\247\006\027\277\272?\361\317v\305G\006\007?\255\314\262\216\310H\267?,\007\225\215\251>\376>2\252b&\232Q\264?-\356\341\203\255\300\360>7_\345\366\033\304\261?k\366eo\327\351\346?\000\000\000\000\000\000\000\000\000\000\000\000\000\000\000\000\000\000\000\000\000\000\000\000\000\000\000\000\000\000\000\000\000\000\000\000\000\000\000\000\000\000\000\000\000\000\000\000\000\000\000\000\000\000\000\000\000\000\000\000\000\000\000\0000\357\244\\uV\346?\000\000\000\000\000\000\000\000\000\000\000\000\000\000\000\000\000\000\000\000\000\000\000\000\000\000\000\000\000\000\000\000\000\000\000\000\000\000\000\000\000\000\000\000\000\000\000\000\000\000\000\000\000\000\000\000\000\000\000\000\000\000\000\000\000\000\000\000\000\000\000\000\000\000\000\000\000\000\000\000\000\000\000\000\000\000\000\000\000\000\000\000\000\000\000\000\000\000\000\000\000\000\000\000\000\000\000\000\000\000\000\000\000\000\000\000\000\000\000\000\000\000\000\000\000\000\000\000\000\000\000\000\000\000\000\000\000\000\000\000\000\000\000\000\000\000\000\000\000\000\000\000\000\000\000\000\000\000\000\000\000\000\000\000\000\000\000\000\000\000\000\000\000\000\000\000\000\000\000\000\000\000\000\000\000\000\000\000\000\000\000\000\000\000\000\000\000\000\000\000\000\000\000\000\000\000\000\000\000\000\000\000\000\000\000\000\000\000\000\000\000\000\000\000\000\000\000\000\000\000\000\000\000\000\000\000\000\000\000\000\000\000\000\000\000\000\360?\000\000\000\000\000\000\000\000\000\000\000\000\000\000\000\000\000\000\000\000\000\000\000\000\000\000\000\000\000\000\000\000\000\000\000\000\000\000\000\000\000\000\000\000\000\000\000\000\000\000\000\000\000\000\000\000\000\000\000\000\000\000\000\000\000\000\000\000\000\000\000\000\254\216J\337\232\310\352?\030\232KD\272\252\321?\215\321\020=\214\000\335?\205d\315\220\371\026\266?\277\0020\217@\244\271?\000\253\352\213\211A\216?^\236q\322\026\255\214?(\342\200\r\337\230\\?+\264\303\206\000yW?]\270\237\277\330\244$?\"\265\300|\274O\036?\024\266%\202\024\035\350>\036\225%9\031)\340>\325XH\016\341\246\247>\362\nD\331\274Y\235>\003\2656I\271\376c>\014\021U\245\3065W>}d\241\354\212\264\035>d\277#&:A\020>\365\234\032:\240\255\323=\331\235\373[In\304=\212\226\365L\373\350\201=\000\000\000\000\000\000\000\000\000\000\000\000\000\000\000\000\000\000\000\000\000\000\000\000\256\332\021W\364Y\356?\000\000\000\000\000\000\000\000\000\000\000\000\000\000\000\000\205\234\237\330\2508\324?\000\000\000\000\000\000\000\000\000\000\000\000\000\000\000\000\314r.\357\224\031\230?\000\000\000\000\000\000\000\000\000\000\000\000\000\000\000\000z1\262\217\277\007L?\000\000\000\000\000\000\000\000\000\000\000\000\000\000\000\000\355F.\350\035%\364>\000\000\000\000\000\000\000\000\000\000\000\000\000\000\000\000\357\336\353Ys\"\224>\000\000\000\000\000\000\000\000\000\000\000\000\000\000\000\000\306\225\014\341\356\r.>\000\000\000\000\000\000\000\000\000\000\000\000\000\000\000\000\273ge:\326\221\301=\000\000\000\000\000\000\000\000\000\000\000\000\000\000\000\000\000\000\000\000\000\000\000\0008\350I\360\034Q\357?\000\000\000\000\000\000\000\000&\264I\376Iw\311?\000\000\000\000\000\000\000\000\371\'gu\335u\251?\000\000\000\000\000\000\000\000\240$\353,\215\345\212?\000\000\000\000\000\000\000\000j\331\232&\007\'m?\000\000\000\000\000\000\000\000x\0359\221h\007P?\000\000\000\000\000\000\000\000\"\323\242\377\301\3101?\000\000\000\000\000\000\000\000\253I\001\026Y\330\023?\000\000\000\000\000\000\000\000\202\301\021De:\366>\000\000\000\000\000\000\000\000\022[\364\023a\365\330>\000\000\000\000\000\000\000\0001\235\241L\217\021\274>\000\000\000\000\000\000\000\000k5b\312\313\230\237>\000\000\000\000\000\000\000\000za^\325@\313\201>\255\354\\3\026s\357?\326\024Tu\375M\253?\203l\336\374\004!\306?\3029\036\217AA\220?\0256D\335=u\235?wz\367v\376\361\216?\361\025^X\335\227r?G\323\316y\237\255y?\312C\313\341NHX?j\300\013mS`]?\212\370\226\337\327]L?\021V\217\232\3229;?\2205]\017\215u;?\346;\006\031A  ?V\316\362\n\377z#?\006q\354\025\"\350\020?\217K\3135\212\030\005?d\314\nb\034e\002?h\035\3054q\376\346>K\022\004\214\232\255\356>\231\027H\305[\364\325>\221r\nr\352\225\322>V\375\333\243\366I\313>\2548d~\307\021\262>\245\347\264=\"%\273>\252\037\2047\r{\354?\000\000\000\000\000\000\000\000\000\000\000\000\000\000\000\000\000\000\000\000\000\000\000\000\000\000\000\000\000\000\000\000\000\000\000\000\000\000\000\000\000\000\000\000\000\000\000\000\000\000\000\000\000\000\000\000\000\000\000\000\000\000\000\000\000\000\000\000\000\000\000\000\000\000\000\000\000\000\000\000\000\000\000\000\000\000\000\000\000\000\000\000\000\000\000\000\000\000\000\000\000\000\000\000\000\000\000\000\000\000\000\000\000\000\000\000\000\000\000\000\000\000\000\000\000\000\000\000\223\243\014\205\311-\335?\000\000\000\000\000\000\000\000\000\000\000\000\000\000\000\000\000\000\000\000\000\000\000\000\000\000\000\000\000\000\000\000\000\000\000\000\000\000\000\000\000\000\000\000\000\000\000\000\000\000\000\000\000\000\000\000\000\000\000\000\000\000\000\000\000\000\000\000\000\000\000\000\000\000\000\000\000\000\000\000\000\000\000\000\000\000\000\000\000\000\000\000\000\000\000\000\000\000\000\000\000\000\000\000\000\000\000\000\000\000\000\000\000\000\000\000\000\000\000\000\000\000\000\000\000\000\000\000\000\000\000\000\000\000\000\000\000\000\000\000\000\000\000\000\000\000\000\000\000\000\000\000\000\000\000\000\000\000\000\000\000\000\000\000\000\000\000\000\000\000\000\000\000\000\000\000\000\000\000\000\000\000\000\000\000\000\000\000\000\000\000\000\000\000\000\000\000\000\000\000\000\000\000\000\000\000\000\000\000\000\000\000\000\000\000\000\000\000\000\000\000\000\000\000\000\000\000\000\000\000\000\000\000\000\000\000\000\000\000\000\000\000\000\000\000\000\360?\000\000\000\000\000\000\000\000~?\360\305\006\214\355?s\274\000\367P?\330?\331\020~\022j\031\257?\316\247\035\351&x\215?\032\255\225\321\372\271Z?nG\231\255\002\2363?0v\205\335\233\r\375>_E\320&\336\005\322>)_Z\'\256\035\227>\3743\227\362\004Ki>\266\245\266G\002\004->&\013\251e\257\267\374=3m\245\233\341\022\276=c\356\010\030\351\235\207=\000\000\000\000\000\000\000\000\000\000\000\000\000\000\000\000\000\000\000\000\000\000\000\000\000\000\000\000\000\000\000\000\000\000\000\000\000\000\000\000\000\000\000\000\000\000\000\000\000\000\000\000\000\000\000\000\000\000\000\000\000\000\000\000\000\000\000\000\000\000\000\000\000\000\000\000\000\000\000\000\000\000\000\000\000\000\000\000\223;\301p\016\366\357?\000\000\000\000\000\000\000\000\000\000\000\000\000\000\000\000_mDP\2637\251?\000\000\000\000\000\000\000\000\000\000\000\000\000\000\000\000\nD\3770\331\313A?\000\000\000\000\000\000\000\000\000\000\000\000\000\000\000\000\0257\221\014>\203\310>\000\000\000\000\000\000\000\000\000\000\000\000\000\000\000\000\373\213\375\010\370\334D>\000\000\000\000\000\000\000\000\000\000\000\000\000\000\000\000\036\320\220{\335\261\270=\000\000\000\000\000\000\000\000\000\000\000\000\000\000\000\000\000\000\000\000\000\000\000\000\000\000\000\000\000\000\000\000\000\000\000\000\000\000\000\000\000\000\000\000\000\000\000\000\000\000\000\000\000\000\000\000\000\000\000\000\000\000\000\000\000\000\000\000\000\000\000\000\252\003z\245w\366\357?\000\000\000\000\000\000\000\000 \331\260\322R\246\250?\000\000\000\000\000\000\000\000\261B\247q@Hg?\000\000\000\000\000\000\000\000\003p\357\273\036.\'?\000\000\000\000\000\000\000\000h@a\t\001\246\347>\000\000\000\000\000\000\000\000B\236\330\361\353w\250>\000\000\000\000\000\000\000\000\2662xe\332\214i>\000\000\000\000\000\000\000\000\337\202\010U<\332*>\000\000\000\000\000\000\000\000q\224\010\334B[\354=\000\000\000\000\000\000\000\000\236\025~\0171\016\256=\000\000\000\000\000\000\000\000\000\000\000\000\000\000\000\000\000\000\000\000\000\000\000\000\000\000\000\000\000\000\000\000\000\000\000\000\000\000\000\000\000\000\000\000\000\000\000\000\026R\214\255?A\346?\220\262\240#\n\007^?R\257\212\244\023\214\333?\302\266\370V\256!]?DF^\300i\341\324?\345__yh\202Y?\316\377[k\353\256\320?*\265h\224\255RU?\266\267&\2379Q\313?\n\376\334fg\010Q?\362\366+\023+\257\306?\010\214\311\325\224\375J?pa(\210\\\000\303?\234\300\364i\330\371C?m\326\226\331Y\n\300?\375Rm\327]K9?\261\343}=\023\'\273?J0\313\010\234\2605?\266\3561\024\n\034\267?\377\362~\234\352\324%?\367\312A\200\227\267\263?L\322\307\327s\003\374>k\027\266\316\313\334\260?8\025\372\351\377\232\002?\224\235`\320G\344\254?\236\233\251]D\361\357?\000\000\000\000\000\000\000\000\000\000\000\000\000\000\000\000\000\000\000\000\000\000\000\000\000\000\000\000\000\000\000\000\000\000\000\000\000\000\000\000\000\000\000\000\000\000\000\000\000\000\000\000\000\000\000\000\000\000\000\000\000\000\000\000\000\000\000\000\000\000\000\000\000\000\000\000\000\000\000\000\000\000\000\000\000\000\000\000\000\000\000\000\000\000\000\000\000\000\000\000\000\000\000\000\000\000\000\000\000\000\000\000r,q\336h\261\256?\000\000\000\000\000\000\000\000\000\000\000\000\000\000\000\000\000\000\000\000\000\000\000\000\000\000\000\000\000\000\000\000\000\000\000\000\000\000\000\000\000\000\000\000\000\000\000\000\000\000\000\000\000\000\000\000\000\000\000\000\000\000\000\000\000\000\000\000\000\000\000\000\000\000\000\000\000\000\000\000\000\000\000\000\000\000\000\000\000\000\000\000\000\000\000\000\000\000\000\000\000\000\000\000\000\000\000\000\000\000\000\000\000\000\000\000\000\000\000\000\000\000\000\000\000\000\000\000\000\000\000\000\000\000\360?\000\000\000\000\000\000\000\000\000\000\000\000\000\000\000\000\000\000\000\000\000\000\000\000\000\000\000\000\000\000\000\000\000\000\000\000\000\000\000\000\000\000\000\000\000\000\000\000\000\000\000\000\000\000\000\000\000\000\000\000\000\000\000\000\000\000\000\000\000\000\000\000\000\000\000\000\000\000\000\000\000\000\000\000\000\000\000\000\000\000\000\000\000\000\000\000\000\000\000\000\000\000\000\000\000\000\000\000\000\000\000\000\000\000\000\000\000\000\000\000\000\000\000\000\000\000\000\000\000\000\000\000\000\000\000\000\211\327\276H\006\247\357?\230<\017\363\215@\302?\361\246\026\275\2430\242?\221VT\345?9h?\376\232\342\246\002\022A?\373t\244\345\314\233\001?`\"\2439nC\324>OD\326pj\252\221>x\235\204$\003\233a>Y<G\203\200\022\033>o\0361L\267!\350=\324J\272\225x\301\240=\000\000\000\000\000\000\000\000\000\000\000\000\000\000\000\000\000\000\000\000\000\000\000\000\000\000\000\000\000\000\000\000\000\000\000\000\000\000\000\000\000\000\000\000\000\000\000\000\000\000\000\000\000\000\000\000\000\000\000\000\000\000\000\000\000\000\000\000\000\000\000\000\000\000\000\000\000\000\000\000\000\000\000\000\000\000\000\000\000\000\000\000\000\000\000\000\000\000\000\000\000\000\000\000\014\342F\014A\350\357?\000\000\000\000\000\000\000\000\000\000\000\000\000\000\000\000\311.Y\363\225y\263?\000\000\000\000\000\000\000\000\000\000\000\000\000\000\000\000\372\n\360\257\177CU?\000\000\000\000\000\000\000\000\000\000\000\000\000\000\000\000($\251\224;\250\346>\000\000\000\000\000\000\000\000\000\000\000\000\000\000\000\000\302h\301\023\331\325m>\000\000\000\000\000\000\000\000\000\000\000\000\000\000\000\000\366\373_\224\237Q\353=\000\000\000\000\000\000\000\000\000\000\000\000\000\000\000\000\000\000\000\000\000\000\000\000\000\000\000\000\000\000\000\000\000\000\000\000\000\000\000\000\000\000\000\000\000\000\000\000\000\000\000\000\000\000\000\000\000\000\000\000\000\000\000\000\000\000\000\000\000\000\000\000\227B^\256\210\246\345?\000\000\000\000\000\000\000\000`\014\241\274A%\340?\000\000\000\000\000\000\000\000@L(\317\ni\330?\000\000\000\000\000\000\000\000^\344\324\323\016\237\321?\000\000\000\000\000\000\000\000\343f\003>\316\211\310?\000\000\000\000\000\000\000\000G\2412\342u\240\300?\000\000\000\000\000\000\000\000W\204\245\202\327\017\266?\000\000\000\000\000\000\000\000\005e\230\352\205\310\254?\000\000\000\000\000\000\000\000E\031\323\305[\204\242?\000\000\000\000\000\000\000\000\356C\310#D\214\227?\000\000\000\000\000\000\000\000)ulU\251\245\215?\000\000\000\000\000\000\000\000\255)<\351M\200\202?\000\000\000\000\000\000\000\000\014\343\354\3465\352v?\345\036\0056\220\345\337?\312\315\254P\265\r\033?\031\353L3\034\331\325?X.\343\363k\335\037?1\226\332iMR\322?\240\342\271w\032\245+?\341 Y\027\237=\320?~\225\265\034t\355F?\2409q\311\201*\315?X\0347GClo?\272$\252\014\364?\313?\372\271\200$q\331\201?*5\301<\264\"\311?PS\255\214D\320\205?\034VP\225\354\306\306?\202\247\267\303[\013f?6\227\373\372!\354\305?\217BC)\273\023s?\361\007\365\320\220\251\305?\006q\nME\262K?\324U\t\033cJ\303?\265\232j_\354\231U?\362\312z\033\233f\301?\2447\370.zGo?\364\344\255x\023_\301?3\266+P\306=\356?\000\000\000\000\000\000\000\000\000\000\000\000\000\000\000\000\000\000\000\000\000\000\000\000\326\346>8\311\354\324?\000\000\000\000\000\000\000\000\000\000\000\000\000\000\000\000\000\000\000\000\000\000\000\000\000\000\000\000\000\000\000\000\000\000\000\000\000\000\000\000\000\000\000\000\000\000\000\000\000\000\000\000\000\000\000\000\000\000\000\000\000\000\000\000\000\000\000\000\000\000\000\000\000\000\000\000\000\000\000\000\000\000\000\000\000\000\000\000\000\000\000\000\000\000\000\000\000\000\000\000\000\000\000\000\000\000\000\000\000\000\000\000\000\000\000\000\000\000\000\000\000\000\000\000\000\000\000\000\000\000\000\000\000\000\000\000\000\000\000\000\000\000\000\000\000\000\000\000\000\000\000\000\000\000\000\000\000\000\000\000\000\000\000\000\000\000\000\000\000\000\000\000\000\000\000\000\000\000\000\000\000\000\000\000\000\000\000\000\000\000\000\000\000\000\000\000\000\000\000\000\000\000\000\000\000\000\000\000\000\000\000\000\000\000\000\000\000\000\000\000\000\000\000\000\000\000\000\000\000\000\000\000\000\000\000\000\000\000\360?\000\000\000\000\000\000\000\000\000\000\000\000\000\000\000\000\000\000\000\000\000\000\000\000\000\000\000\000\000\000\000\000\000\000\000\000\000\000\000\000\000\000\000\000\000\000\000\000\000\000\000\000\000\000\000\000\000\000\000\000\000\000\000\000\000\000\000\000\000\000\000\000\000\000\000\000\000\000\000\000\000\000\000\000\000\000\000\000\000\000\000\000\000\000\000\000\000\000\000\000\000\000\000\000\000\000\000\000\000\000\000\000\000\000\000\000\000\000\000\000\317p\024K\236\277\357?\315\000\3650\375L\266?\316ig\303\374\362\266?\335\376\021$\032\235r?\363\214\034\340\320\026k?[44\345\341\004!?\353\301P\022-9\024?\255\t\314\013\360y\305>\226\301\217\241\314\031\266>\207 [X\333\262d>\311\270\342\255?\rS>\371\024\214\t\301#\000>\003\203\336\253r\033\353=\000\211\205\357\331\341\224=\351doW\264t~=\000\000\000\000\000\000\000\000\000\000\000\000\000\000\000\000\000\000\000\000\000\000\000\000\000\000\000\000\000\000\000\000\000\000\000\000\000\000\000\000\000\000\000\000\000\000\000\000\000\000\000\000\000\000\000\000\000\000\000\000\000\000\000\000\000\000\000\000\000\000\000\000\000\000\000\000\000\000\000\000BA^\274\351\377\357?\000\000\000\000\000\000\000\000\000\000\000\000\000\000\000\000\313|\325\373\270\337r?\000\000\000\000\000\000\000\000\000\000\000\000\000\000\000\000\351\010\037e\355\351\323>\000\000\000\000\000\000\000\000\000\000\000\000\000\000\000\000U2`\205+\201$>\000\000\000\000\000\000\000\000\000\000\000\000\000\000\000\000\000\000\000\000\000\000\000\000\000\000\000\000\000\000\000\000\000\000\000\000\000\000\000\000\000\000\000\000\000\000\000\000\000\000\000\000\000\000\000\000\000\000\000\000\000\000\000\000\000\000\000\000\000\000\000\000\000\000\000\000\000\000\000\000\000\000\000\000\000\000\000\000\000\000\000\000\000\000\000\000\000\000\000\000\000\000\000\000\000\000\000\000\000\000\000\000\000\000\000\000\000\000\000\000\010C\233\276\274\001\355?\000\000\000\000\000\000\000\000:\006\203q\254\002\327?\000\000\000\000\000\000\000\000\325\222\330\234iD\307?\000\000\000\000\000\000\000\000\306\353\3059;\342\271?\000\000\000\000\000\000\000\000\337k\025\233h\225\256?\000\000\000\000\000\000\000\000\032Px\301\262\303\242?\000\000\000\000\000\000\000\000w\277\231\256\\\205\227?\000\000\000\000\000\000\000\000(*\226\361\377\311\215?\000\000\000\000\000\000\000\000\353\261\206\315o\357\202?\000\000\000\000\000\000\000\000\250\343\272\226\256\023x?\000\000\000\000\000\000\000\000\211\377\310\350\201\220n?\000\000\000\000\000\000\000\000\335\236\017\245,Zc?\000\000\000\000\000\000\000\000/\267) KpX?h\213\224@\216\276\354?N\023\370\'\260\225\223?\014\203\306\323\267\005\330?\340\\*\253\335\254~?\311.s\177\214\200\310?\261X\024\010\317\273F?&\236\212\375DF\272?f\347\234\336\264\274b?\314\375\355X\207\322\254?N\252\014\362W\275i?\250\354\322\203\243\005\240?\262\357\227[\323\217h?cu\030\n\333\373\221?\t\177\327\370DVd?\304\030\331u\240X\204?\251\250\327^\350,_?\327\30655K0w?\\\264/\0309\301V?-\214\0164Z\237j?\224\274\215\276\242\016P?])\367\005\005\314^?Y,\337/j\034F?oFa`O\364Q?\363\232\244\322\033\343=?\233\303\370\301h\033E?\334\367oQ\372\r\353?\000\000\000\000\000\000\000\000\000\000\000\000\000\000\000\000\000\000\000\000\000\000\000\000\000\000\000\000\000\000\000\000\000\000\000\000\000\000\000\000\000\000\000\000\000\000\000\000\000\000\000\000\000\000\000\000\000\000\000\000\000\000\000\000\000\000\000\000\000\000\000\000\000\000\000\000\000\000\000\000\000\000\000\000\000\000\000\000\000\000\000\000\000\000\000\000\000\000\000\000\000\000\000\000\000\000\000\000\000\000\000\000\000\000\000\000\000\000\000\000\000\000\000\000\000\000\000\000\000\000\000\000\000\000\000\000\000\000\000\000\000\000\000\000\000\000\000\000\000\000\000\000\000\000\000\000\000\000\000\000\000\000\000\000\000\000\000\000\002\357\260\315\344\026\341?\000\000\000\000\000\000\000\000\000\000\000\000\000\000\000\000\000\000\000\000\000\000\000\000\000\000\000\000\000\000\000\000\000\000\000\000\000\000\000\000\000\000\000\000\000\000\000\000\000\000\000\000\000\000\000\000\000\000\000\000\000\000\000\000\000\000\000\000\000\000\000\000\000\000\000\000\000\000\000\000\000\000\000\000\000\000\000\000\000\000\000\000\000\000\000\000\000\000\000\000\000\000\000\000\000\000\000\000\000\000\000\000\000\000\000\000\000\000\000\000\000\000\000\000\000\000\000\000\000\000\000\000\000\000\000\000\000\000\000\000\000\000\000\000\000\000\000\000\000\000\000\000\000\000\000\000\000\000\000\000\000\000\000\000\000\000\000\000\000\000\000\000\000\000\360?\000\000\000\000\000\000\000\000\000\000\000\000\000\000\000\000\000\000\000\000\000\000\000\000\000\000\000\000\000\000\000\000\000\000\000\000\000\000\000\000\267%\247)k\240\243?d\021\332\230z\021\356?9\r\2427Y\025\230?\215r\354\307MM\325?]\364\271\241\026!x?s\210\257\210\'\210\260?`\363\025~X\224N?\223|\302\203\372\264\201?\000\356\206\307p]\034?\222\326\214\027k\370L?\214\321\356\256\032\301\344>\236:[\030t,\023?w\014\266\344\013\024\251>\343r\225.\317O\325>\342\215\033\206\236\316i>\003\324\267b\257j\224>\201\365\263Td \'>\210q\305\326\247/Q>\032:+A\224Z\342=\352\246{4\232\315\t>\310\305\242\006e$\232=r\336\253\311fy\301=\000\000\000\000\000\000\000\000\000\000\000\000\000\000\000\000\000\000\000\000\000\000\000\000\207\026\300\331\177w\356?\000\000\000\000\000\000\000\000\000\000\000\000\000\000\000\000\362\370\246!\325\205\323?\000\000\000\000\000\000\000\000\000\000\000\000\000\000\000\0001\300\313\320\347`\226?\000\000\000\000\000\000\000\000\000\000\000\000\000\000\000\000@\340\016\372\247\010I?\000\000\000\000\000\000\000\000\000\000\000\000\000\000\000\000)\376\312\256\335M\361>\000\000\000\000\000\000\000\000\000\000\000\000\000\000\000\000\306\335\250\343n\242\220>\000\000\000\000\000\000\000\000\000\000\000\000\000\000\000\000\324\253BB\243\341\'>\000\000\000\000\000\000\000\000\000\000\000\000\000\000\000\000#\0311I\360\332\272=\000\000\000\000\000\000\000\000\000\000\000\000\000\000\000\000\000\000\000\000\000\000\000\000R\213\007r\2563\357?\000\000\000\000\000\000\000\000(bV{\200[\313?\000\000\000\000\000\000\000\000\213SQ\361s`\255?\000\000\000\000\000\000\000\000b)s\205\025\240\220?\000\000\000\000\000\000\000\00043\250\307*Hs?\000\000\000\000\000\000\000\000\310\361gD\373\255V?\000\000\000\000\000\000\000\000\374\010\272\363\325\353:?\000\000\000\000\000\000\000\000Q\010\322\317\301\024 ?\000\000\000\000\000\000\000\000V\221%\237\250M\003?\000\000\000\000\000\000\000\000c\032\264D\242A\347>\000\000\000\000\000\000\000\000\315\3342g\274\031\314>\000\000\000\000\000\000\000\000\210\276r\332Y\004\261>\000\000\000\000\000\000\000\000\3559\277\000\210\246\224>\215\370??I1\356?\342\237\344`;\202\241?3X\260\266\240m\323?3g^\031\207pp?\254G\334r\317\357\275?\003!\343\317e\210x?,\217\350\255\252\367\247?\313\242\267\223\264:|?\302\tC\273\177\233\223?\032\002\237\305Y\034u?\215\271a|$v\200?\254\2551]\232\305j?::\177u\266\254l?\336\357\236\241\026\013_?\373\250(\325\217)Z?\023\'(}\315\nQ?\241\250\005;\"\023I?7\232M\232\370\030B?\'\251V\316\311\0279?\345\333\"\336A\3372?\240\300\025U\330\351)?v\237\307\203^\215#?`\374\3323\344F\033?y\312x\026\364L\024?\036\2306h\245\375\014?\335\206\305g~\362\354?\000\000\000\000\000\000\000\000\000\000\000\000\000\000\000\000\000\000\000\000\000\000\000\000\000\000\000\000\000\000\000\000\000\000\000\000\000\000\000\000\000\000\000\000\000\000\000\000\000\000\000\000\000\000\000\000\000\000\000\000\000\000\000\000\000\000\000\000\000\000\000\000\000\000\000\000\000\000\000\000\000\000\000\000\000\000\000\000\000\000\000\000\000\000\000\000\000\000\000\000\000\000\000\000\000\000\000\000\000\000\000\000\000\000\000\000\000\000\000\000\000\000\000\000\000\000\000\000\000\000\000\000\000\000\000\000\000\000\000\000\000\000\000\000\000\000\000\000\000\000\000\000\000\000\000\000\000\000\000\000\000\000\000\000\000\000\000\000\000\000\000\000\000\000\000\000\000\000\000\000\000\000\000\000\346\370\343\262\322G\333?\000\000\000\000\000\000\000\000\000\000\000\000\000\000\000\000\000\000\000\000\000\000\000\000\000\000\000\000\000\000\000\000\000\000\000\000\000\000\000\000\000\000\000\000\000\000\000\000\000\000\000\000\000\000\000\000\000\000\000\000\000\000\000\000\000\000\000\000\000\000\000\000\000\000\000\000\000\000\000\000\000\000\000\000\000\000\000\000\000\000\000\000\000\000\000\000\000\000\000\000\000\000\360?\000\000\000\000\000\000\000\000\000\000\000\000\000\000\000\000\000\000\000\000\000\000\000\000\000\000\000\000\000\000\000\000\000\000\000\000\000\000\000\000\000\000\000\000\000\000\000\000\000\000\000\000\000\000\000\000\000\000\000\000\000\000\000\000\000\000\000\000\000\000\000\000\000\000\000\000\000\000\000\000\000\000\000\000\000\000\000\000\000\000\000\000\000\000\000\000w\233\223\343\241o\355?\365\355\247\204\245\356\327?\350\362\374\322\032r\275?w\212\306^\303\244\233?bv\311,\333\014x?\221\177\332\3334}Q?\022R0\'\334\330(?P\3519\350\235\212\376>\210\327\326\216\357\311\322>x@\353\022\037^\244>U}\306\254\020jv>Vr\013\330k\372E>B4\004QO\024\026>m\244l\3124\352\343=\256GAb\275\205\262=\374\377\351\270\n\335~=\000\000\000\000\000\000\000\000\000\000\000\000\000\000\000\000\000\000\000\000\000\000\000\000\000\000\000\000\000\000\000\000\000\000\000\000\000\000\000\000\000\000\000\000\000\000\000\000\000\000\000\000\000\000\000\000\000\000\000\000\000\000\000\000\000\000\000\000\000\000\000\000\313\320>+4\342\357?\000\000\000\000\000\000\000\000\000\000\000\000\000\000\000\000\361lb\325}\317\265?\000\000\000\000\000\000\000\000\000\000\000\000\000\000\000\000\275M\201\214~\260Z?\000\000\000\000\000\000\000\000\000\000\000\000\000\000\000\000\330\205\354\215e\337\357>\000\000\000\000\000\000\000\000\000\000\000\000\000\000\000\000\233\'\301\214\363\204w>\000\000\000\000\000\000\000\000\000\000\000\000\000\000\000\0008\215d=\332\"\370=\000\000\000\000\000\000\000\000\000\000\000\000\000\000\000\000\000\000\000\000\000\000\000\000\000\000\000\000\000\000\000\000\000\000\000\000\000\000\000\000\000\000\000\000\000\000\000\000\000\000\000\000\000\000\000\000\000\000\000\000\000\000\000\000\000\000\000\000\000\000\000\000\314d\3615\331n\357?\000\000\000\000\000\000\000\000\003\035tA\361r\307?\000\000\000\000\000\000\000\000\320\304zCG\311\243?\000\000\000\000\000\000\000\000\227\027N\017\233\262\200?\000\000\000\000\000\000\000\000\347P+\366\325\327[?\000\000\000\000\000\000\000\000\021\253\304U\032\3546?\000\000\000\000\000\000\000\000m\203\255\216\351\250\022?\000\000\000\000\000\000\000\0006\310\247\255\n\026\356>\000\000\000\000\000\000\000\000F\301\3574n\r\310>\000\000\000\000\000\000\000\000\"\337\235\204\002\027\243>\000\000\000\000\000\000\000\000r\215\363\034c\034~>\000\000\000\000\000\000\000\000/\342\246\020h\235W>\000\000\000\000\000\000\000\000\276^@\342\253m2>~U\370\3327\222\342?\225\336U\370\215\360>?s\234\221\302\225\272\330?c17\374,\300A?X\020\004,\254*\324?\377g.N\276\3517?e\005\202T\177T\321?.\330\367\032\3432T?\306*\331m\267}\316?}6\006\340\340\340T?=\302\206i)x\313?\254?l\213:Oe?v\342\203G\212?\310?\204\271\330\006\350\2700?&\264\203x\376l\306?\366\002\365\267I\376\035?2v\257\276\356\237\304?H_\035\271\31495?\236\022\341\007\177u\302?\242D\001\312\203\341C?\033\345\347\334\230\334\300?\316<+\334,z`?]\236\037p\013q\277?\215\261\342\217\311\216T?\235\344\207\3254\026\275?\020\231P\005\246w\347?\000\000\000\000\000\000\000\000\000\000\000\000\000\000\000\000\000\000\000\000\000\000\000\000\000\000\000\000\000\000\000\000\000\000\000\000\000\000\000\000\000\000\000\000\000\000\000\000\000\000\000\000\000\000\000\000\000\000\000\000\000\000\000\000\000\000\000\000\000\000\000\000\000\000\000\000\000\000\000\000\000\000\000\000\000\000\000\000\000\000\000\000\000\000\000\000\000\000\000\000\000\000\000\000kB\274\372J\301\345?\000\000\000\000\000\000\000\000\000\000\000\000\000\000\000\000\000\000\000\000\000\000\000\000\000\000\000\000\000\000\000\000\000\000\000\000\000\000\000\000\000\000\000\000\000\000\000\000\000\000\000\000\000\000\000\000\000\000\000\000\000\000\000\000\000\000\000\000\000\000\000\000\000\000\000\000\000\000\000\000\000\000\000\000\000\000\360?\000\000\000\000\000\000\000\000\000\000\000\000\000\000\000\000\000\000\000\000\000\000\000\000\000\000\000\000\000\000\000\000\000\000\000\000\000\000\000\000\000\000\000\000\000\000\000\000\000\000\000\000\000\000\000\000\000\000\000\000\000\000\000\000\000\000\000\000\000\000\000\000\000\000\000\000\000\000\000\000\000\000\000\000\000\000\000\000\000\000\000\000\000\000\000\000\000\000\000\000\000\000\000\000\000\000\000\000\000\000\000\000\000\000\000\000\000\000\000\000\000\000\000\000\000\000\000\000\000\000\000\000\000\000\000\000\000\000\000\000\000\000\000\000\000\000\000\000\000\000\000\000\000\000\000\000\000\000\000\000\000\000\000\000\000\000\000\000\000\000\000\000\000\000\000\000\000\000\000\000\000\000\000\000\000\000\000\000\000\000\000\000\266\026\342\221\3237\350?\232\370\177\307\372\200\344?\253b`W\013\246\275?7\024\312l\026\374\254?[\014\023`\342\242}?\331\204\371\244.qf?;zE\203^\2742?o\307\253\020M\373\027?I\251\271\351\271V\341>\274\276/\236\241\222\303>a\213\002\265yP\211>5\243\361w\022\331i>\234\234\303Q~\204.>A^\013\025\355\251\014>o0\315\207\322T\317=W\314\227\276\006\034\254=\000\000\000\000\000\000\000\000\000\000\000\000\000\000\000\000\000\000\000\000\000\000\000\000\000\000\000\000\000\000\000\000\000\000\000\000\000\000\000\000\000\000\000\000\000\000\000\000\000\000\000\000\000\000\000\000\000\000\000\000\000\000\000\000\000\000\000\000\000\000\000\000\"\201\240\021\337\374\357?\000\000\000\000\000\000\000\000\000\000\000\000\000\000\000\000o\274\003\352\'L\234?\000\000\000\000\000\000\000\000\000\000\000\000\000\000\000\000\352\256(]\337c&?\000\000\000\000\000\000\000\000\000\000\000\000\000\000\000\000]C\245\347\375I\241>\000\000\000\000\000\000\000\000\000\000\000\000\000\000\000\000\017)\356\035\232\177\020>\000\000\000\000\000\000\000\000\000\000\000\000\000\000\000\000\000\000\000\000\000\000\000\000\000\000\000\000\000\000\000\000\000\000\000\000\000\000\000\000\000\000\000\000\000\000\000\000\000\000\000\000\000\000\000\000\000\000\000\000\000\000\000\000\000\000\000\000\000\000\000\000\000\000\000\000\000\000\000\000\000\000\000\000\000\000\000\000\000\000\000\000\000\000\000\000\000\314\357J\217:\353?\000\000\000\000\000\000\000\000\324\211\242\374\366?\332?\000\000\000\000\000\000\000\000\202\252ik\326i\317?\000\000\000\000\000\000\000\000r\261\360\267\347)\304?\000\000\000\000\000\000\000\000\030\343\226\222\261\021\273?\000\000\000\000\000\000\000\000w\327\0030\327\320\262?\000\000\000\000\000\000\000\000B\214\035\"c\347\252?\000\000\000\000\000\000\000\000\323\237\206\0002\250\243?\000\000\000\000\000\000\000\000\252\211\001\2116.\235?\000\000\000\000\000\000\000\000\ny\365]\362\343\225?\000\000\000\000\000\000\000\000[\205\210\017\317\207\220?\000\000\000\000\000\000\000\000\374j\000\203\335\016\211?\000\000\000\000\000\000\000\000\333\\\252Y#\006\203?\313\013*^\\\235\355?\021\334\221\036\033\201\256?\"\211\263\013F\232\325?\000\346\350\325M\222\216?1sD\364Hj\302?\231\257^\252\t\002y?\221;\260\202P\273\257?+\254\251\300\301]\210?\236N\025161\233?\242!8\362\371i\206?i\337\216>\213\223\207?\311K#\022\217e\200?\344-r\rN\232u?r\362\327\261L(u?lI\026]\377\017f?\350\226\254j\220\032i?\301\260\001k\205\231Y?\017V\243R\014\032\\?\222I \237\032BP?\317.\024N\026eN?\335\0330c\337PE?E\325\265@\203W@?\303\345\002\331\333\237;?\021n\371o\347\0162?v\317\3370DR1?\203\253\026\251M`\353?\000\000\000\000\000\000\000\000\000\000\000\000\000\000\000\000\000\000\000\000\000\000\000\000\000\000\000\000\000\000\000\000\000\000\000\000\000\000\000\000\000\000\000\000\000\000\000\000\000\000\000\000\000\000\000\000\3723\236*\303\221\340?\000\000\000\000\000\000\000\000\000\000\000\000\000\000\000\000\000\000\000\000\000\000\000\000\000\000\000\000\000\000\000\000\000\000\000\000\000\000\000\000\000\000\000\000\000\000\000\000\000\000\000\000\000\000\000\000\000\000\000\000\000\000\000\000\000\000\000\000\000\000\000\000\000\000\000\000\000\000\000\000\000\000\000\000\000\000\000\000\000\000\000\000\000\000\000\000\000\000\000\000\000\000\000\000\000\000\000\000\000\000\000\000\000\000\000\000\000\000\000\000\000\000\000\000\000\000\000\000\000\000\000\000\000\000\000\000\000\000\000\000\000\000\000\000\000\000\000\000\000\000\000\000\000\000\000\000\000\000\000\000\000\000\000\000\000\000\000\000\000\000\000\000\000\000\000\000\000\000\000\000\000\000\000\000\000\000\000\000\000\000\000\000\000\000\000\000\000\000\000\000\000\000\000\000\000\000\000\000\000\000\000\000\000\000\360?\000\000\000\000\000\000\000\000\000\000\000\000\000\000\000\000\000\000\000\000\000\000\000\000\000\000\000\000\000\000\000\000\000\000\000\000\000\000\000\000\000\000\000\000\000\000\000\000\000\000\000\000\000\000\000\000\000\000\000\000\000\000\000\000\000\000\000\000\000\000\000\000\000\000\000\000\000\000\000\000\000\000\000\000\000\000\000\000\000\000\000\000\000\000\000\000\000\000\000\000\000\000\000\000\000\000\000\000\000\000\000\0008`o\344\0269\347?\024\360l\355 +\344?.~\3110\236J\317?g\002\314\2439a\277?\272@H\007\2136\241?w\362\331V\332\275\212?\320K{\221@\364g?\233\2530v\251sO?A\026\325j\030f(?\212\3769a\271@\014?c\333\260Lt\232\343>\225\214~\256e\210\304>\252\227\266k\313\002\232>\246\331\313+\236\017y>\210m\265VidM>\345^\026\r\010]*>b\265\362@9\354\374=\304\032\251#Y^\330=TkZ_\373/\251=_\217yK\221\345\201=\000\000\000\000\000\000\000\000\000\000\000\000\000\000\000\000\000\000\000\000\000\000\000\000\000\000\000\000\000\000\000\000\000\000\000\000\000\000\000\000\032\270\352\376\023\360\357?\000\000\000\000\000\000\000\000\000\000\000\000\000\000\000\000!\354LS6\347\257?\000\000\000\000\000\000\000\000\000\000\000\000\000\000\000\000\316b\313,\016\201L?\000\000\000\000\000\000\000\000\000\000\000\000\000\000\000\000\265+\216>|\332\330>\000\000\000\000\000\000\000\000\000\000\000\000\000\000\000\000\253\325\215x\345\307Z>\000\000\000\000\000\000\000\000\000\000\000\000\000\000\000\000\230\364Z@\371\020\324=\000\000\000\000\000\000\000\000\000\000\000\000\000\000\000\000\000\000\000\000\000\000\000\000\000\000\000\000\000\000\000\000\000\000\000\000\000\000\000\000\000\000\000\000\000\000\000\000\000\000\000\000\000\000\000\000\000\000\000\000\000\000\000\000\000\000\000\000\000\000\000\000\357\246\321\020\325\377\357?\000\000\000\000\000\000\000\000\314g\367%\0365z?\000\000\000\000\000\000\000\000g\234\2024\215%\025?\000\000\000\000\000\000\000\000.\202\260\276\355\324\250>\000\000\000\000\000\000\000\000R\006\001\nS|:>\000\000\000\000\000\000\000\000\347\333VY#y\314=\000\000\000\000\000\000\000\000\000\000\000\000\000\000\000\000\000\000\000\000\000\000\000\000\000\000\000\000\000\000\000\000\000\000\000\000\000\000\000\000\000\000\000\000\000\000\000\000\000\000\000\000\000\000\000\000\000\000\000\000\000\000\000\000\000\000\000\000\000\000\000\000\000\000\000\000\000\000\000\000\000\000\000\000\000\000\000\000\000\000\000\000\000\000\000\000\000\000\000\000\000\000\000\000\000\000\000\000\000\000\000\000\250\345\223 \271S\334?v\364\371\272\267q\360>\007\372\216\030b\244\323?$\230A\376\030\203\363>P\312Y\247S\256\320?\177{\270X\315\351\364>\366\227\275\311p\335\315?\255\224\370\301\360\335\366>h\374i\023\026e\313?\232;\241LD\226\363>?S\200\026r|\311?\220:A\2541\032\375>L\220\300\333\313\353\307?nQn\027U[\010?\242p\023\002\003\244\306?4\373X\346k;3?\027\304ma\315d\305?D\262\310\0170\355Y?\261\320\200\000]\201\304?)\345^\034\267Mr?\213\241\325\340\251\344\303?5\267R\276\256\353~?\032T\243T\001v\301?7\274\365\303=%v?\257t\332v\200\024\304?9|H\024\274\345\357?\000\000\000\000\000\000\000\000\000\000\000\000\000\000\000\000\000\000\000\000\000\000\000\000\000\000\000\000\000\000\000\000\000\000\000\000\000\000\000\000\000\000\000\000\000\000\000\000\000\000\000\000\000\000\000\000\000\000\000\000\000\000\000\000\000\000\000\000\000\000\000\000\000\000\000\000\000\000\000\000\000\000\000\000\000\000\000\000\000\000\000\000\000\000\000\000\000\000\000\000\000\000\000\000\000\000\000\000\000\000\000\000\000\000\000\000\000\000\000\000\006\340\364\307\302{\264?\000\000\000\000\000\000\000\000\000\000\000\000\000\000\000\000\000\000\000\000\000\000\000\000\000\000\000\000\000\000\000\000\000\000\000\000\000\000\000\000\000\000\000\000\000\000\000\000\000\000\000\000\000\000\000\000\000\000\000\000\000\000\000\000\000\000\000\000\000\000\000\000\000\000\000\000\000\000\000\000\000\000\000\000\000\000\000\000\000\000\000\000\000\000\000\000\000\000\000\000\000\000\000\000\000\000\000\000\000\000\000\000\000\000\000\000\000\000\000\000\000\000\000\000\000\000\000\000\000\000\000\000\000\000\000\000\000\000\000\000\000\000\000\000\000\000\000\000\000\000\000\000\000\000\000\000\000\000\000\000\000\000\000\000\000\000\000\000\000\000\000\000\000\000\000\000\000\000\000\000\000\000\000\000\000\000\000\000\000\000\000\000\000\000\000\000\000\000\000\000\000\000\000\000\000\000\000\000\000\000\000\000\000\000\360?\000\000\000\000\000\000\000\000\000\000\000\000\000\000\000\000\000\000\000\000\000\000\000\000\000\000\000\000\000\000\000\000\000\000\000\000\000\000\000\000\000\000\000\000\000\000\000\000\001!q\331\264t\357?3d\230|\003\221\306?fS\247m\203$\252?\311\225\366\356\365\247u?^d\305\273i\275Q?\231-.b\033\304\026?\030$N\"2t\356>\370y[\272\347\203\260>9g\310\320\351!\203>\246\020\365\335\004MB>\346\346jmy\366\022>[\211\023\312,h\320=\225\213\260\311\337\376\236=\000\000\000\000\000\000\000\000\000\000\000\000\000\000\000\000\000\000\000\000\000\000\000\000\000\000\000\000\000\000\000\000\000\000\000\000\000\000\000\000\000\000\000\000\000\000\000\000\000\000\000\000\000\000\000\000\000\000\000\000\000\000\000\000\000\000\000\000\000\000\000\000\000\000\000\000\000\000\000\000\000\000\000\000\000\000\000\000\000\000\000\000\000\000\000\000\224l\267\326w\377\357?\000\000\000\000\000\000\000\000\000\000\000\000\000\000\000\000\373\304\332=QV\207?\000\000\000\000\000\000\000\000\000\000\000\000\000\000\000\000\253~q)\207r\376>\000\000\000\000\000\000\000\000\000\000\000\000\000\000\000\000\362\215(\030\035bc>\000\000\000\000\000\000\000\000\000\000\000\000\000\000\000\000b\334\345\217\333\177\276=\000\000\000\000\000\000\000\000\000\000\000\000\000\000\000\000\000\000\000\000\000\000\000\000\000\000\000\000\000\000\000\000\000\000\000\000\000\000\000\000\000\000\000\000\000\000\000\000\000\000\000\000\000\000\000\000\000\000\000\000\000\000\000\000\000\000\000\000\000\000\000\000\000\000\000\000\000\000\000\000\000\000\000\000\000\000\000\000\000\000\000\000\000\000\000\000D\002\267\035n4\352?\000\000\000\000\000\000\000\000\257\300\366\334b\034\341?\000\000\000\000\000\000\000\000@\242\340aL\207\311?\000\000\000\000\000\000\000\000(\327\221\244\222\"\256?\000\000\000\000\000\000\000\000w\r0\246-\357\216?\000\000\000\000\000\000\000\000\356\311/nN\331l?\000\000\000\000\000\000\000\000y \355\251K\rI?\000\000\000\000\000\000\000\000\204\232)m\034\223$?\000\000\000\000\000\000\000\000\231\273\237\261\234&\000?\000\000\000\000\000\000\000\000\006`\005t\235k\330>\000\000\000\000\000\000\000\000\266\232\355\242\252\341\261>\000\000\000\000\000\000\000\000\271\207\277Uzy\211>\000\000\000\000\000\000\000\000S\202\366\275\226\266a>\032\2263Z\221\351\355?\343\277@\310\364^\253?\241\316(\357\232\211\324?>\005S3\034b\204?UJ\201\314!\201\300?\242N\246\215\001\241\177?/oi\256`\361\252?m\242\370\323.\253\206?_\374\031\361\371\027\226?\334\370\316\036>\237\202?#\257\003\272\364\234\202?\375\310\303\032Y\ty?\217\226v\243\377\316p?Y\203\255\314\246\020n?1jE\354T\344`?\024\326\367\334\n\310`?\270\300\013\244C\334R?\333P4qD\350Q?,\311:\351\005uF?\315\312\006\235\237\302B?\307\332L\325\0365;?\323Q\365&\025\3303?ISz\025\332C0?\354\231\351\347\276\267%?~\223\001\237\350\363\"?\000\000\000\000\000\000\360?\000\000\000\000\000\000\000\000\000\000\000\000\000\000\000\000\000\000\000\000\000\000\000\000\000\000\000\000\000\000\000\000\000\000\000\000\000\000\000\000\000\000\000\000\000\000\000\000\000\000\000\000\000\000\000\000\000\000\000\000\000\000\000\000\000\000\000\000\000\000\000\000\000\000\000\000\000\000\000\000\000\000\000\000\000\000\000\000\000\000\000\000\000\000\000\000\000\000\000\000\000\000\000\000\000\000\000\000\000\000\000\000\000\000\000\000\000\000\000\000\000\000\000\000\000\000\000\000\000\000\000\000\000\000\000\000\000\000\000\000\000\000\000\000\000\000\000\000\000\000\000\000\000\000\000\000\000\000\000\000\000\000\000\000\000\000\000\000\000\000\000\000\000\000\000\000\000\000\000\000\000\000\000\000\000\000\000\000\000\000\000\000\000\000\000\000\000\000\000\000\000\000\000\000\000\000\000\000\000\000\000\000\000\000\000\000\000\000\000\000\000\000\000\000\000\000\000\000\000\000\000\000\000\000\000\000\000\000\000\000\000\000\000\000\000\000\000\000\000\000\000\000\000\000\000\000\000\000\000\000\000\000\000\000\000\000\000\000\000\000\000\000\000\000\000\000\000\000\000\000\000\000\000\000\000\000\000\000\000\000\000\000\000\000\000\000\000\000\000\000\000\000\000\000\000\000\000\000\000\000\000\000\000\000\000\000\000\000\000\000\000\000\000\000\000\000\000\000\000\000\000\000\000\000\000\000\000\000\000\000\000\000\000\000\000\000\000\000\000\000\000\000\000\000\000\000\000\000\000\000\000\000\000\000\000\000\000\000\000\000\000\000\000\000\360?\000\000\000\000\000\000\000\000\000\000\000\000\000\000\000\000*\316\354x\245\010\311?\030\245=n\243\257\356?\337\240\035\262]f\261?\n\230\264\217\311\240\310?\361R~\265\314\277\203?\242\007~\320\020\247\225?\247i|\235\235ZL?\231\207O\234\344EZ?QC\200\250\211\313\r?\n&\354\373(Y\030?`\261\311\263{\262\310>w\352\3614pA\322>\025\212\001\362a\347\200>\212\256\'\252\302\374\206>t\372\230r\315\2643><\002m\241\250\3628>}\227k\301s\001\344=J}\222B_\312\347=\\\344\2677\214\374\221=A\352\267(\007\210\223=\000\000\000\000\000\000\000\000\000\000\000\000\000\000\000\000\000\000\000\000\000\000\000\000\000\000\000\000\000\000\000\000\000\000\000\000\000\000\000\0008\246(\023+\370\357?\000\000\000\000\000\000\000\000\000\000\000\000\000\000\000\000\360\222[\327\273a\246?\000\000\000\000\000\000\000\000\000\000\000\000\000\000\000\000\335\333p\217\310\007<?\000\000\000\000\000\000\000\000\000\000\000\000\000\000\000\000\330\334\t\300\031!\301>\000\000\000\000\000\000\000\000\000\000\000\000\000\000\000\000\347\0223\032[\3379>\000\000\000\000\000\000\000\000\000\000\000\000\000\000\000\000T\274\301\010],\253=\000\000\000\000\000\000\000\000\000\000\000\000\000\000\000\000\000\000\000\000\000\000\000\000\000\000\000\000\000\000\000\000\000\000\000\000\000\000\000\000\000\000\000\000\000\000\000\000\000\000\000\000\000\000\000\000\000\000\000\000\000\000\000\000\000\000\000\000\000\000\000\0009VBZ\262\027\357?\000\000\000\000\000\000\000\000Gb7\2572\374\314?\000\000\000\000\000\000\000\000\347\235\312c\367\231\260?\000\000\000\000\000\000\000\000\006\217\367-\237\033\224?\000\000\000\000\000\000\000\000\324\215\016\320\371\006y?\000\000\000\000\000\000\000\000f\t\362\262,\254_?\000\000\000\000\000\000\000\000\364\252] xED?\000\000\000\000\000\000\000\000,H\035}\320**?\000\000\000\000\000\000\000\000o\371\003xv\377\020?\000\000\000\000\000\000\000\000q\256\352\343\3621\366>\000\000\000\000\000\000\000\000\313 \336x=\031\335>\000\000\000\000\000\000\000\000\324c\373\365\005#\303>\000\000\000\000\000\000\000\000\361\340\255\301\273<\251>\003\001 K\213\273\344?\036\301\337\340\316.O?\017O\227n\266\234\332?\346zsT\233(P?\2234d\001\010\353\324?\022S\304p|VN?\210l\017\315\346T\321?\310\276tA\361\352K?\000\003\331\236\272m\315?3\255\310iufF?9c\033\333dY\311?\037&\333q\027\337H?\307\274\356\211\027\375\305?\371\r\377#\037\345;?s\243\356\245aR\303?\001\370\r)ev8?l\016\352Z\034\336\300?\032\r_\270.\372B?\004\361\024\271\350\334\275?\206\371\367\313r\2079?\234{\"=\236w\272?\353cz\322D\352\'?\177o\303\217\326n\267?\014\377\031\337\325I\"?\003\020\272!\340\320\264?+\350d\251\234\251\347?\000\000\000\000\000\000\000\000\000\000\000\000\000\000\000\000\000\000\000\000\000\000\000\000\201g\311=\350\212\345?\000\000\000\000\000\000\000\000\000\000\000\000\000\000\000\000\000\000\000\000\000\000\000\000\000\000\000\000\000\000\000\000\000\000\000\000\000\000\000\000\000\000\000\000\000\000\000\000\000\000\000\000\000\000\000\000\000\000\000\000\000\000\000\000\000\000\000\000\000\000\000\000\000\000\000\000\000\000\000\000\000\000\000\000\000\000\000\000\000\000\000\000\000\000\000\000\000\000\000\000\000\000\000\000\000\000\000\000\000\000\000\000\000\000\000\000\000\000\000\000\000\000\000\000\000\000\000\000\000\000\000\000\000\000\000\000\000\000\000\000\000\000\000\000\000\000\000\000\000\000\000\000\000\000\000\000\000\000\000\000\000\000\000\000\000\000\000\000\000\000\000\000\000\000\000\000\000\000\000\000\000\000\000\000\000\000\000\000\000\000\000\000\000\000\000\000\000\000\000\000\000\000\000\000\000\000\000\000\000\000\000\000\000\000\000\000\000\000\000\000\000\000\000\000\000\000\000\000\000\000\000\000\000\000\000\000\000\000\000\000\000\000\000\000\000\000\360?\000\000\000\000\000\000\000\000\000\000\000\000\000\000\000\000\000\000\000\000\000\000\000\000\000\000\000\000\000\000\000\000\000\000\000\000\000\000\000\000\000\000\000\000\000\000\000\000\000\000\000\000\000\000\000\000\000\000\000\000\000\000\000\000\000\000\000\000\000\000\000\000\000\000\000\000\000\000\000\000\000\000\000\000\000\000\000\000\000\000\000\000\000\000\000\000\000\000\000\000\000\000\000\000\000\000\000\000\000\000\000\000\\5R@q\364\355?\243V%\313\374U\316?\251(\261\0045\\\320?\336N\215_\244!\243?\346.\252\347\274.\235?Y\033Z[\007oj?i\240\311\273\nv`?i\000\364\373\0224)?b\317^Q9/\033?,\247\210\222\177Z\342>\346\364\243\r\312\264\321>Z&\275\323I\240\225>\213_\232.\254\013\203>\n\0047\325\340eE>\253E.\004_r1>^\343\177u\206?\362=\305\221h6\323\325\333=\r\233\301\216\000Y\233=r\033=|c\010\201=\000\000\000\000\000\000\000\000\000\000\000\000\000\000\000\000\000\000\000\000\000\000\000\000\000\000\000\000\000\000\000\000\000\000\000\000\000\000\000\000\000\000\000\000\000\000\000\000\030\341\235\314Y\375\357?\000\000\000\000\000\000\000\000\000\000\000\000\000\000\000\000\202\350\331\272-\n\232?\000\000\000\000\000\000\000\000\000\000\000\000\000\000\000\000\225v\365\353o\365\"?\000\000\000\000\000\000\000\000\000\000\000\000\000\000\000\000\233\335\267\316\363\360\232>\000\000\000\000\000\000\000\000\000\000\000\000\000\000\000\000\232g(\260\032\250\007>\000\000\000\000\000\000\000\000\000\000\000\000\000\000\000\000\000\000\000\000\000\000\000\000\000\000\000\000\000\000\000\000\000\000\000\000\000\000\000\000\000\000\000\000\000\000\000\000\000\000\000\000\000\000\000\000\000\000\000\000\000\000\000\000\000\000\000\000\000\000\000\000\000\000\000\000\000\000\000\000\000\000\000\000\000\000\000\000\000\000\000\000\000\000\000\000\3066)jf\252\356?\000\000\000\000\000\000\000\000`xi>u\"\322?\000\000\000\000\000\000\000\000\371\322M\307\254\341\242?\000\000\000\000\000\000\000\000\303\320\363\250E\235j?\000\000\000\000\000\000\000\000Z\323\034\n56-?\000\000\000\000\000\000\000\000\256\220LWS\306\352>\000\000\000\000\000\000\000\000a\251Y\221\022]\245>\000\000\000\000\000\000\000\000\213\022dz!\200^>\000\000\000\000\000\000\000\000\263\017\254iO\333\023>\000\000\000\000\000\000\000\000}\242\033\332I\004\310=\000\000\000\000\000\000\000\000\036\324\266\231d?u=\000\000\000\000\000\000\000\000\000\000\000\000\000\000\000\000\000\000\000\000\000\000\000\000\000\000\000\000\000\000\000\000P\347*8\021\352\350?\322Z\\\355e%~?\270ll\023\326\006\334?Zf\35523Xx?4\2022\314\230M\323?\177\345\333bR,q?\230\301\362\326\353\005\314?(\342\302\267\r\316e?\243\221\375i\033\327\304?\307\005<\220\257\306W?S\360\355\366\307n\277?n\017O\205U\356A?Wu\017/z\353\267?\257\257X\332\023\016\031?\371I\261\223\262Q\262?\231\252\'\316\374iA?\177G\n\334\0301\254?\000a\277r;qJ?\004\177\345)}\305\245?\241[\222\022\347\201O?\247\032\014\305\261\334\240?\275\004O\317\274\337P?j\343\027\302d.\232?\001e\t0\364\002Q?\202o\2605\276]\224?L\010a\206\256\016\355?\000\000\000\000\000\000\000\000\000\000\000\000\000\000\000\000\000\000\000\000\000\000\000\000\000\000\000\000\000\000\000\000\000\000\000\000\000\000\000\000\000\000\000\000\000\000\000\000\000\000\000\000\000\000\000\000\000\000\000\000\000\000\000\000\000\000\000\000\000\000\000\000\000\000\000\000\000\000\000\000\000\000\000\000\000\000\000\000\000\000\000\000\000\000\000\000\000\000\000\000\000\000\000\000\000\000\000\000\000\000\000\000\000\000\000\000\000\000\000\000\000\000\000\000\000\000\000\000\000\000\000\000\000\000\000\000\000\000\000\000\000\000\000\000\000\000\000\000\000\000\000\000}\335S\216\350\316\332?\000\000\000\000\000\000\000\000\000\000\000\000\000\000\000\000\000\000\000\000\000\000\000\000\000\000\000\000\000\000\000\000\000\000\000\000\000\000\000\000\000\000\000\000\000\000\000\000\000\000\000\000\000\000\000\000\000\000\000\000\000\000\000\000\000\000\000\000\000\000\000\000\000\000\000\000\000\000\000\000\000\000\000\000\000\000\000\000\000\000\000\000\000\000\000\000\000\000\000\000\000\000\000\000\000\000\000\000\000\000\000\000\000\000\000\000\000\000\000\000\000\000\000\000\000\000\000\000\000\000\000\000\000\000\000\000\000\000\000\000\000\000\000\000\000\000\000\000\000\000\000\000\000\000\000\000\000\000\000\000\000\000\000\000\000\000\000\000\000\000\000\000\000\000\000\000\000\000\000\000\000\000\000\000\000\000\000\000\000\000\000\000\000\000\000\000\000\000\360?\000\000\000\000\000\000\000\000\000\000\000\000\000\000\000\000\000\000\000\000\000\000\000\000\000\000\000\000\000\000\000\000\241\021\264\000\377\377\357?\212\260\n\237+\363O?\254\022\261\360\352\002\364>\253\227i\247,\022G>\002\007:\301\211o\344=\000\000\000\000\000\000\000\000\000\000\000\000\000\000\000\000\000\000\000\000\000\000\000\000\000\000\000\000\000\000\000\000\000\000\000\000\000\000\000\000\000\000\000\000\000\000\000\000\000\000\000\000\000\000\000\000\000\000\000\000\000\000\000\000\000\000\000\000\000\000\000\000\000\000\000\000\000\000\000\000\000\000\000\000\000\000\000\000\000\000\000\000\000\000\000\000\000\000\000\000\000\000\000\000\000\000\000\000\000\000\000\000\000\000\000\000\000\000\000\000\000\000\000\000\000\000\000\000\000\000\000\000\000\000\000\000\000\000\000\000\000\000\000\000\000\000\000\000\000\000\000\000\000\000\000\000\000\000\000\000\355\322\026\371H\376\357?\000\000\000\000\000\000\000\000\000\000\000\000\000\000\000\000N\307F\252\237\363\224?\000\000\000\000\000\000\000\000\000\000\000\000\000\000\000\000\023\013e~^\213\030?\000\000\000\000\000\000\000\000\000\000\000\000\000\000\000\000`Ar|o\017\214>\000\000\000\000\000\000\000\000\000\000\000\000\000\000\000\000\351\355\357\210\224\322\363=\000\000\000\000\000\000\000\000\000\000\000\000\000\000\000\000\000\000\000\000\000\000\000\000\000\000\000\000\000\000\000\000\000\000\000\000\000\000\000\000\000\000\000\000\000\000\000\000\000\000\000\000\000\000\000\000\000\000\000\000\000\000\000\000\000\000\000\000\000\000\000\000\000\000\000\000\000\000\000\000\000\000\000\000\000\000\000\000\000\000\000\000\000\000\000\000\006$\357\001[E\353?\000\000\000\000\000\000\000\000m<3\376\263\201\332?\000\000\000\000\000\000\000\000\241\273\347f\355\217\317?\000\000\000\000\000\000\000\000*\263\357\257\373\317\303?\000\000\000\000\000\000\000\0000\316\346\023z~\271?\000\000\000\000\000\000\000\000\265\023^{\234\243\260?\000\000\000\000\000\000\000\000Pw)\342\276\354\245?\000\000\000\000\000\000\000\000\220\236\355\315?\025\235?\000\000\000\000\000\000\000\000\227\351%\306\305b\223?\000\000\000\000\000\000\000\000D!})\345\361\211?\000\000\000\000\000\000\000\000\321\274\245\334\202j\201?\000\000\000\000\000\000\000\000{x\022\3340qw?\000\000\000\000\000\000\000\000\272O\317E&\237o?1\214\324\216\013n\327?\351\"}\335\t?\332> \005\300\315\325i\320?W\225\261\242\223\205\032?\031(\251A-A\314?\236\2757\000IIR?\374\363\205\200\2673\311?X\022s-\227\035y?\"\n\316\025H\034\310?u\023q\335\017\363\221?\360\217ja1R\306?\272\363P\277[[\232?\375A\241\001\362\332\303?\307\212\\\211\347\021\213?\241K\316\001w=\304?j\337\314D\010Tt?Nw\2450\363r\306?\021\341&\365\000\263\177? \\\';\361 \300?\n\257\357\272o\326\233?\357|\372$I(\301?\360\212|G\377\272\222?7;\244\035\033:\300?\027V\214\303\271\266\214?\037S\033\257\236\232\303?\257\032\027\032\035K\350?\000\000\000\000\000\000\000\000\000\000\000\000\000\000\000\000\000\000\000\000\000\000\000\000\000\000\000\000\000\000\000\000\000\000\000\000\000\000\000\000\000\000\000\000\000\000\000\000\320hH^\036\324\344?\000\000\000\000\000\000\000\000\000\000\000\000\000\000\000\000\000\000\000\000\000\000\000\000\000\000\000\000\000\000\000\000\000\000\000\000\000\000\000\000\000\000\000\000\000\000\000\000\000\000\000\000\000\000\000\000\000\000\000\000\000\000\000\000\000\000\000\000\000\000\000\000\000\000\000\000\000\000\000\000\000\000\000\000\000\000\000\000\000\000\000\000\000\000\000\000\000\000\000\000\000\000\000\000\000\000\000\000\000\000\000\000\000\000\000\000\000\000\000\000\000\000\000\000\000\000\000\000\000\000\000\000\000\000\000\000\000\000\000\000\000\000\000\000\000\000\000\000\000\000\000\000\000\000\000\000\000\000\000\000\000\000\000\000\000\000\000\000\000\000\000\000\000\000\000\000\000\000\000\000\000\000\000\000\000\000\000\000\000\000\000\000\000\000\000\000\000\000\000\000\000\000\000\000\000\000\000\000\000\000\000\000\000\000\000\000\000\000\000\000\000\000\000\000\000\000\000\000\000\000\000\000\000\000\000\000\000\000\000\000\000\000\000\000\000\000\000\000\000\000\000\000\000\000\360?\000\000\000\000\000\000\000\000\000\000\000\000\000\000\000\000\000\000\000\000\000\000\000\000\000\000\000\000\000\000\000\000\000\000\000\000\000\000\000\000\000\000\000\000\000\000\000\000\000\000\000\000\000\000\000\000\000\000\000\000\000\000\000\000\000\000\000\000\000\000\000\000\000\000\000\000\000\000\000\000\036\337\267\223\343Z\352?\233\353\010\316\272$\251?\320\340\271\\\321m\341?\003j\313,83\223?\357\267f\000k\322\302?\303\203J]\232\017p?\003\333i\371\374\265\231?%\006d\224\311\212B?\376\001\277\254\303\264i?8\035~\240~Y\020?\301\314b\001\003F4?\317\216\276\036\244S\327>\226\272\201\016\250g\372>\365|Qpl\362\233>\215(\017l\305I\275>t\234r\332\256\333\\>\005\305?40J|>p^\246o\367.\032>\034\377\000P(38>N\316\305H\270/\325=+_\267Y\225\223\362=\201Z\263%+\247\216=eD\n\276~\335\251=\000\000\000\000\000\000\000\000\000\000\000\000\000\000\000\000\322\034\254\016\371\377\357?\000\000\000\000\000\000\000\000\000\000\000\000\000\000\000\000\232+H\351C\024e?\000\000\000\000\000\000\000\000\000\000\000\000\000\000\000\000\324\244\375\355\304\326\270>\000\000\000\000\000\000\000\000\000\000\000\000\000\000\000\0002\rO\334^\220\374=\000\000\000\000\000\000\000\000\000\000\000\000\000\000\000\000\000\000\000\000\000\000\000\000\000\000\000\000\000\000\000\000\000\000\000\000\000\000\000\000\000\000\000\000\000\000\000\000\000\000\000\000\000\000\000\000\000\000\000\000\000\000\000\000\000\000\000\000\000\000\000\000\000\000\000\000\000\000\000\000\000\000\000\000\000\000\000\000\000\000\000\000\000\000\000\000\000\000\000\000\000\000\000\000\000\000\000\000\000\000\000\000\000\000\000\000\000\000\000\000\341&r\216LN\356?\000\000\000\000\000\000\000\000\372\003\030q!\013\323?\000\000\000\000\000\000\000\000\3030\317\212\350\211\274?\000\000\000\000\000\000\000\000e\027\344\221\013\313\245?\000\000\000\000\000\000\000\000\306.\346\367@k\220?\000\000\000\000\000\000\000\000dp7\331\354\255x?\000\000\000\000\000\000\000\000\353\333\252r\376\266d?\000\000\000\000\000\000\000\000\027\034\232\207\250\331V?\000\000\000\000\000\000\000\000\001\221\027\264\273\351M?\000\000\000\000\000\000\000\000\'\013\377\204\226\313C?\000\000\000\000\000\000\000\000q\300J\253\365X9?\000\000\000\000\000\000\000\000\301\325M\241\263b/?\000\000\000\000\000\000\000\0002\007\253\365t\351\"?\222!\"\232\244\030\244?\031\031F\315R\016\273?\231\322}RT\n\341?0e\037\214\255\343\320?\314\013\007\261 \266\223?\311K\352\014\215\227\321?\207\214\212\346>\362\263?\341\261\231\233\345c\275?\013bT\277mK\320?&(\264A=\341\265?\352hE\2154!\252?x:\334\3604\374\305?\236\2734\325\030\013\241?\331\333o\035\205\t\261?GD\223\n\r>\311?\244\210\233z\277$\270?\353n\262\231\302\215\232?5\367\377\323\3116\276?B\177\330\221\373\203\252?\001\216\371l\002\371\215?\250HC}\217\300\301?\363\036?!,^\274?\314@\223\363\t\274\274?\t\226\236\"\237\211\242?\232\034/X&Y\244?Q\036Q\231\"\017\353?\000\000\000\000\000\000\000\000\000\000\000\000\000\000\000\000\000\000\000\000\000\000\000\000\000\000\000\000\000\000\000\000\000\000\000\000\000\000\000\000\000\000\000\000\000\000\000\000\000\000\000\000\000\000\000\000\000\000\000\000\000\000\000\000\000\000\000\000\000\000\000\000\000\000\000\000\000\000\000\000\000\000\000\000\000\000\000\000\000\000\000\000\000\000\000\000\000\000\000\000\000\000\000\000\000\000\000\000\000\000\000\000\000\000\000\000\000\000\000\000\000\000\000\000\000\000\000\000\000\000\000\000\000\000\000\000\000\000\000\000\000\000\000\000\000\000\000\000\000\000\000\000\000\000\000\000\000\000\000\000\000\000\000\000\000\000\000\000\3678F\236\017\025\341?\000\000\000\000\000\000\000\000\000\000\000\000\000\000\000\000\000\000\000\000\000\000\000\000\000\000\000\000\000\000\000\000\000\000\000\000\000\000\000\000\000\000\000\000\000\000\000\000\000\000\000\000\000\000\000\000\000\000\000\000\000\000\000\000\000\000\000\000\000\000\000\000\000\000\000\000\000\000\000\000\000\000\000\000\000\000\000\000\000\000\000\000\000\000\000\000\000\000\000\000\000\000\000\000\000\000\000\000\000\000\000\000\000\000\000\000\000\000\360?\000\000\000\000\000\000\000\000\000\000\000\000\000\000\000\000\000\000\000\000\000\000\000\000\000\000\000\000\000\000\000\000\000\000\000\000\000\000\000\000\000\000\000\000\000\000\000\000\000\000\000\000\000\000\000\000\000\000\000\000\000\000\000\000\000\000\000\000\000\000\000\000\000\000\000\000\000\000\000\000\000\000\000\000\000\000\000\000\000\000\000\000\000\000\000\000\031/\000o\216\377\357?\341\021?\010_\037\205?\023\240h\367\207\301V?\021a\236\032mX\341>\205F\362\203Tm\252>5\201@#\3274/><xR#\ni\363=\213\330t\323>~r=\000\000\000\000\000\000\000\000\000\000\000\000\000\000\000\000\000\000\000\000\000\000\000\000\000\000\000\000\000\000\000\000\000\000\000\000\000\000\000\000\000\000\000\000\000\000\000\000\000\000\000\000\000\000\000\000\000\000\000\000\000\000\000\000\000\000\000\000\000\000\000\000\000\000\000\000\000\000\000\000\000\000\000\000\000\000\000\000\000\000\000\000\000\000\000\000\000\000\000\000\000\000\000\000\000\000\000\000\000\000\000\000\000\000\000\000\000\000\000\000\000\000\000\000\000\000\000\000\000\000\000\000\000\000\000\000CG\3155\225\327\357?\000\000\000\000\000\000\000\000\000\000\000\000\000\000\000\000\221\025\333\254`d\271?\000\000\000\000\000\000\000\000\000\000\000\000\000\000\000\000\300p\304\215d\034b?\000\000\000\000\000\000\000\000\000\000\000\000\000\000\000\000aE-qk6\371>\000\000\000\000\000\000\000\000\000\000\000\000\000\000\000\000\034\330g\242*\260\205>\000\000\000\000\000\000\000\000\000\000\000\000\000\000\000\000\322\030A\300\021\362\t>\000\000\000\000\000\000\000\000\000\000\000\000\000\000\000\0006\302\257\005\017-\207=\000\000\000\000\000\000\000\000\000\000\000\000\000\000\000\000\000\000\000\000\000\000\000\000\000\000\000\000\000\000\000\000\000\000\000\000\000\000\000\000\000\000\000\000\000\000\000\000<\314\202D\356Z\354?\000\000\000\000\000\000\000\000\261\260\374\026r\345\330?\000\000\000\000\000\000\000\000HR/p\021\240\312?\000\000\000\000\000\000\000\000^D\322\255/\327\275?\000\000\000\000\000\000\000\000\251Y\331S\316\010\261?\000\000\000\000\000\000\000\000n#O\207\345\235\243?\000\000\000\000\000\000\000\000Gd\022\313Q\265\226?\000\000\000\000\000\000\000\000S8]\345\252p\212?\000\000\000\000\000\000\000\000\317\334\024\206\225\034\177?\000\000\000\000\000\000\000\000\240\255\r\017S\254r?\000\000\000\000\000\000\000\000f\232\213vo*g?\000\000\000\000\000\000\000\000nd\202\344^\014^?\000\000\000\000\000\000\000\000Xx\304F\205oT?\213\215(/\237\334\355?\337)~\246W\003\261?\005\227\002\322J\262\324?\363m\rn,S\213?i\366z\236\342n\300?=\n\234\267\002t\203?\352cY\225\016\321\251?\257\'P\002\2445\215?\325\355d\342\361\327\223?ce\235\366\221C\210?\314d\206\373P1\177?\207\032\216\372\0220\200?\263\374\003\204N\321k?\223\002\342\253\204\347r?\2446\240\206c\314^?\310\234~\335\377\rd?|f\232\256i-T?\033<\323\006\330\346S?\244I\005\334\212\251K?E\346[o]DC?%\360R\333\314IB?\205T@\t\266t3?`\330\312\203\337\2276?\0213s\241\010\000&?\277g\271\210\335\347)?\202\276\231\325\203\266\355?\000\000\000\000\000\000\000\000\000\000\000\000\000\000\000\000\000\000\000\000\000\000\000\000\000\000\000\000\000\000\000\000\000\000\000\000\000\000\000\000\000\000\000\000\000\000\000\000\000\000\000\000\000\000\000\000\000\000\000\000\000\000\000\000\000\000\000\000\000\000\000\000\000\000\000\000\000\000\000\000\000\000\000\000\000\000\000\000\000\000\000\000\000\000\000\000\000\000\000\000\000\000\000\000\000\000\000\000\000\000\000\000\000\000\000\000\000\000\000\000\000\000\000\000\000\000\000\000\000\000\000\000\000\000\000\000\000\000\000\000\000\000\000\000\000\000\000\000\000\000\000\000\000\000\000\000\000\000\000\000\r\227\333\333\261\302\327?\000\000\000\000\000\000\000\000\000\000\000\000\000\000\000\000\000\000\000\000\000\000\000\000\000\000\000\000\000\000\000\000\000\000\000\000\000\000\360?\000\000\000\000\000\000\000\000\000\000\000\000\000\000\000\000\000\000\000\000\000\000\000\000\000\000\000\000\000\000\000\000\000\000\000\000\000\000\000\000\000\000\000\000\000\000\000\000\000\000\000\000\000\000\000\000\000\000\000\000\000\000\000\000\000\000\000\000\000\000\000\000\000\000\000\000\000\000\000\000\000\000\000\000\000\000\000\000\000\000\000\000\000\000\000\000\000\000\000\000\000\000\000\000\000\000\000\000\000\000\000\000\000\000\000\000\000\000\000\000\000\000\000\000\000\000\000\000\000\000\000\000\000\000\000\000\000\000\000\000\000\000\000\000\000\000\000\000\000\000\000\000\000\000\000\000\000\000\000\000\000\000\000\000\000\000\000\000\000\000\000\000\000\000\000\000\000\000\000\000\000\000\000\000\361\231\265Gw\235\357?\206`\207\274\322\032\260?\221!\271z\314\t\302?\250C\022Wo8u?4\177cT}\316\200?:\202\006\202>\241.?c?/i\251\3163?(v2\336C\202\336>\226.%\005\371\025\341>\322\377\n\020\2375\207>\267\346\207\346_@\207>\235\r\321\r\321\221,>\214\300\236j\247 *>\241b\314\214\353\207\315=\371\364H\265\334\000\311=\000\000\000\000\000\000\000\000\000\000\000\000\000\000\000\000\000\000\000\000\000\000\000\000\000\000\000\000\000\000\000\000\000\000\000\000\000\000\000\000\000\000\000\000\000\000\000\000\000\000\000\000\000\000\000\000\000\000\000\000\000\000\000\000\000\000\000\000\000\000\000\000\000\000\000\000\000\000\000\000\350W1\251\203\377\357?\000\000\000\000\000\000\000\000\000\000\000\000\000\000\000\000\261\302\270P\024M\206?\000\000\000\000\000\000\000\000\000\000\000\000\000\000\000\000/\361\233\361\300\315\373>\000\000\000\000\000\000\000\000\000\000\000\000\000\000\000\000\035\340q\232\022\352`>\000\000\000\000\000\000\000\000\000\000\000\000\000\000\000\000vk$\377\321n\271=\000\000\000\000\000\000\000\000\000\000\000\000\000\000\000\000\000\000\000\000\000\000\000\000\000\000\000\000\000\000\000\000\000\000\000\000\000\000\000\000\000\000\000\000\000\000\000\000\000\000\000\000\000\000\000\000\000\000\000\000\000\000\000\000\000\000\000\000\000\000\000\000\000\000\000\000\000\000\000\000\000\000\000\000\000\000\000\000\000\000\000\000\000\000\000\000\341|\345\253\300\254\354?\000\000\000\000\000\000\000\000\367\2262\203\025n\324?\000\000\000\000\000\000\000\000\227\177\246\353\r!\306?\000\000\000\000\000\000\000\000\230d\372\371\376\270\301?\000\000\000\000\000\000\000\000\000R4\246\\k\277?\000\000\000\000\000\000\000\000(\344gn\271\017\273?\000\000\000\000\000\000\000\000(\361\001\344Jg\266?\000\000\000\000\000\000\000\000\372\324\034\201B\372\261?\000\000\000\000\000\000\000\000\302\1779\177\1772\254?\000\000\000\000\000\000\000\000p,\037\005\267\276\245?\000\000\000\000\000\000\000\000\2104xQ~\220\240?\000\000\000\000\000\000\000\000\313\266^\352F\003\231?\000\000\000\000\000\000\000\000\353{\323\231z\304\222?4l\353-P\356\357?\327 V\317\010ki?&\323EP\263\273\260?S\t\252@~\344_?\224\024K\330BUu?\230\371\220[8\330<?Z\347/\244\235>=?\016\322\373\r\n\266\021?\276s\321\362\304z\005?\031\306\274\365\303\312\342>X}\363\314\222\372\320>!<\025\026\n\237\262>\271\333\031\033\317\274\234>)e\255d\333\346\201>Q\270\310\364\332\253i>\330\224f7D\020Q>\211\r_V\214\3237>\346e\036_\314R >=&~\337\316\256\006>7eeb\250\220\357=[B\302p\177\006\326=\317\271\265\026\362\341\276=\351~_\374-\236\245=*\rU\327<\002\216=\240\227\210\332\311fs=\326\031\024\206\306\213\357?\000\000\000\000\000\000\000\000\253\230qD!|\305?\000\000\000\000\000\000\000\000\000\000\000\000\000\000\000\000\000\000\000\000\000\000\000\000\000\000\000\000\000\000\000\000\000\000\000\000\000\000\000\000\000\000\000\000\000\000\000\000\000\000\000\000\000\000\000\000\000\000\000\000\000\000\000\000\000\000\000\000\000\000\000\000\000\000\000\000\000\000\000\000\000\000\000\000\000\000\000\000\000\000\000\000\000\000\000\000\000\000\000\000\000\000\000\000\000\000\000\000\000\000\000\000\000\000\000\000\000\000\000\000\000\000\000\000\000\000\000\000\000\000\000\000\000\000\000\000\000\000\000\000\000\000\000\000\000\000\000\000\000\000\000\000\000\000\000\000\000\000\000\000\000\000\000\000\000\000\000\000\000\000\000\000\000\000\000\000\000\000\000\000\000\000\000\000\000\000\000\000\000\000\000\000\000\000\000\000\000\000\000\000\000\000\000\000\000\000\000\000\000\000\000\000\000\000\000\000\000\000\000\000\000\000\000\000\000\000\000\000\000\000\000\000\000\000\000\000\000\000\360?\000\000\000\000\000\000\000\000\000\000\000\000\000\000\000\000\000\000\000\000\000\000\000\000\000\000\000\000\000\000\000\000\000\000\000\000\000\000\000\000\000\000\000\000\000\000\000\000\000\000\000\000\000\000\000\000\000\000\000\000\000\000\000\000\000\000\000\000\000\000\000\000\000\000\000\000\000\000\000\000\000\000\000\000\000\000\000\000\000\000\000\000\000\000\000\000\000\000\000\000\000\000\000\000\000\000\000\000\000\000\000\000\000\000\000\000\000\000\000\000\000\000\000\000\000\000\000\000\000\000\000\000\000\000\000\0005\3201936\355?\347\013\227IW\357\331?\312\212\003\004\254\231\250?u\357|h48\211?\352R\2331K\352P?9!U\375U\335*?\227!\377\207\230l\355>\200\367\342v`\277\303>\244|az8\273\202>\264F)\334m,V>\302\20032\340\317\022>\251\311\240\330\243$\344=\206\312;4j3\237=\000\000\000\000\000\000\000\000\000\000\000\000\000\000\000\000\000\000\000\000\000\000\000\000\000\000\000\000\000\000\000\000\000\000\000\000\000\000\000\000\000\000\000\000\000\000\000\000\000\000\000\000\000\000\000\000\000\000\000\000\000\000\000\000\000\000\000\000\000\000\000\000\000\000\000\000\000\000\000\000\000\000\000\000\000\000\000\000\000\000\000\000\000\000\000\000\3461*,\377\377\357?\000\000\000\000\000\000\000\000\000\000\000\000\000\000\000\000-n1\341\356\033M?\000\000\000\000\000\000\000\000\000\000\000\000\000\000\000\000\323\351>\326\023\257\207>\000\000\000\000\000\000\000\000\000\000\000\000\000\000\000\000\335\300(\371.\316\262=\000\000\000\000\000\000\000\000\000\000\000\000\000\000\000\000\000\000\000\000\000\000\000\000\000\000\000\000\000\000\000\000\000\000\000\000\000\000\000\000\000\000\000\000\000\000\000\000\000\000\000\000\000\000\000\000\000\000\000\000\000\000\000\000\000\000\000\000\000\000\000\000\000\000\000\000\000\000\000\000\000\000\000\000\000\000\000\000\000\000\000\000\000\000\000\000\000\000\000\000\000\000\000\000\000\000\000\000\000\000\000\000\000\000\000\000\000\000\000\000~)\215\231e6\353?\000\000\000\000\000\000\000\000y\310\332\036\\:\332?\000\000\000\000\000\000\000\000\210\375\224.\004\320\317?\000\000\000\000\000\000\000\000%NYS\351\233\304?\000\000\000\000\000\000\000\000\263\206F\340\230v\273?\000\000\000\000\000\000\000\000\261 ;\334\256\206\262?\000\000\000\000\000\000\000\000\031\200\256\375|\035\251?\000\000\000\000\000\000\000\000\257x\271\320\275\n\241?\000\000\000\000\000\000\000\000\016\225\332\205\365\033\227?\000\000\000\000\000\000\000\000\326\036\r5\242H\217?\000\000\000\000\000\000\000\000\346\t*p\232!\205?\000\000\000\000\000\000\000\000\314\3170(1||?\000\000\000\000\000\000\000\000k\365\225%m(s?]V\2653\276T\333?\363\031\224ZN\t\302>\203\202\244\346y\000\323?r\346\274S7L\316>\34705~\036.\320?\245P\217x:\260\321>:\'\256\212o\013\315?\262\260n\026\031\210\002?1\005\212h\333\267\312?\243\244\306V\3531\031?\242\320\237\257&\346\310?\023\375\214\335\r\357*?\"~\033\324\325\203\307?`\021#Ze\242,?]9\014\220\366\027\306?z\316Qe\325\324!?\275\337\244.3`\305?[I\266\323\263\013T?=\003\263\004\026\371\303?\323H\210\270`\214h?R]<\251\217z\303?4\200\271\027\235&s?E\016\301U\345\336\302?5\207\2147\nVs?\335\347\0007&+\301?\244\200\311(4/\350?\000\000\000\000\000\000\000\000\000\000\000\000\000\000\000\000\000\000\000\000\000\000\000\000\000\000\000\000\000\000\000\000\000\000\000\000\000\000\000\000\000\000\000\000\000\000\000\000\000\000\000\000\000\000\000\000\000\000\000\000\000\000\000\000\000\000\000\000\000\000\000\000\000\000\000\000\000\000\000\000\000\000\000\000\000\000\000\000\000\000\000\000\000\000\000\000\000\000\000\000\000\000\000\000\000\000\000\000\000\000\000\000\000\000\000\000\000\000\000\000\000\000\000\000\000\000\000\000\000\000\000\000\000\000\000\000\000\000\000\000\000\000\000\000\000\000\000\000\000\000\000\000\000\000\000\000\000\000\000\000\000\000\000\000\000\000\000\000\000\000\000\000\000\000\000\000c\'q\377\177\364\344?\000\000\000\000\000\000\000\000\000\000\000\000\000\000\000\000\000\000\000\000\000\000\000\000\000\000\000\000\000\000\000\000\000\000\000\000\000\000\000\000\000\000\000\000\000\000\360?\000\000\000\000\000\000\000\000\000\000\000\000\000\000\000\000\000\000\000\000\000\000\000\000\000\000\000\000\000\000\000\000\000\000\000\000\000\000\000\000\000\000\000\000\000\000\000\000\000\000\000\000\000\000\000\000\000\000\000\000\000\000\000\000\000\000\000\000\000\000\000\000\000\000\000\000\000\000\000\000\000\000\000\000\000\000\000\000\000\000\000\000\000\000\000\000\000\000\000\000\000\000\000\000\000\000\000\000\000\000\000\000\000\000\000\000\000\000\000\000\000\000\000\000\000\000\000\000\000\000\000\000\000\000\000\000\000\000\000\000\000\000\000\000\000\000\000\000\000\000\000\000\000\000\000\000\000\000\000\000\342>\262\331\177\366\357?\026\352l\331a\246\250?\313\307\000Nkg@?\241\034<\372@7\355>\330V\370\326\356~{>\361[\302[\\\367\">\344\320\263i\374%\255=\000\000\000\000\000\000\000\000\000\000\000\000\000\000\000\000\000\000\000\000\000\000\000\000\000\000\000\000\000\000\000\000\000\000\000\000\000\000\000\000\000\000\000\000\000\000\000\000\000\000\000\000\000\000\000\000\000\000\000\000\000\000\000\000\000\000\000\000\000\000\000\000\000\000\000\000\000\000\000\000\000\000\000\000\000\000\000\000\000\000\000\000\000\000\000\000\000\000\000\000\000\000\000\000\000\000\000\000\000\000\000\000\000\000\000\000\000\000\000\000\000\000\000\000\000\000\000\000\000\000\000\000\000\000\000\000\000\000\000\000\000\000\000\0001\016\356\377\377\377\357?\000\000\000\000\000\000\000\000\000\000\000\000\000\000\000\000\006iI#\304\361\360>\000\000\000\000\000\000\000\000\000\000\000\000\000\000\000\000\021\252hi\322\014\320=\000\000\000\000\000\000\000\000\000\000\000\000\000\000\000\000\000\000\000\000\000\000\000\000\000\000\000\000\000\000\000\000\000\000\000\000\000\000\000\000\000\000\000\000\000\000\000\000\000\000\000\000\000\000\000\000\000\000\000\000\000\000\000\000\000\000\000\000\000\000\000\000\000\000\000\000\000\000\000\000\000\000\000\000\000\000\000\000\000\000\000\000\000\000\000\000\000\000\000\000\000\000\000\000\000\000\000\000\000\000\000\000\000\000\000\000\000\000\000\000\000\000\000\000\000\000\000\000\000\000\000\000\000\000\000\000\000\000\000\000\000\000\000\000\256\334k\303(\335\357?\000\000\000\000\000\000\000\000\275\243Y\243\310\254\265?\000\000\000\000\000\000\000\000\346\004\217\2653\024\232?\000\000\000\000\000\000\000\000=\017\230p\204\354\226?\000\000\000\000\000\000\000\000\223cg\202C\376\207?\000\000\000\000\000\000\000\000 A/1*Mu?\000\000\000\000\000\000\000\000\"\032\210\362\207`a?\000\000\000\000\000\000\000\000\253z\205^\332\323J?\000\000\000\000\000\000\000\000\037\303[\003\366\3303?\000\000\000\000\000\000\000\000)\340\333{&K\034?\000\000\000\000\000\000\000\000c\206?\322\251q\003?\000\000\000\000\000\000\000\000\240\253\037`\254\261\351>\000\000\000\000\000\000\000\000=\354\344\361\3368\320>\213N\261y\350;\341?\200+\304\177\334\271\"?\216r!\332(S\327?\307\313 \362\277@%?\002\261\214\346\337T\323?\252PQ`c\214&?\177\277~%g\343\320?\330\036K\346\374\362\"?^\327\211v\215>\316?*\206\302[\26060?4\334|\274\ti\313?\216\013J\253\\\275\032?\256\007.Y-N\311?\213\330\261\373\302\010A?\364\2759x\231\337\306?|}\266E(\301i?\311g\211\327y\331\305?\351%\330\232\201!w?\023\'n\237\303\361\303?\001>\206\003\370$t?\032\014%Z&r\302?\214\340\322\240\232JM?j\272\340\'S:\301?j\330\257\037a\356g?\036\272\r\306\215\344\300?\000\000\000\000\000\000\360?\000\000\000\000\000\000\000\000\000\000\000\000\000\000\000\000\000\000\000\000\000\000\000\000\000\000\000\000\000\000\000\000\000\000\000\000\000\000\000\000\000\000\000\000\000\000\000\000\000\000\000\000\000\000\000\000\000\000\000\000\000\000\000\000\000\000\000\000\000\000\000\000\000\000\000\000\000\000\000\000\000\000\000\000\000\000\000\000\000\000\000\000\000\000\000\000\000\000\000\000\000\000\000\000\000\000\000\000\000\000\000\000\000\000\000\000\000\000\000\000\000\000\000\000\000\000\000\000\000\000\000\000\000\000\000\000\000\000\000\000\000\000\000\000\000\000\000\000\000\000\000\000\000\000\000\000\000\000\000\000\000\000\000\000\000\000\000\000\000\000\000\000\000\000\000\000\000\000\000\000\000\000\000\000\000\000\000\000\000\000\000\000\000\000\000\000\000\000\000\000\000\000\000\000\000\000\000\000\000\000\000\000\000\000\000\000\000\000\000\000\000\000\000\000\000\000\000\000\000\000\360?\000\000\000\000\000\000\000\000\000\000\000\000\000\000\000\000\000\000\000\000\000\000\000\000\000\000\000\000\000\000\000\000\000\000\000\000\000\000\000\000\000\000\000\000\000\000\000\000\000\000\000\000\000\000\000\000\000\000\000\000\000\000\000\000\000\000\000\000\000\000\000\000\000\000\000\000\000\000\000\000\000\000\000\000\000\000\000\000\000\000\000\000\000\000\000\000\000\000\000\000\000\000\000\000\000\000\000\000\000\000\000\000\000\000\000\000\000\000\000\000\000\000\000\000\000\000\000\000\000\000\000\000\000\000\000\000\000\000\000\000\000\000\000\000\000\000\000\000\000\000\000\000\000\000\000\000\000\000\000\000Td!\301\210\377\357?B\374b\227\216\325\205?\253Ac\2253\032/?n0\036\244\221\201\270>\205[\006m\032\257X>w\263\210\203W!\336=\000\000\000\000\000\000\000\000\000\000\000\000\000\000\000\000\000\000\000\000\000\000\000\000\000\000\000\000\000\000\000\000\000\000\000\000\000\000\000\000\000\000\000\000\000\000\000\000\000\000\000\000\000\000\000\000\000\000\000\000\000\000\000\000\000\000\000\000\000\000\000\000\000\000\000\000\000\000\000\000\000\000\000\000\000\000\000\000\000\000\000\000\000\000\000\000\000\000\000\000\000\000\000\000\000\000\000\000\000\000\000\000\000\000\000\000\000\000\000\000\000\000\000\000\000\000\000\000\000\000\000\000\000\000\000\000\000\000\000\000\000\000\000\000\000\000\000\000\000\000\000\000[\335\377\377\377\377\357?\000\000\000\000\000\000\000\000\000\000\000\000\000\000\000\000\206\0145u\215\213\267>\000\000\000\000\000\000\000\000\000\000\000\000\000\000\000\000\000\000\000\000\000\000\000\000\000\000\000\000\000\000\000\000\000\000\000\000\000\000\000\000\000\000\000\000\000\000\000\000\000\000\000\000\000\000\000\000\000\000\000\000\000\000\000\000\000\000\000\000\000\000\000\000\000\000\000\000\000\000\000\000\000\000\000\000\000\000\000\000\000\000\000\000\000\000\000\000\000\000\000\000\000\000\000\000\000\000\000\000\000\000\000\000\000\000\000\000\000\000\000\000\000\000\000\000\000\000\000\000\000\000\000\000\000\000\000\000\000\000\000\000\000\000\000\000\000\000\000\000\000\000\000\000\000\000\000\000\000\000\000\000\000\000\000\000\000\000\000\000yH\250\225bi\355?\000\000\000\000\000\000\000\000{)\317\336\035B\326?\000\000\000\000\000\000\000\000\215\247\n\250j\241\304?\000\000\000\000\000\000\000\000\211\224~\232\000(\264?\000\000\000\000\000\000\000\0002\315\017b\345-\244?\000\000\000\000\000\000\000\000\332\340\325\302-}\224?\000\000\000\000\000\000\000\000s\220\320\305\310\376\204?\000\000\000\000\000\000\000\000\373\017\232\364B\247u?\000\000\000\000\000\000\000\000rVf0vpf?\000\000\000\000\000\000\000\000\004:@\251\376VW?\000\000\000\000\000\000\000\000\310F\235%\016YH?\000\000\000\000\000\000\000\000\230\334)\316\322u9?\000\000\000\000\000\000\000\000\342c\"<#\255*?W&\250|e\225\341?\231dC\205\253:&?&a\211\337\323\264\327?j\350\3224E\024)?\275\234\370\244w\222\323?\324U\t\365\277**?\271\025\364(Z\010\321?\025\274\335\025^\353\'?\304\342\313\001|b\316?\032m\001\306\006\367,?t[\273p\364p\313?\233\257rc\303=2?\243\365\265\214R/\311?\332N\276H\232\233G?F\010!\\_\326\306?#\260\007\247\035oi?\357\262\t\340<i\305?8\216\355m\371\361s?\250\327\210\010^\327\303?\330\007Kk jp?\366\337\327u`\014\302?<\276\300\375\\\005B?*\376\360\345q\330\300?8\030\024N\020\204W?\245\341\261\r\246m\300?p\257+\230\242\276\354?\000\000\000\000\000\000\000\000\000\000\000\000\000\000\000\000\000\000\000\000\000\000\000\000\000\000\000\000\000\000\000\000\000\000\000\000\000\000\000\000\000\000\000\000\000\000\000\000\000\000\000\000\000\000\000\000\000\000\000\000\000\000\000\000\000\000\000\000\000\000\000\000\000\000\000\000\000\000\000\000\000\000\000\000\000\000\000\000\000\000\000\000\000\000\000\000\000\000\000\000\000\000\000\000\000\000\000\000\000\000\000\000\000\000\000\000\000\000\000\000\000\000\000\000\000\000\000\000\235\366\320\374\321\037\334?\000\000\000\000\000\000\000\000\000\000\000\000\000\000\000\000\000\000\000\000\000\000\000\000\000\000\000\000\000\000\000\000\000\000\000\000\000\000\000\000\000\000\000\000\000\000\000\000\000\000\000\000\000\000\000\000\000\000\000\000\000\000\000\000\000\000\000\000\000\000\000\000\000\000\000\000\000\000\000\000\000\000\000\000\000\000\000\000\000\000\000\000\000\000\000\000\000\000\000\000\000\000\000\000\000\000\000\000\000\000\000\000\000\000\000\000\000\000\360?\000\000\000\000\000\000\000\000\000\000\000\000\000\000\000\000\000\000\000\000\000\000\000\000\000\000\000\000\000\000\000\000\000\000\000\000\000\000\000\000\000\000\000\000\000\000\000\000\000\000\000\000\000\000\000\000\000\000\000\000\000\000\000\000\000\000\000\000\000\000\000\000\000\000\000\000\000\000\000\000\000\000\000\000\000\000\000\000\000\000\000\000\000\000\000\000\000\000\000\000\000\000\000\000\000\000\000\000\000\000\000\000\000\000\000\000\000\000\000\000\000\000\000\000\000\000\000\000\000\000\000\000\000\000\000\000\274\234\273s4Q\346?/ \026\276\336`\346?\013\031i\276\274O\301?\271\010\237[\\\013\264?\303\233\022c\276\355\205?\325\321\362:\332\252s?$\243Qne\221A?Zl,G\021\242*?9c\340vQ\232\364>\000~\374\351\264\213\333>\360c\244\255&\017\243>\223\360k\310\234\014\207>g\025\307B\363\035M>\326qws\01320>y)\262\270\371\360\362=\357\371\236^\273\235\323=\311\245+\031\317u\225=\000\000\000\000\000\000\000\000\000\000\000\000\000\000\000\000\000\000\000\000\000\000\000\000\000\000\000\000\000\000\000\000\000\000\000\000\000\000\000\000\000\000\000\000\000\000\000\000\000\000\000\000\000\000\000\000\000\000\000\000\000\000\000\000Wx\324\360\251\016\357?\000\000\000\000\000\000\000\000\000\000\000\000\000\000\000\000FD\000\\\003\313\316?\000\000\000\000\000\000\000\000\000\000\000\000\000\000\000\000\351\231\024\232\311N\213?\000\000\000\000\000\000\000\000\000\000\000\000\000\000\000\000:\245\025i#\2427?\000\000\000\000\000\000\000\000\000\000\000\000\000\000\000\000,