node {
  name: "global_step/Initializer/zeros"
  op: "Const"
  attr {
    key: "_class"
    value {
      list {
        s: "loc:@global_step"
      }
    }
  }
  attr {
    key: "_output_shapes"
    value {
      list {
        shape {
        }
      }
    }
  }
  attr {
    key: "dtype"
    value {
      type: DT_INT64
    }
  }
  attr {
    key: "value"
    value {
      tensor {
        dtype: DT_INT64
        tensor_shape {
        }
        int64_val: 0
      }
    }
  }
}
node {
  name: "global_step"
  op: "VariableV2"
  attr {
    key: "_class"
    value {
      list {
        s: "loc:@global_step"
      }
    }
  }
  attr {
    key: "_output_shapes"
    value {
      list {
        shape {
        }
      }
    }
  }
  attr {
    key: "container"
    value {
      s: ""
    }
  }
  attr {
    key: "dtype"
    value {
      type: DT_INT64
    }
  }
  attr {
    key: "shape"
    value {
      shape {
      }
    }
  }
  attr {
    key: "shared_name"
    value {
      s: ""
    }
  }
}
node {
  name: "global_step/Assign"
  op: "Assign"
  input: "global_step"
  input: "global_step/Initializer/zeros"
  attr {
    key: "T"
    value {
      type: DT_INT64
    }
  }
  attr {
    key: "_class"
    value {
      list {
        s: "loc:@global_step"
      }
    }
  }
  attr {
    key: "_output_shapes"
    value {
      list {
        shape {
        }
      }
    }
  }
  attr {
    key: "use_locking"
    value {
      b: true
    }
  }
  attr {
    key: "validate_shape"
    value {
      b: true
    }
  }
}
node {
  name: "global_step/read"
  op: "Identity"
  input: "global_step"
  attr {
    key: "T"
    value {
      type: DT_INT64
    }
  }
  attr {
    key: "_class"
    value {
      list {
        s: "loc:@global_step"
      }
    }
  }
  attr {
    key: "_output_shapes"
    value {
      list {
        shape {
        }
      }
    }
  }
}
node {
  name: "global_step/IsVariableInitialized"
  op: "IsVariableInitialized"
  input: "global_step"
  attr {
    key: "_class"
    value {
      list {
        s: "loc:@global_step"
      }
    }
  }
  attr {
    key: "_output_shapes"
    value {
      list {
        shape {
        }
      }
    }
  }
  attr {
    key: "dtype"
    value {
      type: DT_INT64
    }
  }
}
node {
  name: "global_step/cond/Switch"
  op: "Switch"
  input: "global_step/IsVariableInitialized"
  input: "global_step/IsVariableInitialized"
  attr {
    key: "T"
    value {
      type: DT_BOOL
    }
  }
  attr {
    key: "_output_shapes"
    value {
      list {
        shape {
        }
        shape {
        }
      }
    }
  }
}
node {
  name: "global_step/cond/switch_t"
  op: "Identity"
  input: "global_step/cond/Switch:1"
  attr {
    key: "T"
    value {
      type: DT_BOOL
    }
  }
  attr {
    key: "_output_shapes"
    value {
      list {
        shape {
        }
      }
    }
  }
}
node {
  name: "global_step/cond/switch_f"
  op: "Identity"
  input: "global_step/cond/Switch"
  attr {
    key: "T"
    value {
      type: DT_BOOL
    }
  }
  attr {
    key: "_output_shapes"
    value {
      list {
        shape {
        }
      }
    }
  }
}
node {
  name: "global_step/cond/pred_id"
  op: "Identity"
  input: "global_step/IsVariableInitialized"
  attr {
    key: "T"
    value {
      type: DT_BOOL
    }
  }
  attr {
    key: "_output_shapes"
    value {
      list {
        shape {
        }
      }
    }
  }
}
node {
  name: "global_step/cond/read"
  op: "Identity"
  input: "global_step/cond/read/Switch:1"
  attr {
    key: "T"
    value {
      type: DT_INT64
    }
  }
  attr {
    key: "_output_shapes"
    value {
      list {
        shape {
        }
      }
    }
  }
}
node {
  name: "global_step/cond/read/Switch"
  op: "RefSwitch"
  input: "global_step"
  input: "global_step/cond/pred_id"
  attr {
    key: "T"
    value {
      type: DT_INT64
    }
  }
  attr {
    key: "_class"
    value {
      list {
        s: "loc:@global_step"
      }
    }
  }
  attr {
    key: "_output_shapes"
    value {
      list {
        shape {
        }
        shape {
        }
      }
    }
  }
}
node {
  name: "global_step/cond/Switch_1"
  op: "Switch"
  input: "global_step/Initializer/zeros"
  input: "global_step/cond/pred_id"
  attr {
    key: "T"
    value {
      type: DT_INT64
    }
  }
  attr {
    key: "_class"
    value {
      list {
        s: "loc:@global_step"
      }
    }
  }
  attr {
    key: "_output_shapes"
    value {
      list {
        shape {
        }
        shape {
        }
      }
    }
  }
}
node {
  name: "global_step/cond/Merge"
  op: "Merge"
  input: "global_step/cond/Switch_1"
  input: "global_step/cond/read"
  attr {
    key: "N"
    value {
      i: 2
    }
  }
  attr {
    key: "T"
    value {
      type: DT_INT64
    }
  }
  attr {
    key: "_output_shapes"
    value {
      list {
        shape {
        }
        shape {
        }
      }
    }
  }
}
node {
  name: "global_step/add/y"
  op: "Const"
  attr {
    key: "_output_shapes"
    value {
      list {
        shape {
        }
      }
    }
  }
  attr {
    key: "dtype"
    value {
      type: DT_INT64
    }
  }
  attr {
    key: "value"
    value {
      tensor {
        dtype: DT_INT64
        tensor_shape {
        }
        int64_val: 0
      }
    }
  }
}
node {
  name: "global_step/add"
  op: "Add"
  input: "global_step/cond/Merge"
  input: "global_step/add/y"
  attr {
    key: "T"
    value {
      type: DT_INT64
    }
  }
  attr {
    key: "_output_shapes"
    value {
      list {
        shape {
        }
      }
    }
  }
}
node {
  name: "dnn/input_from_feature_columns/input_layer/coefficients/Const"
  op: "Const"
  attr {
    key: "_output_shapes"
    value {
      list {
        shape {
          dim {
            size: 5000
          }
          dim {
            size: 25
          }
        }
      }
    }
  }
  attr {
    key: "dtype"
    value {
      type: DT_DOUBLE
    }
  }
  attr {
    key: "value"
    value {
      tensor {
        dtype: DT_DOUBLE
        tensor_shape {
          dim {
            size: 5000
          }
          dim {
            size: 25
          }
        }
        tensor_content: "\236&m\237/=\343?\311\272\335\246m\246\350?\026\205,\242\272\275\305?\2629\207\257(\025\300?\004\316\323)k\017\224?\353\361\250\260$\375\206?\005rJ;\240iW?H\244\257\257\017\255F?W\277\2174\000\000\024?\265\307A~[\025\001?\317\326\222\241\020\364\312>&\211H\030-\323\264>\320nm\343e\376}>\262\026\304\372#Qe>2\203z\014\310l,>\250+\025\265\230\316\022>\333\356\361\334Xu\327=O\354\032%\250(\275=\304\262\3334\355\267~=\000\000\000\000\000\000\000\000\000\000\000\000\000\000\000\000\000\000\000\000\000\000\000\000\000\000\000\000\000\000\000\000\000\000\000\000\000\000\000\000\000\000\000\000\000\000\000\000}\342\224~\037\345\357?\000\000\000\000\000\000\000\000\000\000\000\000\000\000\000\000?a\273o~\267\264?\000\000\000\000\000\000\000\000\000\000\000\000\000\000\000\000\031\376 m5\022X?\000\000\000\000\000\000\000\000\000\000\000\000\000\000\000\0005oQ]hK\353>\000\000\000\000\000\000\000\000\000\000\000\000\000\000\000\000[\013-\362\315\037s>\000\000\000\000\000\000\000\000\000\000\000\000\000\000\000\000_\303\354\244\212\242\362=\000\000\000\000\000\000\000\000\000\000\000\000\000\000\000\000\000\000\000\000\000\000\000\000\000\000\000\000\000\000\000\000\000\000\000\000\000\000\000\000\000\000\000\000\000\000\000\000\000\000\000\000\000\000\000\000\000\000\000\000\000\000\000\000\000\000\000\000\000\000\000\000#\017\357\252\3165\350?\000\000\000\000\000\000\000\000c\221\017\341z\335\335?\000\000\000\000\000\000\000\000\2517\377\272\372\206\325?\000\000\000\000\000\000\000\000^(h6I\344\315?\000\000\000\000\000\000\000\000\365\302\2112\211\n\304?\000\000\000\000\000\000\000\000I\027\253\307\0077\272?\000\000\000\000\000\000\000\000\352\241\261#\"\327\260?\000\000\000\000\000\000\000\000\233f\272\252\367W\245?\000\000\000\000\000\000\000\000H\343\273\323\212\302\232?\000\000\000\000\000\000\000\000V\373\200\331W\240\220?\000\000\000\000\000\000\000\000\361f\014\003,\201\204?\000\000\000\000\000\000\000\000w\226\004KA\037y?\000\000\000\000\000\000\000\000\211V\t\342#\232n?\216H\301_\277\273\355? \352z\365\245\035\260?\363e-l\333\356\323?c\324\206\312}x\274?\'v\005\266+f\272?\240\365\030\240\304\217\267?\267[\301\312\213\272\210?h\232\365\020\225\317\252?\023\017\025\3439\310\223?\312\230!U\322]\222?\031\346\264uc\302\224?\211q#\024\367KZ?:\354\354\250Na\205?\237;)\340D\353}?\332\305\321\247)\017W?\235hH\376Z6u?y\217\006?\221\207e?\235K{\2064\033U?\207w3\321tXd?\260-v^\035JP? \347j\214s\017J?<&\2348v\275S?0M\375u\"S;?\346\007\t\2430p<?\350GO\275\363\271C?\032\364n\204#\377\357?\000\000\000\000\000\000\000\000\000\000\000\000\000\000\000\000\000\000\000\000\000\000\000\000\000\000\000\000\000\000\000\000\000\000\000\000\000\000\000\000\000\000\000\000\000\000\000\000\000\000\000\000\000\000\000\000\000\000\000\000\000\000\000\000\000\000\000\000\000\000\000\000\000\000\000\000\000\000\000\000\000\000\000\000\000\000\000\000\000\000\000\000\000\000\000\000\000\000\000\000\000\000\000\000\000\000\000\000\000\000\000\000\000\000\000\000\000\000\000\000\000\000\000\000\000\000\000\000\000\000\000\000\000\000\000\000\000\000\000\000\000\000\000\000N\230\364OP\262\215?\000\000\000\000\000\000\000\000\000\000\000\000\000\000\000\000\000\000\000\000\000\000\000\000\000\000\000\000\000\000\000\000\000\000\000\000\000\000\000\000\010\213}\315\\4\346?\2113\3553\205\265\346?\022\003\016(\210\334\272?j\317\250\215\300\270\257?\002\3271o7\210z?\2131`\035.Eh?2\301Nc\032\2230?F$\376+\272\240\031?j\340\273\343]P\336>\347\353\353:!\253\304>8\310g\223\341\335\205>So\027\362\262\370j>d\213\206\326\204\014*>\250(X7\'\216\r>\252K\332\014Jm\312=\335\n\215\220\353\351\253=\000\000\000\000\000\000\000\000\000\000\000\000\000\000\000\000\000\000\000\000\000\000\000\000\000\000\000\000\000\000\000\000\000\000\000\000\000\000\000\000\000\000\000\000\000\000\000\000\000\000\000\000\000\000\000\000\000\000\000\000\000\000\000\000\000\000\000\000\000\000\000\000h\202\n\366\371\377\357?\000\000\000\000\000\000\000\000\000\000\000\000\000\000\000\000\037\014\024\212\311\250c?\000\000\000\000\000\000\000\000\000\000\000\000\000\000\000\000\221\271\214K\377\232\265>\000\000\000\000\000\000\000\000\000\000\000\000\000\000\000\000\261\316f\317\010,\367=\000\000\000\000\000\000\000\000\000\000\000\000\000\000\000\000\000\000\000\000\000\000\000\000\000\000\000\000\000\000\000\000\000\000\000\000\000\000\000\000\000\000\000\000\000\000\000\000\000\000\000\000\000\000\000\000\000\000\000\000\000\000\000\000\000\000\000\000\000\000\000\000\000\000\000\000\000\000\000\000\000\000\000\000\000\000\000\000\000\000\000\000\000\000\000\000\000\000\000\000\000\000\000\000\000\000\000\000\000\000\000\000\000\000\000\000\000\000\000\000\227f\346V\220q\356?\000\000\000\000\000\000\000\000R\210\245\r\246\002\322?\000\000\000\000\000\000\000\000\r\210\312>\034\317\274?\000\000\000\000\000\000\000\000\215\020\375`\'B\251?\000\000\000\000\000\000\000\000\207\'\010\241\022\274\226?\000\000\000\000\000\000\000\000\325l\312\250H\203\204?\000\000\000\000\000\000\000\000B\204\373\317\315ir?\000\000\000\000\000\000\000\000\371th<_j`?\000\000\000\000\000\000\000\0005\004\242\2358\023M?\000\000\000\000\000\000\000\000\t\343^\0233\2319?\000\000\000\000\000\000\000\000,\007D-\345l&?\000\000\000\000\000\000\000\000\033a\246\2407\220\023?\000\000\000\000\000\000\000\000\021-7\261\253\001\001?\320\315\337B\264|\350?\350\013\227\315:a\245?\332\204Q\347u\204\333?3\333\023\032)\361\271?=j\277L\230\343\321?\035<\016\210\331\371\301?9M\275-\226\252\305?qS\266C\223\327\303?3A\035\252\221\177\264?=\377\2023\326\255\302?\246ox\006\345!\205?\351\307\230\252\245\033\276?\024\344\310%\214I\243?$\211\005\021;\322\263?\276\267\366#7\356\257?\247\246Py\243\240\241?\342\270\237\244\370\260\260?\272\032\233fd\355d?p\202\215g\266/\252?U\031\200\340\377\232\233?\261J\'\216Z\207\234?-\022\262Rzs\242?Q\344fv\363fo?\242\033\007\305\222\r\240?9W\276\024 h\214?Mf@\r\222\007\353?\000\000\000\000\000\000\000\000\000\000\000\000\000\000\000\000\000\000\000\000\000\000\000\000\000\000\000\000\000\000\000\000\000\000\000\000\000\000\000\000\225\367\263V\005!\341?\000\000\000\000\000\000\000\000\000\000\000\000\000\000\000\000\000\000\000\000\000\000\000\000\000\000\000\000\000\000\000\000\000\000\000\000\000\000\000\000\000\000\000\000\000\000\000\000\000\000\000\000\000\000\000\000\000\000\000\000\000\000\000\000\000\000\000\000\000\000\000\000\000\000\000\000\000\000\000\000\000\000\000\000\000\000\000\000\000\000\000\000\000\000\000\000\000\000\000\000\000\000\000\000\000\000\000\000\000\000\000\000\000\000\000\000\000\000\000\000\000\000\000\000\000\000\000\000\000\000\000\000\000\000\000\000\000\000\000\000\000\000\000\000\177\347P8\000\306\351?\326\252\014y\005\340\342?\342\030xe\rh\253?\230\331\257\032\017-\227?\334\2445/\214\313W?\217\027:KL,??\327\266\307\216\361!\372>\213\177\270\003!\357\334>Q\254\331\372\212\001\225>\367\247\250\366\366\202t>\003}/\tn\243*>\222 *m6\207\007>\274`Fe\313\344\273=V\346\241\231o[\226=\000\000\000\000\000\000\000\000\000\000\000\000\000\000\000\000\000\000\000\000\000\000\000\000\000\000\000\000\000\000\000\000\000\000\000\000\000\000\000\000\000\000\000\000\000\000\000\000\000\000\000\000\000\000\000\000\000\000\000\000\000\000\000\000\000\000\000\000\000\000\000\000\000\000\000\000\000\000\000\000\000\000\000\000\000\000\000\000U\300\353ms\377\357?\000\000\000\000\000\000\000\000\000\000\000\000\000\000\000\0003|\032\352F\266\207?\000\000\000\000\000\000\000\000\000\000\000\000\000\000\000\000\334\305g\232\362n\377>\000\000\000\000\000\000\000\000\000\000\000\000\000\000\000\000\036\336\320\370\031Ud>\000\000\000\000\000\000\000\000\000\000\000\000\000\000\000\000\351~ \361\323@\300=\000\000\000\000\000\000\000\000\000\000\000\000\000\000\000\000\000\000\000\000\000\000\000\000\000\000\000\000\000\000\000\000\000\000\000\000\000\000\000\000\000\000\000\000\000\000\000\000\000\000\000\000\000\000\000\000\000\000\000\000\000\000\000\000\000\000\000\000\000\000\000\000\000\000\000\000\000\000\000\000\000\000\000\000\000\000\000\000\000\000\000\000\000\000\000\000\335\177_q\354\230\355?\000\000\000\000\000\000\000\000\026\360\355\270\024\025\330?\000\000\000\000\000\000\000\000\350\227\334\320\202C\253?\000\000\000\000\000\000\000\000\331\316\337\325j*\204?\000\000\000\000\000\000\000\000\225a\355\267\221\262^?\000\000\000\000\000\000\000\000\366\032 w\367\2035?\000\000\000\000\000\000\000\000\234\214\312\213B\\\r?\000\000\000\000\000\000\000\000\217C`\336\3121\344>\000\000\000\000\000\000\000\000\345\222OT\004\371\273>\000\000\000\000\000\000\000\000\200c\001T\234I\223>\000\000\000\000\000\000\000\000D\013*\240\341Wj>\000\000\000\000\000\000\000\000\363\336\237\207\266\326A>\000\000\000\000\000\000\000\000\202#\263;\363\007\030>\226G\201\320\263!\357?\036$\302\024GY\263?\r{\013m\353\306\307?\336-^Bm\010\272?\024+\332\010[\355\215?\3372=\343\236:\247?+\304Ws8H\225?\025\022\301\"\324gx?\253t6%\261\220\212?\325\311Fl\010\266y?\326\320\343\003\274\361X?s\213\313\260\370\362p?\306\354\027X\016\370c?\210|\301\330\375\320\"?\355\177\266\252\206QV?o\351\307\223\335UQ?\274\356\010\n\372d\'?\277\302P\017\303\032;?\004\027f\204cN>?aA\364~\211\207(?\374\014\230\375\260\364\026?@\276\001\225\201\201(?\327\t\215\'\310z ?\252u\312P\r\332\350>\360w\336t\2577\020?\r\r\3676\036\335\356?\000\000\000\000\000\000\000\000\000\000\000\000\000\000\000\000\000\000\000\000\000\000\000\000\000\000\000\000\000\000\000\000\000\000\000\000\000\000\000\000\000\000\000\000\000\000\000\000\000\000\000\000\000\000\000\000\000\000\000\000\000\000\000\000\000\000\000\000\000\000\000\000\336.\r\0327\347\320?\000\000\000\000\000\000\000\000\000\000\000\000\000\000\000\000\000\000\000\000\000\000\000\000\000\000\000\000\000\000\000\000\000\000\000\000\000\000\000\000\000\000\000\000\000\000\000\000\000\000\000\000\000\000\000\000\000\000\000\000\000\000\000\000\000\000\000\000\000\000\000\000\000\000\000\000\000\000\000\000\000\000\000\000\000\000\000\000\000\000\000\000\000\000\000\000\000\000\000\000\000\000\000\000\000\000\000\000\000\000\000\000\303\213\263A\233v\354?ME#\337\333\225\334?T\217\"\2276\274\267?\272\236\227\242L\206\233?o\315\350H\027)p?N?\r\024e\010M?2\260hv\005\326\033?iS\267\247\336!\365>n\370\222\202\365\213\301>\200\246\207\202\367~\227>4b\027\243\035sa>\342x=\320\246\"5>\365\242H\005f\250\374=p};q\302\331\317=*\306\220\030\200\237\223=\000\000\000\000\000\000\000\000\000\000\000\000\000\000\000\000\000\000\000\000\000\000\000\000\000\000\000\000\000\000\000\000\000\000\000\000\000\000\000\000\000\000\000\000\000\000\000\000\000\000\000\000\000\000\000\000\000\000\000\000\000\000\000\000\000\000\000\000\000\000\000\000\000\000\000\000\000\000\000\000\254\350\211f\332\374\357?\000\000\000\000\000\000\000\000\000\000\000\000\000\000\000\000\247D?h;a\234?\000\000\000\000\000\000\000\000\000\000\000\000\000\000\000\000\312\005GWI\205&?\000\000\000\000\000\000\000\000\000\000\000\000\000\000\000\000B\'\335P\301p\241>\000\000\000\000\000\000\000\000\000\000\000\000\000\000\000\000\233\335\307\201\377\260\020>\000\000\000\000\000\000\000\000\000\000\000\000\000\000\000\000\t\276\324\222\3314v=\000\000\000\000\000\000\000\000\000\000\000\000\000\000\000\000\000\000\000\000\000\000\000\000\000\000\000\000\000\000\000\000\000\000\000\000\000\000\000\000\000\000\000\000\000\000\000\000\000\000\000\000\000\000\000\000\000\000\000\000\000\000\000\000\000\000\000\000\000\000\000\000^\270\206\001f\351\356?\000\000\000\000\000\000\000\000\354L\t\333\310p\317?\000\000\000\000\000\000\000\000\037\2032\341\\\212\263?\000\000\000\000\000\000\000\000e\na7/\215\231?\000\000\000\000\000\000\000\000>\225ap\035\026\201?\000\000\000\000\000\000\000\000`\277\300\341\240\"g?\000\000\000\000\000\000\000\0000\365hw\033\220O?\000\000\000\000\000\000\000\000Q\315\235\237\001\2435?\000\000\000\000\000\000\000\000NA([\257\303\035?\000\000\000\000\000\000\000\000\022\305\260#X\205\004?\000\000\000\000\000\000\000\000\202\021\213~\365W\354>\000\000\000\000\000\000\000\000\270_O)\017\231\323>\000\000\000\000\000\000\000\000\016:\370\263\n \273>x\225!\200;\346\357?k0\257x{\027\245?\254\3447\363\351\301\253?\326\246\373\222\007d\244?\356\201\310/\334\217n?!\364+\016\275\312u?5\367\312\242\312\027p?h\033\001O\036DF?\213\236\346\234\243\rC?\306e\236\r<\245A?\260l\270\331\307?$?\230\217\363\335*\331\016?5{~I\312L\026?]\325\336\353\207h\003?\021\t\013\001\231\336\302>\033\336\203@\373\306\354>\261\326\t)\244q\342>w\006\313\373\267 \272>\344\367\025jT_\300>cJ\213\n)\252\300>2=D[\240\001\252>\376\243\004\276\202\221\203>\254c\031\034\216\366\232>\037\307\331\001T=\221>\033\266\261\277\"ei>;\010\241\275\362,\353?\000\000\000\000\000\000\000\000\000\000\000\000\000\000\000\000\000\000\000\000\000\000\000\000\000\000\000\000\000\000\000\000\000\000\000\000\000\000\000\000\000\000\000\000\000\000\000\000\000\000\000\000\000\000\000\000\000\000\000\000\000\000\000\000\000\000\000\000\000\000\000\000\000\000\000\000\000\000\000\000\000\000\000\000\000\000\000\000\000\000\000\000\000\000\000\000\000\000\000\000\000\000\000\000\000\000\000\000\000\000\000\000\000\000\000\000\000\000\000\000\000\000\000\000\000\000\000\000\000\000\000\000\000\000\000\000\000\000\000\000\000\000\000\000N\020Z\246y\345\340?\000\000\000\000\000\000\000\000\000\000\000\000\000\000\000\000\000\000\000\000\000\000\000\000\000\000\000\000\000\000\000\000\000\000\000\000\000\000\000\000\007\260y\232K*\343?\365\372X\322;\225\351?H\265\365\300\364\322\242?:\3444\"\310\003\235?\245\307x\240<1N?\337C!o\035\006B?\212\232\376\007\236\240\356>\325\2200\350\252\347\336>x\345\031\361p\275\206>\014%\202]\215<t>J\271s2\343\242\032>#e\356\017\342p\005>\n\374PL>\303\251=C\340\372\346\262\363\220=\000\000\000\000\000\000\000\000\000\000\000\000\000\000\000\000\000\000\000\000\000\000\000\000\000\000\000\000\000\000\000\000\000\000\000\000\000\000\000\000\000\000\000\000\000\000\000\000\000\000\000\000\000\000\000\000\000\000\000\000\000\000\000\000\000\000\000\000\000\000\000\000\000\000\000\000\000\000\000\000\000\000\000\000\000\000\000\000\312\235\036~^\'\356?\000\000\000\000\000\000\000\000\000\000\000\000\000\000\000\000\177Bc\003u[\325?\000\000\000\000\000\000\000\000\000\000\000\000\000\000\000\000\341\202Y\231L\017\233?\000\000\000\000\000\000\000\000\000\000\000\000\000\000\000\000\036\341V\274\263\272P?\000\000\000\000\000\000\000\000\000\000\000\000\000\000\000\000\210/Z\302@\220\371>\000\000\000\000\000\000\000\000\000\000\000\000\000\000\000\000\n3\376V\222)\233>\000\000\000\000\000\000\000\000\000\000\000\000\000\000\000\000\\\002k\247+\2155>\000\000\000\000\000\000\000\000\000\000\000\000\000\000\000\000b?\020\241\241\311\312=\000\000\000\000\000\000\000\000\000\000\000\000\000\000\000\000\000\000\000\000\000\000\000\000\352d9\025\352)\351?\000\000\000\000\000\000\000\000D\224\203\021\362\252\333?\000\000\000\000\000\000\000\000\201q\226\002{\333\322?\000\000\000\000\000\000\000\000\2305r{\224W\313?\000\000\000\000\000\000\000\000:\347\266\315\253o\304?\000\000\000\000\000\000\000\000i\371\016\333T\030\277?\000\000\000\000\000\000\000\000\361\265hGe\352\267?\000\000\000\000\000\000\000\000\027Z\037\234\341\204\262?\000\000\000\000\000\000\000\000\271\232\330q\354\314\254?\000\000\000\000\000\000\000\000dVL0Cs\246?\000\000\000\000\000\000\000\000\320\316\233H\004\206\241?\000\000\000\000\000\000\000\000\346.\332#\'_\233?\000\000\000\000\000\000\000\000\237\304wT\377`\225?\203$>\246a\242\355?5/\305\223\237y\316?wR\363I\224\311x?1\321\332ij<\305?qn\311\r\346\367\304?\261\2664?\373J\274?\217c\373e\315\245\234?\017!\243P\215l\241??\256\256I\205B\261?rQd\005\025v\261?s\251\374kG\177\250?\036\271\355\373\3106\222?U@U\206\247\227\204?e\262C\376\034b\235?UV\304\205\211\004\242?y\264\337\352\022\226\237?\222\321\250\321\315\267\223?\237\352\247\333\343\256t?\346\240$\203\331y\177?\323W\352\203\335\223\220?\026\014\032\030\366\272\223??\244\250T\342\240\221?\212R\267\353\221\303\207?7\257\\H\t\266q?\275\217\327\304\351\036g?\204\217T\322A\341\350?\000\000\000\000\000\000\000\000\000\000\000\000\000\000\000\000\000\000\000\000\000\000\000\000\000\000\000\000\000\000\000\000\000\000\000\000\000\000\000\000\000\000\000\000\000\000\000\000\000\000\000\000\000\000\000\000\000\000\000\000\000\000\000\000\000\000\000\000\000\000\000\000\000\000\000\000\000\000\000\000\000\000\000\000\000\000\000\000\000\000\000\000\000\000\000\000\000\000\000\000\000\000\000\000\000\000\000\000\000\000\000\000\000\000\000\000\000\000\000\000\000\000\000\000\000\000\000\000,=\300Z\326\037\344?\000\000\000\000\000\000\000\000\000\000\000\000\000\000\000\000\000\000\000\000\000\000\000\000\000\000\000\000\000\000\000\000\000\000\000\000\000\000\000\000\000\000\000\000\000\000\000\000\000\000\000\000\000\000\000\000\256\345\031\006\373x\357?\226\324\220\303\346*\306?\021\240\004\227Vu\252?\342\243?z\320\204u?\210\307\343\324L)R?\301\335LE\375\341\026?\374u\302\216\202\211\357>\227p\312\203\237\312\260>VS\306\262\252\n\204>\211\'\3541Z\322B>\236\376\013\253\330\027\024>+(\3271\217\021\321=\013\006\203\263\017~\240=\000\000\000\000\000\000\000\000\000\000\000\000\000\000\000\000\000\000\000\000\000\000\000\000\000\000\000\000\000\000\000\000\000\000\000\000\000\000\000\000\000\000\000\000\000\000\000\000\000\000\000\000\000\000\000\000\000\000\000\000\000\000\000\000\000\000\000\000\000\000\000\000\000\000\000\000\000\000\000\000\000\000\000\000\000\000\000\000\000\000\000\000\000\000\000\000\306\351\353X]\262\355?\000\000\000\000\000\000\000\000\000\000\000\000\000\000\000\000b\014\267<\037\277\327?\000\000\000\000\000\000\000\000\000\000\000\000\000\000\000\000m/\247{\342\373\240?\000\000\000\000\000\000\000\000\000\000\000\000\000\000\000\000\232\"1pw\265W?\000\000\000\000\000\000\000\000\000\000\000\000\000\000\000\000\353\333n\350js\004?\000\000\000\000\000\000\000\000\000\000\000\000\000\000\000\000\224\212\321\"h\210\250>\000\000\000\000\000\000\000\000\000\000\000\000\000\000\000\000\211\303|\236\316\371E>\000\000\000\000\000\000\000\000\000\000\000\000\000\000\000\000\257\324\247^\236\326\336=\000\000\000\000\000\000\000\000\000\000\000\000\000\000\000\000\000\000\000\000\000\000\000\000\014\237\205\262\263/\352?\000\000\000\000\000\000\000\000f\213\265\341\233\276\334?\000\000\000\000\000\000\000\000II\024\241,\276\322?\000\000\000\000\000\000\000\000\377x\336\216H\004\306?\000\000\000\000\000\000\000\000\342\246w`\307\262\270?\000\000\000\000\000\000\000\000W&%\326\265 \253?\000\000\000\000\000\000\000\000\037\231\200\226\357o\235?\000\000\000\000\000\000\000\000\3635>t\257\247\217?\000\000\000\000\000\000\000\000\245\237`!\254\342\200?\000\000\000\000\000\000\000\000\240?\207c.\342q?\000\000\000\000\000\000\000\0002A\300\362\220\320b?\000\000\000\000\000\000\000\000g\222\201&\313\254S?\000\000\000\000\000\000\000\000|\253\343\301zvD?\353\366\251\036\017\'\354?\333=\343\357j\227\273?\244mr>\320\245\325?\252\332\3022\025\342\311?F\326\306\333\271\220\265?d\306\246#\024\250\305?#\266z&\265\366\254?\353\302\277\341/\243\261?8?\361\021\002a\266?,\364\346\335{\232\225?\013\345\342\276v\325\245?u/\371b4\245\251?\377\255n\377\203\334\212?#\224c\336\213\225\230?p#\003\006H\377\237?*\303o\252\331\322\207?B\331\023\010!G\210?\020\307e\227)\226\224?\213\320\225|\217\224\206?\2249\227\2002up?\265\311\363\236\304y\211?\242\226\\\021\310\"\204?7o\000\200\205vJ?\262\337K\203jz{?y\036=\307\003\025\200?\317\211\005\217r\355\357?\000\000\000\000\000\000\000\000\000\000\000\000\000\000\000\000\000\000\000\000\000\000\000\000\000\000\000\000\000\000\000\000\000\000\000\000\000\000\000\000\000\000\000\000\000\000\000\000\000\000\000\000\000\000\000\000\000\000\000\000\000\000\000\000\000\000\000\000\000\000\000\000\000\000\000\000\000\000\000\000\000\000\000\000\000\000\000\000\000\000\000\000\000\000\000\000\000\000\000\000\000\000\000\000\000\000\000\000\000\000\000\000\000\000\000\000\000\000\000\000\000\000\000\000\000\000\000\000\000\000\000\000\000\000\000\000\000\000\000\000\000\000\000\000\000\000\000\000\000\000\000\000\000\000\000\000\000\000\000\000\267\315\257f#8\261?\000\000\000\000\000\000\000\000\000\000\000\000\000\000\000\000\000\000\000\000\000\000\000\000C\276\243\300\255\002\354?0mw#\217\344\336?\030\200\335\265\320\246\233?;x\302\200\203\233\201?\214\300\253~\310I6?\236l\017\217\217\374\025?\351\347\"\341i\271\306>/KG\364\021\362\242>@\374\322\3406\365P>\005u\236$\352\357(>\340Ce\r\340\366\323=\261\351<\223;\216\252=\000\000\000\000\000\000\000\000\000\000\000\000\000\000\000\000\000\000\000\000\000\000\000\000\000\000\000\000\000\000\000\000\000\000\000\000\000\000\000\000\000\000\000\000\000\000\000\000\000\000\000\000\000\000\000\000\000\000\000\000\000\000\000\000\000\000\000\000\000\000\000\000\000\000\000\000\000\000\000\000\000\000\000\000\000\000\000\000\000\000\000\000\000\000\000\000\000\000\000\000\000\000\000\000\257\330\365\034\247x\357?\000\000\000\000\000\000\000\000\000\000\000\000\000\000\000\000\3347\215\264\341&\307?\000\000\000\000\000\000\000\000\000\000\000\000\000\000\000\000Z\306R\001\234w~?\000\000\000\000\000\000\000\000\000\000\000\000\000\000\000\000W \263\377Y\220#?\000\000\000\000\000\000\000\000\000\000\000\000\000\000\000\000|J\225\036\335\014\277>\000\000\000\000\000\000\000\000\000\000\000\000\000\000\000\000V\333\355\2639\"Q>\000\000\000\000\000\000\000\000\000\000\000\000\000\000\000\000\310\367\203\353Q=\334=\000\000\000\000\000\000\000\000\000\000\000\000\000\000\000\000\000\000\000\000\000\000\000\000\000\000\000\000\000\000\000\000\000\000\000\000\000\000\000\000\000\000\000\000\000\000\000\0002\"\202\204\313\377\357?\000\000\000\000\000\000\000\000\232!\256\353*\371|?\000\000\000\000\000\000\000\000\273\220\335I\367\' ?\000\000\000\000\000\000\000\000\231\303\320y\334\225\277>\000\000\000\000\000\000\000\000\267\342\234\350+\365[>\000\000\000\000\000\000\000\000\305v\322\210\201\235\367=\000\000\000\000\000\000\000\000\313_/7q\341\223=\000\000\000\000\000\000\000\000\000\000\000\000\000\000\000\000\000\000\000\000\000\000\000\000\000\000\000\000\000\000\000\000\000\000\000\000\000\000\000\000\000\000\000\000\000\000\000\000\000\000\000\000\000\000\000\000\000\000\000\000\000\000\000\000\000\000\000\000\000\000\000\000\000\000\000\000\000\000\000\000\000\000\000\000\000\000\000\000\000\000\000\000\000\000\000\000\242\367\256\225s\265\350?\256\311\276\027\225\264\272?\216\272\346&\330\243\330?\353\367\341\3424R\315?b\262[\261\335\336\302?\327\265\025O\243\276\317?\344\221K\301\250\014\250?\272\263i!\351\341\303?\226\307\350\257c\342\302?U9\276\341\231\372\203?\023\243d9\255\314\277?\344\026\300\323L\017\270?h\236lN\247\373\224?\306\\\321\036K#\270?\201\363i\212g[\261?\266h\357t\263\221\217?\025\357\022\206\330\033\262?\005zy\236\245*\254?\023\341\352\360\272\240v?\3521\0055p\213\252?\223\0176\261\236s\250?9Ql\037\020kt?\277\370\236\311D2\242?\306\262\275jnc\245?[\024\321\256\303\353\214?\330\374\217\241D{\351?\000\000\000\000\000\000\000\000\000\000\000\000\000\000\000\000\000\000\000\000\000\000\000\000\000\000\000\000\000\000\000\000\000\000\000\000\000\000\000\000\000\000\000\000\000\000\000\000\000\000\000\000\000\000\000\000\000\000\000\000\000\000\000\000g\356\005{b[\343?\000\000\000\000\000\000\000\000\000\000\000\000\000\000\000\000\000\000\000\000\000\000\000\000\000\000\000\000\000\000\000\000\000\000\000\000\000\000\000\000\000\000\000\000\000\000\000\000\000\000\000\000\000\000\000\000\000\000\000\000\000\000\000\000\000\000\000\000\000\000\000\000\000\000\000\000\000\000\000\000\000\000\000\000\000\000\000\000\000\000\000\000\000\000\000\000\000\000\000\000\000\000\000\000\000\000\000\000\000\000\000\000\000\000\000\000\000\000\000\000\2043\315\276\350\274\357?x3*\232K|\261?^\351_\255G\224\273?%\267{G\200\213q?\350|\303\251T\221s?T-\324\026\350H#?B\026t\233\263\217!?\245A\260wAA\315>\324\216\220\034@\022\307>4\365\370\252\234\362p>]\364\306\243\253\350g>U\314\212\307\311\305\017>\356j\346\333tu\004>\226\'\377\337W\002\251=s\370\347\333f\252\235=\000\000\000\000\000\000\000\000\000\000\000\000\000\000\000\000\000\000\000\000\000\000\000\000\000\000\000\000\000\000\000\000\000\000\000\000\000\000\000\000\000\000\000\000\000\000\000\000\000\000\000\000\000\000\000\000\000\000\000\000\000\000\000\000\000\000\000\000\000\000\000\000\000\000\000\000\000\000\000\000?_\246\305\362\377\357?\000\000\000\000\000\000\000\000\000\000\000\000\000\000\000\000]\035\326u\233\030m?\000\000\000\000\000\000\000\000\000\000\000\000\000\000\000\000\327\253\017\330\263\251\307>\000\000\000\000\000\000\000\000\000\000\000\000\000\000\000\000\'\212A\"\314\307\022>\000\000\000\000\000\000\000\000\000\000\000\000\000\000\000\000\000\000\000\000\000\000\000\000\000\000\000\000\000\000\000\000\000\000\000\000\000\000\000\000\000\000\000\000\000\000\000\000\000\000\000\000\000\000\000\000\000\000\000\000\000\000\000\000\000\000\000\000\000\000\000\000\000\000\000\000\000\000\000\000\000\000\000\000\000\000\000\000\000\000\000\000\000\000\000\000\000\000\000\000\000\000\000\000\000\000\000\000\000\000\000\000\000\000\000\000\000\000\000\000[\2048\324\371F\355?\000\000\000\000\000\000\000\000\301\300\362\036\372\246\326?\000\000\000\000\000\000\000\000\247\377;\357!w\305?\000\000\000\000\000\000\000\000\340ZM1\341p\265?\000\000\000\000\000\000\000\000\202\nh,\007\362\245?\000\000\000\000\000\000\000\000\333\347\365Y\310\307\226?\000\000\000\000\000\000\000\000\2456\3002w\335\207?\000\000\000\000\000\000\000\000\246\000R(\314)y?\000\000\000\000\000\000\000\000\213\023\337\245\310\250j?\000\000\000\000\000\000\000\000:o\3765EY\\?\000\000\000\000\000\000\000\000\2545W\366\323;N?\000\000\000\000\000\000\000\000\341/\221#\031)@?\000\000\000\000\000\000\000\000B\207X\355~O1?l=i\206\005\n\357?$\033(\031f}\224?\313\275\324\312\006p\315?\365\342\272\374\004\270\236?\223\25529\332\205\260?D7\367\365#\260\223?|w\202\014\373\271\221?\361\371\303>\255\217\203?\301\326\314\322K<o?\230\365\306k\320\236p?\257\231\023\210\237U8?\222\322\227T\306\206X?\303\336\346+\270U0?\247\320Bq2o>?\300\254\024\336\031\\,?\371\022\206H\227\324\033?\\tg\220V\306\034?n(ieP\205\330>\207\334\003t\0135\006?\201\002\376\345+\251\347>\273\2029\017\204\223\351>o\005\316:\030p\341>\340\250f\027\2072\276>\260\343\362\034j\340\317>\207?\005 \006\357\245>!Y\021\265\260%\352?\000\000\000\000\000\000\000\000\000\000\000\000\000\000\000\000\000\000\000\000\000\000\000\000\000\000\000\000\000\000\000\000\000\000\000\000\000\000\000\000\252\312\336\026\245r\342?\000\000\000\000\000\000\000\000\000\000\000\000\000\000\000\000\000\000\000\000\000\000\000\000\000\000\000\000\000\000\000\000\000\000\000\000\000\000\000\000\000\000\000\000\000\000\000\000\000\000\000\000\000\000\000\000\000\000\000\000\000\000\000\000\000\000\000\000\000\000\000\000\000\000\000\000\000\000\000\000\000\000\000\000\000\000\000\000\000\000\000\000\000\000\000\000\000\000\000\000\000\000\000\000\000\000\000\000\000\000\000\000\000\000\000\000\000\000\000\000\000\000\000\000\000\000\000\000\000\000\000\000\000\000\000\000\000\000\000\000\000\000\000\000\211\007z@\325\323\354?\356\347\325\215\277\223\333?(0a^!\n\252?\200\006\244\303\206\303\214?x\330\353>~4S?\363L\336\027\267n0?dd\216\\\252\352\361>\227\370\'8\237\351\311>\032 \220G\303w\210>\nV\377nr5_>\216,?\215\215[\032>\026\373\236\205\344h\356=w\3249j\360q\247=\000\000\000\000\000\000\000\000\000\000\000\000\000\000\000\000\000\000\000\000\000\000\000\000\000\000\000\000\000\000\000\000\000\000\000\000\000\000\000\000\000\000\000\000\000\000\000\000\000\000\000\000\000\000\000\000\000\000\000\000\000\000\000\000\000\000\000\000\000\000\000\000\000\000\000\000\000\000\000\000\000\000\000\000\000\000\000\000\000\000\000\000\000\000\000\000(\223\275d\031\361\357?\000\000\000\000\000\000\000\000\000\000\000\000\000\000\000\000\225\273>\253H\335\256?\000\000\000\000\000\000\000\000\000\000\000\000\000\000\000\000\010\373a^\277\254J?\000\000\000\000\000\000\000\000\000\000\000\000\000\000\000\000XB\017\010\221\177\326>\000\000\000\000\000\000\000\000\000\000\000\000\000\000\000\000\246\014\003\327dsW>\000\000\000\000\000\000\000\000\000\000\000\000\000\000\000\000\034\346yl4\377\320=\000\000\000\000\000\000\000\000\000\000\000\000\000\000\000\000\000\000\000\000\000\000\000\000\000\000\000\000\000\000\000\000\000\000\000\000\000\000\000\000\000\000\000\000\000\000\000\000\000\000\000\000\000\000\000\000\000\000\000\000\000\000\000\000\000\000\000\000\000\000\000\000\225\214\006\371X\233\353?\000\000\000\000\000\000\000\000\033\272\267\306\362\177\336?\000\000\000\000\000\000\000\000\300\306n\021\341\314\304?\000\000\000\000\000\000\000\000\3547\331\307\202P\247?\000\000\000\000\000\000\000\000!\374\0329\322E\207?\000\000\000\000\000\000\000\000\273\016\275r`ve?\000\000\000\000\000\000\000\000y\311XGT\252B?\000\000\000\000\000\000\000\000\221E\315\003r\003\037?\000\000\000\000\000\000\000\0004\366~\310+\324\370>\000\000\000\000\000\000\000\000/\217\230\361nF\323>\000\000\000\000\000\000\000\000\320zGx\361\'\255>\000\000\000\000\000\000\000\000b\336\323xP\217\205>\000\000\000\000\000\000\000\000us\267\230xC_>\302=\225\037\220\357\347?w\243y\241\220\242\321?\000$\366\007\267t\251?\\\207\377\312\365\232\317?G\346De\201u\320?\326\333\305P \252\303?\253\353\2020\204S}?C\177\230\311C\274\274?\030>\270\227R\210\305?\312\006\321:\345\271\303?\006n\245\233\021\303\266?\362\310\315v\237\tl?_\265\326@pu\262?I\362/M\237\324\275?\213\342\211;\312\177\276?\345\374\035*\370\322\265?+\n\010V\224\232\242?C\346 \243\351O\222?\345x\251\'\343\210\263?\203s=\373yi\271?k\350\031\"\234\205\262?S\260d\230d\373\256?p>\326\343p\272\250?\321\311 \351\215\270\227?\272\226)\023\304\322\260?\217D\372K\2679\352?\000\000\000\000\000\000\000\000\000\000\000\000\000\000\000\000\000\000\000\000\000\000\000\000\000\000\000\000\000\000\000\000\000\000\000\000\000\000\000\000\000\000\000\000\000\000\000\000\000\000\000\000\000\000\000\000\000\000\000\000\000\000\000\000\000\000\000\000\000\000\000\000\000\000\000\000\000\000\000\000\000\000\000\000\000\000\000\000\000\000\000\000\000\000\000\000\000\000\000\000\000\000\000\000\000\000\000\000\000\000\000\000\000\000\000\000\000\000\000\000\000\000\000\000\000\000\000\000\000\000\000\000\000\000\000\000\000\000\000\000\000\000\000\000\000\000\000\000\000\000\000\000\000\000\000\000\000\000\000\000\000\000\000\000\000\000\000\000\000\000\000\000\000\000\000\000\000\000\000\000\000\000\000\000{\035\002\366!V\342?\"\013\372\365\233(\264?\270\025\355\ty\226\356?\317\3317\266@6\244?\275\031\222\301\340\264\321?\036N\322\327\355\213\200?\360\277\024\234\330t\246?_\245\2167j\"Q?q\346\235UE\247s?\236\010\030,+\371\031?\035\354\003\273\030F:?\324!\267{\217\016\337>K1-r\301j\374>\353\026W\222\336\251\236>\336;}v\r\317\271>\216\263R\r\206\310Y>\001\365\343T\3453t>\210\306\265\272\025\341\022>`\207\356\322\212\312+>gQk{<|\310=\037\261h\035\002\014\341=\314!6\236*\177|=\254\241\037\353\302\322\222=\000\000\000\000\000\000\000\000\000\000\000\000\000\000\000\000\000\000\000\000\000\000\000\000\275\310\211\ta\361\357?\000\000\000\000\000\000\000\000\000\000\000\000\000\000\000\000\326\233\303V\320\222\256?\000\000\000\000\000\000\000\000\000\000\000\000\000\000\000\000rV\355\364f,J?\000\000\000\000\000\000\000\000\000\000\000\000\000\000\000\000\350\310cX\334\335\325>\000\000\000\000\000\000\000\000\000\000\000\000\000\000\000\000\315\n\251\237\246\223V>\000\000\000\000\000\000\000\000\000\000\000\000\000\000\000\000\373\332\'\371i5\320=\000\000\000\000\000\000\000\000\000\000\000\000\000\000\000\000\000\000\000\000\000\000\000\000\000\000\000\000\000\000\000\000\000\000\000\000\000\000\000\000\000\000\000\000\000\000\000\000\000\000\000\000\000\000\000\000\000\000\000\000\000\000\000\000\000\000\000\000\000\000\000\000\030\317\016\301\350k\357?\000\000\000\000\000\000\000\000C\017\025\322I\207\307?\000\000\000\000\000\000\000\000\242\225\277D\023R\246?\000\000\000\000\000\000\000\000D_\216\300\2148\207?\000\000\000\000\000\000\000\000\254\353\306\331\347\256i?\000\000\000\000\000\000\000\000\227\"\037\014p\234M?\000\000\000\000\000\000\000\000[\310b\372\331\2021?\000\000\000\000\000\000\000\000\267\014q\323\223\377\024?\000\000\000\000\000\000\000\000\305sh3\343U\371>\000\000\000\000\000\000\000\000\'\353\356\374\237\236\336>\000\000\000\000\000\000\000\000\214\327\036c\024}\302>\000\000\000\000\000\000\000\000\203\010q\344]H\246>\000\000\000\000\000\000\000\000\313r\377(\212\311\212>\207s\311\024[H\344?r\365@\017\202J\317?W*\236\345\361(\263?\311V\372\252\343?\320?U\344\333\\X\215\317?CY\004V\274\002\277?\312\277\216\036/\365\242?\216\256\tf#x\303?\2360\342\276\327\347\307?L+\352\313<?\302?\364j\247\r\332N\251?4\241\311\211\360c\252?G\203M\274ah\277?\246\370\204z\346\210\302?n\213\005\256\331\232\276?\267|k\360\032\322\253?1L}\246`\263\234?z\210J \311o\264?j\337u\203\211^\271?\222\323rri\265\300?1Q\215S\200\324\273?\303\213?\006u\r\227?h\'y\0347g\261?\235a\242\225\242&_?\271\366\203c\006\342\266?\312/\0329\230\364\354?\000\000\000\000\000\000\000\000\000\000\000\000\000\000\000\000\000\000\000\000\000\000\000\000\000\000\000\000\000\000\000\000\000\000\000\000\000\000\000\000\000\000\000\000\000\000\000\000\000\000\000\000\000\000\000\000\000\000\000\000\000\000\000\000\000\000\000\000\000\000\000\000\227\310\3776\346>\333?\000\000\000\000\000\000\000\000\000\000\000\000\000\000\000\000\000\000\000\000\000\000\000\000\000\000\000\000\000\000\000\000\000\000\000\000\000\000\000\000\000\000\000\000\000\000\000\000\000\000\000\000\000\000\000\000\000\000\000\000\000\000\000\000\000\000\000\000\000\000\000\000\000\000\000\000\000\000\000\000\000\000\000\000\000\000\000\000\000\000\000\000\000\000\000\000\000\000\000\000\000\000\000\000\000\000\000\000\000\000\000\000\302\177TKh\366\357?:d@9s\230\250?\340\301\312\256V}w?A\224\347\272-\337$?cM\270\346\2410\354>\301\370\333?\000g\223>\226W\252\236\203eU>\337\220\235_}\344\370=\247\3433-\312\234\267=\000\000\000\000\000\000\000\000\000\000\000\000\000\000\000\000\000\000\000\000\000\000\000\000\000\000\000\000\000\000\000\000\000\000\000\000\000\000\000\000\000\000\000\000\000\000\000\000\000\000\000\000\000\000\000\000\000\000\000\000\000\000\000\000\000\000\000\000\000\000\000\000\000\000\000\000\000\000\000\000\000\000\000\000\000\000\000\000\000\000\000\000\000\000\000\000\000\000\000\000\000\000\000\000\000\000\000\000\000\000\000\000\000\000\000\000\000\000\000\000\000\000\000\000\000\000\000\000*\355\312\377\377\377\357?\000\000\000\000\000\000\000\000\000\000\000\000\000\000\000\000=\205\306A\001$\375>\000\000\000\000\000\000\000\000\000\000\000\000\000\000\000\000YFn\2167\274\347=\000\000\000\000\000\000\000\000\000\000\000\000\000\000\000\000\000\000\000\000\000\000\000\000\000\000\000\000\000\000\000\000\000\000\000\000\000\000\000\000\000\000\000\000\000\000\000\000\000\000\000\000\000\000\000\000\000\000\000\000\000\000\000\000\000\000\000\000\000\000\000\000\000\000\000\000\000\000\000\000\000\000\000\000\000\000\000\000\000\000\000\000\000\000\000\000\000\000\000\000\000\000\000\000\000\000\000\000\000\000\000\000\000\000\000\000\000\000\000\000\000\000\000\000\000\000\000\000\000\000\000\000\000\000\000\000\000\000\000\000\000\000\000\000\027\322\276YkW\354?\000\000\000\000\000\000\000\000\255\340\263\032\r\334\330?\000\000\000\000\000\000\000\000y\n\221\374\322\264\312?\000\000\000\000\000\000\000\0007\215\rT\034>\276?\000\000\000\000\000\000\000\000pP[0\366\213\261?\000\000\000\000\000\000\000\000\254\026/C\201\246\244?\000\000\000\000\000\000\000\0007\224\257\373\024\207\230?\000\000\000\000\000\000\000\000\257Y\365\257\201R\215?\000\000\000\000\000\000\000\000\364~]\266\231\234\201?\000\000\000\000\000\000\000\000%\234\221\314/<u?\000\000\000\000\000\000\000\000\374]\275b#\256i?\000\000\000\000\000\000\000\000n\251\270\004\253!_?\000\000\000\000\000\000\000\000\016V\350\262\213\350R?\277a?\242*\312\355?=\244-\260\214\034\311?<\311\272y\250\302\275?\\k/\332r\"\313?\235\257m\347\350\256\300?\335@\353\000\014=\220?Y\016v*\205^\260?\232)\273\'*\021\265?&\210\360(+T\254?\304\350\023\333\340\377\206?\341\245\306\3227\030\231?;\375\227=\251.\244?\274}vg\303=\241?*\334\202=\035\027\220?\266:\005\262\366\"p?a\312D>\025\252\221?\267>\227\267\\a\225?\311o\201c\357S\220?\260\326\021\271\016\360y?\216\376\314\277\027=l?|\334\364\326Zh\204?\'\177tuv\n\210?\0262\257\271\314\340\202?\331\303!4C\377p?\277\321\2137\200*U?\316\006G|\276\376\356?\000\000\000\000\000\000\000\000\000\000\000\000\000\000\000\000\000\000\000\000\000\000\000\000\000\000\000\000\000\000\000\000\000\000\000\000\000\000\000\000\000\000\000\000\000\000\000\000\000\000\000\000\000\000\000\000\000\000\000\000\000\000\000\000\000\000\000\000\000\000\000\000\000\000\000\000\000\000\000\000\000\000\000\000\000\000\000\000\000\000\000\000\000\000\000\000\000\000\000\000\000\000\000\000\000\000\000\000\000\000\000\000\000\000\000\000\000\000\000\000\000\000\000\000\000\000\000\000\020*\353\353W\323\317?\000\000\000\000\000\000\000\000\000\000\000\000\000\000\000\000\000\000\000\000\000\000\000\000\000\000\000\000\000\000\000\000\000\000\000\000\000\000\000\000\000\000\000\000\000\000\000\000\000\000\000\000\000\000\000\000\331\342\246\210\241\273\350?d\315\331\236x~\340?\343(V\246i\304\325?\324\205\2346\r\303\300?i\3748\206\223H\257?\316\352\2543\365\250\222?\322y\261\376mo|?>}\264}a\253\\?]l\240\327\347\352B?\234vu_7\322 ?\372^\370\353\367\332\003?\365\026\014\206f\360\337>4\"W\247,5\301>z\274\242\307Ev\231>E\223\3219\245fy>!\251\220\230\274~Q>\310\245\3378nS0>\'?\344\233\366\037\005>\323\231\013\351\360\225\342=j\023\355v}\277\266=\220\346\252\362d\304\222=\000\000\000\000\000\000\000\000\000\000\000\000\000\000\000\000\000\000\000\000\000\000\000\000\000\000\000\000\000\000\000\000`5\024\257\357\270\357?\000\000\000\000\000\000\000\000\000\000\000\000\000\000\000\000\227T\206/\335\320\300?\000\000\000\000\000\000\000\000\000\000\000\000\000\000\000\000\255\241c\007G\344o?\000\000\000\000\000\000\000\000\000\000\000\000\000\000\000\000\323\245\253\210K\203\r?\000\000\000\000\000\000\000\000\000\000\000\000\000\000\000\000\031\264S\207K\340\240>\000\000\000\000\000\000\000\000\000\000\000\000\000\000\000\000\305\n\032TU\327*>\000\000\000\000\000\000\000\000\000\000\000\000\000\000\000\000\023\327\321l\031\326\257=\000\000\000\000\000\000\000\000\000\000\000\000\000\000\000\000\000\000\000\000\000\000\000\000\000\000\000\000\000\000\000\000\000\000\000\000\000\000\000\000\000\000\000\000\000\000\000\000|\200Wg\323\351\353?\000\000\000\000\000\000\000\000.K\361\356\276\210\331?\000\000\000\000\000\000\000\000\366\033h>mw\314?\000\000\000\000\000\000\000\000d\351\223\325\362\312\300?\000\000\000\000\000\000\000\000\313?1\034\307\277\264?\000\000\000\000\000\000\000\000\270g\204x\033F\253?\000\000\000\000\000\000\000\000\030\025[\373\250_\243?\000\000\000\000\000\000\000\000\207\322s\260\350\224\235?\000\000\000\000\000\000\000\000d\230u\307\262\252\227?\000\000\000\000\000\000\000\0004\025\236-\202U\223?\000\000\000\000\000\000\000\000\204\000\003\224\200\272\217?\000\000\000\000\000\000\000\000,\261l\036\366\360\211?\000\000\000\000\000\000\000\000\374\204\'\227^\021\205?Y\214\r^EI\350?{e9MbF\252?\\\367\221M><\333?),\215o\211\302\277?\241?{\305c \321?\255\024\223\220\365\253\305?\\ \303d\371q\302?O\016\236\213\371\006\307?RiA\\\267O\245?j\261\250?\272\014\304?L\333;\243\375\345\241?\260\355OT]\222\273?L\346\271P\321\036\264?G\235m \354?\250?\342\236\036H<M\266?\014cA\025\275*\177?\225\316X.Y\374\260?\263I\263\000\330\021\246?\034$y\206}\'\236?\267`\277Y.\335\252?\212\270\263\266b\270}?\317\3104\206C\322\243?\301\244\010T\004\334\236?\345\306\345\032\343M\212?c\307\032\346\277\013\241?\265`\217\210\361\326\357?\000\000\000\000\000\000\000\000\000\000\000\000\000\000\000\000\000\000\000\000\000\000\000\000\000\000\000\000\000\000\000\000\000\000\000\000\000\000\000\000\000\000\000\000\000\000\000\000\000\000\000\000\000\000\000\000\000\000\000\000\000\000\000\000\000\000\000\000\000\000\000\000\000\000\000\000\000\000\000\000\000\000\000\000\000\000\000\000\000\000\000\000\000\000\000\000\000\000\000\000\000\000\000\000\000\000\000\000\000\000\000\000\000\000\000\000\000\000\000\000\336\240\331\022\027\231\271?\000\000\000\000\000\000\000\000\000\000\000\000\000\000\000\000\000\000\000\000\000\000\000\000\000\000\000\000\000\000\000\000\000\000\000\000\000\000\000\000\000\000\000\000\000\000\000\000\000\000\000\000\000\000\000\000\000\000\000\000\000\000\000\000\325~X\005\257\324\340?\270\356\004z\307\330\346?J\371|\366\322\216\326?\371\315\350\326\325\255\321?\222\2407\372\220\257\270?\315/\331N\310\370\255?0\r;\202\336\025\221?\354\315\327q&\210\201?\241hjJfOa?\313\017}lzTO?\3232Mu\006\253+?c\351\332b\356\245\026?\204\325\t\301!B\362>\037\375\324\211\373~\333>\322A=\177\260\205\264>\323\t\311\225s\305\234>\373!~ON\026t>\302$Pq\364sZ>\321\315:\022\215i1>\023\307\343\332\245\260\025>p4\304\242\313\026\353=\r\304\276\377j\014\320=\203eC\272\320\016\242=\2636\035\002\237!\201=\000\000\000\000\000\000\000\000Z\'2&Ga\357?\000\000\000\000\000\000\000\000\000\000\000\000\000\000\000\000X\305\370J\271\014\311?\000\000\000\000\000\000\000\000\000\000\000\000\000\000\000\000@\326\035\355\245\342\201?\000\000\000\000\000\000\000\000\000\000\000\000\000\000\000\000\254\233\213\212\257\354(?\000\000\000\000\000\000\000\000\000\000\000\000\000\000\000\000\240\234 \031xv\305>\000\000\000\000\000\000\000\000\000\000\000\000\000\000\000\000\206\242=6\350\263Y>\000\000\000\000\000\000\000\000\000\000\000\000\000\000\000\000\252\013\034\007\006\374\346=\000\000\000\000\000\000\000\000\000\000\000\000\000\000\000\000\000\000\000\000\000\000\000\000\000\000\000\000\000\000\000\000\000\000\000\000\000\000\000\000\000\000\000\000\000\000\000\000\266\353\331\235G\304\355?\000\000\000\000\000\000\000\000\226\252\207s\235\032\325?\000\000\000\000\000\000\000\000\0311\036\0144Q\302?\000\000\000\000\000\000\000\000`p\t\371e\300\260?\000\000\000\000\000\000\000\000A\331\232\3308b\237?\000\000\000\000\000\000\000\000\211\352\355z\315\315\215?\000\000\000\000\000\000\000\000\033\265\031K\317\215|?\000\000\000\000\000\000\000\000a\230\035\215\010\206k?\000\000\000\000\000\000\000\000~o\350\205\371\245Z?\000\000\000\000\000\000\000\000QR\223\t9\343I?\000\000\000\000\000\000\000\000\2147b\305\32369?\000\000\000\000\000\000\000\000\361\252t\347\360\233(?\000\000\000\000\000\000\000\000`>\321\242\020\017\030?8W\210\232\230\014\356?\336$\204\315\352\314\313?U\247*\032\345\237\226?\252\276\261R\225\342\305?\t^\236\221\'\344\302?>\010\276\001<\250\264?\216a)\210\324PN?\316\247\324+\313\255\250?\\\217oB\030w\260?\337F\302.IU\252?z6\367~#g\231?\310\326sr\263\035h?b[L/\344\275\226?\253d\354\0012J\236?s|\343\275R\235\232?U\231\276%\301\261\217?Up\226d>\"g?6\361\255\362\340\007\200?R\272d\253!\260\214?\002\347\\RF\333\216?!\220\035\372CT\210?\366\235\332\377-_y?\033}ht\256\242\323>\220|\243:u\204t?i\\(N\245\032\200?\310S\007\316b\303\355?\000\000\000\000\000\000\000\000\000\000\000\000\000\000\000\000\000\000\000\000\000\000\000\000\000\000\000\000\000\000\000\000\000\000\000\000\000\000\000\000\000\000\000\000\000\000\000\000\000\000\000\000\000\000\000\000\000\000\000\000\000\000\000\000\000\000\000\000\000\000\000\000\000\000\000\000\000\000\000\000\000\000\000\000\000\000\000\000\000\000\000\000\000\000\000\000\201\tP\357\351\201\327?\000\000\000\000\000\000\000\000\000\000\000\000\000\000\000\000\000\000\000\000\000\000\000\000\000\000\000\000\000\000\000\000\000\000\000\000\000\000\000\000\000\000\000\000\000\000\000\000\000\000\000\000\000\000\000\000\000\000\000\000\000\000\000\000\000\000\000\000\000\000\000\000\000\000\000\000\000\000\000\000\000\000\000\000\000\000\000\000\n\211.X\325b\346?\013\005\220\313\304\226\341?\252\245v9n\356\331?\311\346\031l\306\206\307?@?\316\246\252\206\270?\357\2079\327d<\241?\304\357\234+\214W\215?\244\301+Fimq?\351o\237\013u\261Y?v\332\347\014\240\352:?\203\000\200\240,\277!?\005\350\376\323\035\321\000?^\245,tT>\344>E\265\341\360B\245\301>\007\361``U\252\243>\3059\006\350}\352\177>T(\237(\321\242`>gh;\340\220\\9>\327\344\tGS\355\030>~V9\n\n\371\361=\266\253ps$\302\320=\003\237\266\014\217\374\246=\311\223lLk\245\206=\000\000\000\000\000\000\000\000\000\000\000\000\000\000\000\000\232N\013\375\377\377\357?\000\000\000\000\000\000\000\000\000\000\000\000\000\000\000\000gv+\276\017\202\033?\000\000\000\000\000\000\000\000\000\000\000\000\000\000\000\000\342\263\327At&%>\000\000\000\000\000\000\000\000\000\000\000\000\000\000\000\000\000\000\000\000\000\000\000\000\000\000\000\000\000\000\000\000\000\000\000\000\000\000\000\000\000\000\000\000\000\000\000\000\000\000\000\000\000\000\000\000\000\000\000\000\000\000\000\000\000\000\000\000\000\000\000\000\000\000\000\000\000\000\000\000\000\000\000\000\000\000\000\000\000\000\000\000\000\000\000\000\000\000\000\000\000\000\000\000\000\000\000\000\000\000\000\000\000\000\000\000\000\000\000\000\000\000\000\000\000\000\000\000\000\000\000\000\000\000\000\000\000\000\000\000\000\000\000\000_e\000\321\021\034\357?\000\000\000\000\000\000\000\000,,`\022\025D\314?\000\000\000\000\000\000\000\000\'8mE\311)\262?\000\000\000\000\000\000\000\000\n\022`2W\313\235?\000\000\000\000\000\000\000\000F-\252<\330Z\213?\000\000\000\000\000\000\000\000\254\345\226E\352\206y?\000\000\000\000\000\000\000\000\307&\264n\237|g?\000\000\000\000\000\000\000\000\322^B\250\2076U?\000\000\000\000\000\000\000\000w\331\375\016#\331B?\000\000\000\000\000\000\000\000\2677\355\235\361\2060?\000\000\000\000\000\000\000\000\351:`\010[\257\034?\000\000\000\000\000\000\000\000\n\025\231B\306\261\010?\000\000\000\000\000\000\000\000\333GV=\002!\365>\376\221\371\256\356v\352?u\247\324\332j\330\313?\356\274\354\303\325n\311?UL\213.\\E\323?\032m\234\251\332\215\304?\370\242\233s\226_\243?\211\260\"\020\252@\304?\3578\3214\343\005\304?\031n5\236\356\205\261?\323\t4,\026\343\242?\222 \204\303S\022\272?k\212k5k\221\272?U\013<-\202b\254?\315vk\335\311a\205?\306k\005\004\262\023\257?y\251`%\226}\263?\352\233\014\230\027\332\254?x\211U\233\003\023\220?~R5\267TN\232?\036\361\305\220O\"\252?\214>V\021*\014\253?\244DM\247\005^\241?!J\021\300\250tr?\255eu3\005\266\227?\215h\360\251t\376\243?4\325R\321\324\356\352?\000\000\000\000\000\000\000\000\000\000\000\000\000\000\000\000\000\000\000\000\000\000\000\000\000\000\000\000\000\000\000\000\000\000\000\000\000\000\000\000\000\000\000\000\000\000\000\000\000\000\000\000\000\000\000\000\000\000\000\000\000\000\000\000\000\000\000\000\000\000\000\000\000\000\000\000\000\000\000\000\000\000\000\000\000\000\000\000\000\000\000\000\000\000\000\000\000\000\000\000\000\000\000\000\000\000\000\000\000\000\000\000\000\000\000\000\000\000\000\000\000\000\000\000\000\000\000\000V\247\344c\321G\341?\000\000\000\000\000\000\000\000\000\000\000\000\000\000\000\000\000\000\000\000\000\000\000\000\000\000\000\000\000\000\000\000\000\000\000\000\000\000\000\000\000\000\000\000\000\000\000\000\000\000\000\000\000\000\000\000L 4W\222r\346?6\301cN&\025\346?8v\256\242\004\277\303?);\221\266#n\266?\0322\344\003i]\214?\3073H|7\365x?}\362b\247\n\305I?\\+K\241\322)3?#\223\214\035\303\"\001?E36\304\355y\346>9\211\r\262\362\371\261>\316Mq\342\355S\225>C\260B\264\252$_>\343\276\253S\213\376@>\372\034?y{\371\006>\206\227\341(\236W\347=\257j\206\030[\203\255=\301\254\036\2578i\212=\000\000\000\000\000\000\000\000\000\000\000\000\000\000\000\000\000\000\000\000\000\000\000\000\000\000\000\000\000\000\000\000\000\000\000\000\000\000\000\000\000\000\000\000\000\000\000\000\000\000\000\000\000\000\000\000IN\244\260\002g\357?\000\000\000\000\000\000\000\000\000\000\000\000\000\000\000\000/0/\3362\231\310?\000\000\000\000\000\000\000\000\000\000\000\000\000\000\000\000b\204\332c\004<\201?\000\000\000\000\000\000\000\000\000\000\000\000\000\000\000\000w\216\271(g\221\'?\000\000\000\000\000\000\000\000\000\000\000\000\000\000\000\000\342\214O\352/\352\303>\000\000\000\000\000\000\000\000\000\000\000\000\000\000\000\000+g\311\215\023gW>\000\000\000\000\000\000\000\000\000\000\000\000\000\000\000\000\304-\246`3\211\344=\000\000\000\000\000\000\000\000\000\000\000\000\000\000\000\000\000\000\000\000\000\000\000\000\000\000\000\000\000\000\000\000\000\000\000\000\000\000\000\000\000\000\000\000\000\000\000\000\377i$B\253=\354?\000\000\000\000\000\000\000\000\021)\255 \354y\330?\000\000\000\000\000\000\000\000\255\003\315\232n\377\312?\000\000\000\000\000\000\000\000\037XV\247\221x\300?\000\000\000\000\000\000\000\000\313\nu]\274\217\265?\000\000\000\000\000\000\000\000&\017\235I1\227\255?\000\000\000\000\000\000\000\000hs\007\343\323\335\244?\000\000\000\000\000\000\000\000\254\177\315\014\327\320\235?\000\000\000\000\000\000\000\000z%]\352\244e\225?\000\000\000\000\000\000\000\000Z\245\035\362\353\264\216?\000\000\000\000\000\000\000\000\230\027\212\245D\373\205?\000\000\000\000\000\000\000\000N9$\267$^\177?\000\000\000\000\000\000\000\000(\323\000\332EMv?\260\234~st\277\347?n\225!3\023\263\312?5\0362_\003b\314?\022u(\272V\225\324?\206`\222\003\374\244\303?\013B\363>\357\263\263?\214\341\177x\306\030\312?\334$}\375\004\235\306?\366\245\276\243\333\327\250?J\313\210gi\333\265?N>\276\\\3019\303?\257\210\nk?\340\277?\212\321\311oaH\243?\360\333x>\232\362\254?Z\306\236sDe\274?\177\321\214\213\265\010\273?4\202\221I\243l\252?\370w\340.\023Z\224?\030\n\001o\267%\263?Bm6\032<h\267?x\217\256\327=A\261?\324\273}\376\244\267\221?\212\357\023\312}\010\242?l \264\366\326v\261?\021\360\366w\006Y\262?\207\216dP\202o\355?\000\000\000\000\000\000\000\000\000\000\000\000\000\000\000\000\000\000\000\000\000\000\000\000\000\000\000\000\000\000\000\000\000\000\000\000\000\000\000\000\000\000\000\000\000\000\000\000\000\000\000\000\000\000\000\000\000\000\000\000\000\000\000\000\000\000\000\000\000\000\000\000\000\000\000\000\000\000\000\000\000\000\000\000\000\000\000\000\000\000\000\000\000\000\000\000\000\000\000\000\000\000\000\000\000\000\000\000\000\000\000\000\000\000\000\000\000\000\000\000\000\000\000\000\000\000\000\000\000\000\000\000\000\000\000\0000\366\370[\177\032\331?\000\000\000\000\000\000\000\000\000\000\000\000\000\000\000\000\000\000\000\000\000\000\000\000\000\000\000\000\000\000\000\000\000\000\000\000\000\000\000\000\000\000\000\000\000\000\000\000,I\341@\343\363\357?\331\3452a)\266\253?Mn{\233\227\253t?6+\336\2260\263$?\021\177`B\371\325\345>\rs\030 1\360\220>\025\355\221\034\207-M>\357|\340\205\371 \363=\262\251\016\256^\210\254=\000\000\000\000\000\000\000\000\000\000\000\000\000\000\000\000\000\000\000\000\000\000\000\000\000\000\000\000\000\000\000\000\000\000\000\000\000\000\000\000\000\000\000\000\000\000\000\000\000\000\000\000\000\000\000\000\000\000\000\000\000\000\000\000\000\000\000\000\000\000\000\000\000\000\000\000\000\000\000\000\000\000\000\000\000\000\000\000\000\000\000\000\000\000\000\000\000\000\000\000\000\000\000\000\000\000\000\000\000\000\000\000\000\000\000\000\000\000\000\000\000\000\000\000\000\000\000\000.4P \241s\357?\000\000\000\000\000\000\000\000\000\000\000\000\000\000\000\0000]N\200\275\222\307?\000\000\000\000\000\000\000\000\000\000\000\000\000\000\000\000\344\226\344p\035\233\177?\000\000\000\000\000\000\000\000\000\000\000\000\000\000\000\000\217\363\017\257b\255$?\000\000\000\000\000\000\000\000\000\000\000\000\000\000\000\000\304 \374b\274\267\300>\000\000\000\000\000\000\000\000\000\000\000\000\000\000\000\000K{_\230\035\314R>\000\000\000\000\000\000\000\000\000\000\000\000\000\000\000\000\2576-\315\243\220\337=\000\000\000\000\000\000\000\000\000\000\000\000\000\000\000\000\000\000\000\000\000\000\000\000\000\000\000\000\000\000\000\000\000\000\000\000\000\000\000\000\000\000\000\000\000\000\000\000\232Te\265yv\352?\000\000\000\000\000\000\000\000\277\220\206\232\356G\333?\000\000\000\000\000\000\000\000T\002\337\037%?\321?\000\000\000\000\000\000\000\000W\030\350\364\331\001\307?\000\000\000\000\000\000\000\000.\264\313\n\225w\277?\000\000\000\000\000\000\000\000Vj\216+H\324\265?\000\000\000\000\000\000\000\000\273ea\307\250\220\256?\000\000\000\000\000\000\000\000\037\341;[?\210\245?\000\000\000\000\000\000\000\000\313\365\364#\301x\236?\000\000\000\000\000\000\000\000\203p0\366Z\241\225?\000\000\000\000\000\000\000\000\326-\252[\336\307\216?\000\000\000\000\000\000\000\000\301{\\\025s\360\205?\000\000\000\000\000\000\000\000\265\027\330U\263P\177?\014\245\272(<\354\347?[\305\311\232\340\003\307?\330\337\013\243\355\322\321?\223\373\r\251\037T\324?\361\r^S\034\347\262?\251\031\276\024\377\027\305?\245\000\023\217\231)\314?\375\022(Q\032\341\271?\342sXT\275\353\260?\030zt\364J-\304?j\316\000\200n\222\300?\376.\031\264\213\212\227?&L\022\307\233\345\264?\0209\303\330p3\277?Fm$\303f\273\265?\305\214\313G\023\205p?d+\0164e\243\261?\245\016\350\212\315`\270?\376\222\326\261,@\261?8\366!I\213\256}?\311\316\325V\007\243\251?\013!\264\272\323r\263?\302\\\t.nx\257?\'_\253%\003\331\222?\375\2704\255\313\021\236?0A\232!,\255\356?\000\000\000\000\000\000\000\000\000\000\000\000\000\000\000\000\000\000\000\000\000\000\000\000\000\000\000\000\000\000\000\000\000\000\000\000\000\000\000\000\000\000\000\000\000\000\000\000\000\000\000\000\000\000\000\000\000\000\000\000\000\000\000\000\000\000\000\000\000\000\000\000\000\000\000\000\000\000\000\000\000\000\000\000\000\000\000\000\000\000\000\000\000\000\000\000\000\000\000\000\000\000\000\000z\tb\360G7\322?\000\000\000\000\000\000\000\000\000\000\000\000\000\000\000\000\000\000\000\000\000\000\000\000\000\000\000\000\000\000\000\000\000\000\000\000\000\000\000\000\000\000\000\000\000\000\000\000\000\000\000\000\000\000\000\000\000\000\000\000\000\000\000\000\000\000\000\000\000\000\000\000\000\000\000\000\000\000\000\000\211\263\\\255\363\020\351?\211\236%q\371u\335?\363\330+\306\033\324\330?\232\3759\t\023\331\300?\035q;\222\210\024\264?\246\275]B\355\033\225?&\363\310\346\307\212\204?\360\226\363\2525@b?n\275u&%\303N?\016%`\267\213\032(?L\360\214\025N+\022?\016&\rU-\301\351>@\231:\034\334\270\321>\376\340B\230\235\033\247>\353V\260\334Rq\215>>y\3056\246\336a>0\214\327\221JLE>\317\205\024L\333H\030>a\213]\205\313I\373=Jbl\324\203n\315=.\035\237\305\365_\257=\034;Tq\276\201\202=\000\000\000\000\000\000\000\000\000\000\000\000\000\000\000\000\000\000\000\000\000\000\000\000\340\367\365rN\371\356?\000\000\000\000\000\000\000\000\000\000\000\000\000\000\000\000\rq\'\343\350\014\320?\000\000\000\000\000\000\000\000\000\000\000\000\000\000\000\000L\226\2349\257\301\215?\000\000\000\000\000\000\000\000\000\000\000\000\000\000\000\000=!w\2432\353:?\000\000\000\000\000\000\000\000\000\000\000\000\000\000\000\000\023\005t~&\030\336>\000\000\000\000\000\000\000\000\000\000\000\000\000\000\000\000\321^\234\225\025ew>\000\000\000\000\000\000\000\000\000\000\000\000\000\000\000\000f\360Fb;)\013>\000\000\000\000\000\000\000\000\000\000\000\000\000\000\000\000y\030\360\335!\263\230=\000\000\000\000\000\000\000\000\000\000\000\000\000\000\000\000\000\000\000\000\000\000\000\000\220\235\260\325\332$\353?\000\000\000\000\000\000\000\0007|\320T\270\251\332?\000\000\000\000\000\000\000\000@\n`\006\337\010\320?\000\000\000\000\000\000\000\000-\254\320\265\020S\304?\000\000\000\000\000\000\000\000\255\027\352d_d\272?\000\000\000\000\000\000\000\000\352\306\022L\347_\261?\000\000\000\000\000\000\000\000F\227\371y\372\024\247?\000\000\000\000\000\000\000\000\337\342K\035\005\333\236?\000\000\000\000\000\000\000\0004\376\003\361\306\267\224?\000\000\000\000\000\000\000\0000\367\322\240/\353\213?\000\000\000\000\000\000\000\000\357\031\336L\304\334\202?\000\000\000\000\000\000\000\000\222\242[A\r\213y?\000\000\000\000\000\000\000\000?L\302_tSq?y\375`\t\267<\355?\205\361@\272M\316\312?x \\\221_\363\277?Q\0136\220\330\243\315?\001\242\272$\254\372\302?\203\\5\362a\230\224?\356\016\016\212C\336\262? \325%f\344Y\271?\3614\305\006{\315\261?\210YE\307\256\367\220?\240\267\323\313\375\321\235?\326\321\024\230\021\321\251?\026\216\243\267\326B\247?D,\260\360c\326\227?\311\257^\301\366;h?E\336\370N\207\315\226?\t\212\242\031\214\324\235?:\243\254\246\241\177\230?\210N\303\006\311\356\206?(\256\276?\201qh?\256\035\022\342o\222\213?\204E\316\336\270\346\221?\206\307\220k\207\271\216?s\225\211\243\004\211\200?N\n7\204\010\2770?\225l\312De\211\355?\000\000\000\000\000\000\000\000\000\000\000\000\000\000\000\000\000\000\000\000\000\000\000\000\000\000\000\000\000\000\000\000\000\000\000\000\000\000\000\000\000\000\000\000\000\000\000\000\000\000\000\000\000\000\000\000\000\000\000\000\000\000\000\000\000\000\000\000\000\000\000\000\000\000\000\000\000\000\000\000\000\000\000\000\000\000\000\000\000\000\000\000\000\000\000\000\000\000\000\000\000\000\000\000\000\000\000\000\000\000\000\000\000\000\000\000\000\000\000\000\000\000\000\000\000\000\000\000\000\000\000\000\000\000\000\000\000\000\000\000\000\000\000\000\000\000\000\000\000\000\000\000\000\000\000\000\000\000\000\000\000\000\000\000\000\000\000\000\000\000\000\000\000\000\000\000\000\000\000\000\000\000\000\000g\224\021f\263\237\330?T\310\301\237\300*\343?bJ\323\226\367\364\344?2\242]\267\2177\330?\211f\245\211$\223\316?\365\276R\327\234\373\270?\256\014c\212\233n\250?.\274\344\374\332L\220?(w\372\302\347\361z?\255?\352\030\370\"_?\230\t\351\n9\262F?\3237\264\024Bu\'?p\337\3418\366\356\016?\372\310cc\246/\355>\244\014\006k\217\263\321>\300\035\344\223\332\354\256>\001\254QK\006v\221>\207\330=\353\371\210l>\215\257\301\361\253DN>u\204\230\244cQ\'>de\304\345oe\007>\246TB\020V\031\341=gf\206$\251Q\300=2\312G\262\261\217\226=\000\000\000\000\000\000\000\000\000\000\000\000\000\000\000\000\271Q\270B\244\251\357?\000\000\000\000\000\000\000\000\000\000\000\000\000\000\000\000\244\315\323\264\341\206\302?\000\000\000\000\000\000\000\000\000\000\000\000\000\000\000\000\2722\2644vds?\000\000\000\000\000\000\000\000\000\000\000\000\000\000\000\000\337\020i6)\317\023?\000\000\000\000\000\000\000\000\000\000\000\000\000\000\000\000\365\005\n\\\310\001\251>\000\000\000\000\000\000\000\000\000\000\000\000\000\000\000\000\373\277\347\003\210\3635>\000\000\000\000\000\000\000\000\000\000\000\000\000\000\000\000\276\372\232\221\374\306\274=\000\000\000\000\000\000\000\000\000\000\000\000\000\000\000\000\000\000\000\000\000\000\000\000\000\000\000\000\000\000\000\000\000\000\000\000\000\000\000\000\000\000\000\000\000\000\000\000\032\020lN[6\355?\000\000\000\000\000\000\000\000\033v\3575\211\327\326?\000\000\000\000\000\000\000\000\"\344-kt\332\305?\000\000\000\000\000\000\000\000Kx\201a\237\004\266?\000\000\000\000\000\000\000\000\223g\034kE\266\246?\000\000\000\000\000\000\000\000\350\363\353\035\223\275\227?\000\000\000\000\000\000\000\000E\330\017\021Y\006\211?\000\000\000\000\000\000\000\000>\264+\300\225\207z?\000\000\000\000\000\000\000\0003\033K2p=l?\000\000\000\000\000\000\000\000D\001\371\357\317&^?\000\000\000\000\000\000\000\000\n\271W\323!\"P?\000\000\000\000\000\000\000\000$F\307+\272KA?\000\000\000\000\000\000\000\000\261w\3235m\2212?n\t\017\360\036\206\357?\t\242\'S\264\005\275?\200\233\013z#,\252?\2725\037\377Y\321\272?\2557\347\357{ \250?|^\006\20558p?\215\020\320\323\035\313\223?<~\322;\313\327\222?h\n-\014-\216\202?\357P\246:\215\2469?~O\357~K7t?\343od\353\302\271t?\352\365\210\334\316pf?\347L\024$\261\302+?\006\262(\212~\317U?\215\345S=o\336Z?\214v\277\"\001WR?\002E\254\260\300\3235?o\254Z\351\230\2202?l\024\324\002\007\365A?\276\270#\321i%@?\177d\013\304[81?5n\325\374\243\010\354>\352zk\317\340\374#?\3336mi\222\213*?B\222\014{\305{\352?\000\000\000\000\000\000\000\000\000\000\000\000\000\000\000\000\000\000\000\000\000\000\000\000\000\000\000\000\000\000\000\000\000\000\000\000\000\000\000\000\000\000\000\000\000\000\000\000\000\000\000\000\000\000\000\000\000\000\000\000\000\000\000\000\000\000\000\000\000\000\000\000\000\000\000\000\000\000\000\000\000\000\000\000\000\000\000\000\000\000\000\000\000\000\000\000\000\000\000\000\000\000\000\000\000\000\000\000\000\000\000\000\000\000\000\000\000\000\000\000\000\000\000\000\000\000\000\000\000\000\000\000\000\000\000\000\000\000\000\000\000\000\000\000\214\327:\2156\366\341?\000\000\000\000\000\000\000\000\000\000\000\000\000\000\000\000\000\000\000\000\000\000\000\000\000\000\000\000\000\000\000\000\000\000\000\000\000\000\000\000\271\270\240.\347t\356?\274\374Q\310XG\320?^\n\032<\332\245\305?W+\351\023\220\270\232?\3621\367\006c \211?\035\204\244\222\"\006X?\014f8\204\355qB?][s\235I\317\r?S\016\317\352%\322\363>e\t\001\276.@\274>\234\234k\377\031\315\240>`[2f\036\251e>\274\322\254J\343\204G>\372)\304`L\344\013>$;\033K\322\t\354=8\240\202_\214\364\256=I\314z\223G&\214=\000\000\000\000\000\000\000\000\000\000\000\000\000\000\000\000\000\000\000\000\000\000\000\000\000\000\000\000\000\000\000\000\000\000\000\000\000\000\000\000\000\000\000\000\000\000\000\000\000\000\000\000\000\000\000\000\000\000\000\000\000\000\000\000\223\034u\227\230\376\357?\000\000\000\000\000\000\000\000\000\000\000\000\000\000\000\000~\252\016\034\004\365\222?\000\000\000\000\000\000\000\000\000\000\000\000\000\000\000\000\233j\377Y\311\027\024?\000\000\000\000\000\000\000\000\000\000\000\000\000\000\000\000\345,2\033\226\310\204>\000\000\000\000\000\000\000\000\000\000\000\000\000\000\000\000\236\\\260\202V\221\352=\000\000\000\000\000\000\000\000\000\000\000\000\000\000\000\000\000\000\000\000\000\000\000\000\000\000\000\000\000\000\000\000\000\000\000\000\000\000\000\000\000\000\000\000\000\000\000\000\000\000\000\000\000\000\000\000\000\000\000\000\000\000\000\000\000\000\000\000\000\000\000\000\000\000\000\000\000\000\000\000\000\000\000\000\000\000\000\000\000\000\000\000\000\000\000\0007\307\244\203\344!\357?\000\000\000\000\000\000\000\000\244%\\\220l\376\312?\000\000\000\000\000\000\000\000VC\2112v\373\266?\000\000\000\000\000\000\000\000\335\020\360\032\2274\236?\000\000\000\000\000\000\000\000+\322\231\332\305-\202?\000\000\000\000\000\000\000\000\263?\356lj\222e?\000\000\000\000\000\000\000\000\233\205\254R\013\034J?\000\000\000\000\000\000\000\000\344`]m\30560?\000\000\000\000\000\000\000\000\014\210\273\324Ru\024?\000\000\000\000\000\000\000\00084w\003v\350\371>\000\000\000\000\000\000\000\0007\nHd\300V\340>\000\000\000\000\000\000\000\000\325r\006\275\210v\304>\000\000\000\000\000\000\000\0006\000\371\372{q\251>\241\005|t\226\360\356?\217\005\030\326\365C\303?\300\377\257\201\241G\267?\331;H]\330\255\303?\346\'\276\245\360\036\264?u\340\336\241\374\200h?\342u;g\177Q\244?\t\3245j\303(\245?\203\370\367%\030o\226?\004\344Gt\335s9?\257\021\354\250>\353\213?\304\367\342q<\010\220?\314\231$\202cO\204?HK\221L\224\320^?-2\177\2549Oq?\325\351`\022\205\324z?CAd\031\276Yv?\246\\Q\231\207\250d?q[\271\024\352\242@?\202\024d$*\377c?\210\354\027g\253\252g?Wq&\305\027~a?lG\345\020\361\213J?\026=\301X\'1=??\244\375*\014\310S?\0276)\243D\361\357?\000\000\000\000\000\000\000\000\000\000\000\000\000\000\000\000\000\000\000\000\000\000\000\000\000\000\000\000\000\000\000\000\000\000\000\000\000\000\000\000\000\000\000\000\000\000\000\000\000\000\000\000\000\000\000\000\000\000\000\000\000\000\000\000\000\000\000\000\000\000\000\000\000\000\000\000\000\000\000\000\000\000\000\000\000\000\000\000\000\000\000\000\000\000\000\000\000\000\000\000\000\000\000\000\000\000\000\000\000\000\000\000\000\000\000\000\000\000\000\000\000\000\000\000\000\000\000\000\000\000\000\000\000\000\000\000\000\000\000\000\000\000\000\000\000\000\000\000\000\000\000\000\316\240?\212 \261\256?\000\000\000\000\000\000\000\000\000\000\000\000\000\000\000\000\000\000\000\000\000\000\000\000\000\000\000\000\000\000\000\0009\223\314k\341\372\357?\317M\024\374\310\304\241?\202\324t\263k~{?\277R\240\320\251\243!?\033\235M\004\255L\363>o\225\036y\244.\223>\021DJ\305\345\"a>u\306\010z\"\312\374=\014\342\247V\371E\306=\000\000\000\000\000\000\000\000\000\000\000\000\000\000\000\000\000\000\000\000\000\000\000\000\000\000\000\000\000\000\000\000\000\000\000\000\000\000\000\000\000\000\000\000\000\000\000\000\000\000\000\000\000\000\000\000\000\000\000\000\000\000\000\000\000\000\000\000\000\000\000\000\000\000\000\000\000\000\000\000\000\000\000\000\000\000\000\000\000\000\000\000\000\000\000\000\000\000\000\000\000\000\000\000\000\000\000\000\000\000\000\000\000\000\000\000\000\000\000\000\000\000\000\000\000\000\000\000\345\2513B\363\377\357?\000\000\000\000\000\000\000\000\000\000\000\000\000\000\000\000\260e\265\252W\216l?\000\000\000\000\000\000\000\000\000\000\000\000\000\000\000\000\214\200\372j\345\312\306>\000\000\000\000\000\000\000\000\000\000\000\000\000\000\000\000\254\333^\003\000\301\021>\000\000\000\000\000\000\000\000\000\000\000\000\000\000\000\000\000\000\000\000\000\000\000\000\000\000\000\000\000\000\000\000\000\000\000\000\000\000\000\000\000\000\000\000\000\000\000\000\000\000\000\000\000\000\000\000\000\000\000\000\000\000\000\000\000\000\000\000\000\000\000\000\000\000\000\000\000\000\000\000\000\000\000\000\000\000\000\000\000\000\000\000\000\000\000\000\000\000\000\000\000\000\000\000\000\000\000\000\000\000\000\000\000\000\000\000\000\000\000\000\305\352Z.\245\037\357?\000\000\000\000\000\000\000\000\357vOq\"\217\314?\000\000\000\000\000\000\000\000(\343)vZ\342\257?\000\000\000\000\000\000\000\000\237\004\001=\203\247\222?\000\000\000\000\000\000\000\000\276\251m\016\237Av?\000\000\000\000\000\000\000\000L0\364\3552\320Z?\000\000\000\000\000\000\000\000\263w\214\254\324<@?\000\000\000\000\000\000\000\000B]\313\330\276\271#?\000\000\000\000\000\000\000\000I\001x\t\326\000\010?\000\000\000\000\000\000\000\000\216\207\007Q\032<\355>\000\000\000\000\000\000\000\000E!\316\345n\317\321>\000\000\000\000\000\000\000\000\351_\352\210\302\263\265>\000\000\000\000\000\000\000\000o\262b\010\334p\232>\367\313\350\335k\275\356?\235\305/;g\354\310?\007\370_\252\261\240\240?o%^\307\r\261\277?\261\245w\361\264/\274?\202\276~\320\227\361\263?\210\027P\001\360\357\224?\010\261\302\022\350q\220?8\374z\240\347\213\242?)\213\213\316\232=\242?.\267\373i\362\\\231?=\303\271\206]\342\202?\322\204\370\332s`p?\251=b\177\010>\211?\256N\247\033\241\022\216?m\336\356\217!h\211?L\370\263vu ~?P4\234U\362\317[?[\356\026\217\025\202h?\323\242\272E\331\245w? *\016\310\334\202z?\231\035\272\202LFv?\226\021\373{\345kk?hkN\227\027\245N?6\242b\246\323 S?\275\253\016\320\033\265\347?\000\000\000\000\000\000\000\000\000\000\000\000\000\000\000\000\000\000\000\000\000\000\000\000\000\000\000\000\000\000\000\000\000\000\000\000\000\000\000\000\000\000\000\000\000\000\000\000\000\000\000\000\000\000\000\000\000\000\000\000\000\000\000\000\000\000\000\000\000\000\000\000\000\000\000\000\000\000\000\000\000\000\000\000\000\000\000\000K%\367\255@~\345?\000\000\000\000\000\000\000\000\000\000\000\000\000\000\000\000\000\000\000\000\000\000\000\000\000\000\000\000\000\000\000\000\000\000\000\000\000\000\000\000\000\000\000\000\000\000\000\000\000\000\000\000\000\000\000\000\000\000\000\000\000\000\000\000\000\000\000\000\000\000\000\000\000\000\000\000\000\000\000\000\000\000\000\000\000\000\000\000\000\000\000\000\000\000\000\000\264\201\371Y\252\212\347?O\273\013\344\235L\334?[oW\246\246\t\336?\016\033`\204\327\330\304?,\302\236\000\022K\277? \257\037O\261\322\240?\372\256\322\034m\236\224?\021=\370\020~\274r?@\"\227\246#\343c?\034\305\004\025\t\340??\373|\303\307\347B.?%\230\225\025\247\357\005?\005\336\375u\323\002\363>\347J\267@jZ\311>d\311I5\257W\264>*7\324\330mA\211>\302\002\314\362\226\364r>\2631K\317\031\033F>\365,A\257\373H/>\204\034\233\024lA\001>\231\262\333\257\344*\347=\315\313\201\370 O\270=\013U\230\242m\036\237=\000\000\000\000\000\000\000\000\000\000\000\000\000\000\000\000\263\360\254\2738\363\357?\000\000\000\000\000\000\000\000\000\000\000\000\000\000\000\000\300f\252\002\210\225\254?\000\000\000\000\000\000\000\000\000\000\000\000\000\000\000\000\222z\232\321y\337F?\000\000\000\000\000\000\000\000\000\000\000\000\000\000\000\000rW\255\323\236\334\321>\000\000\000\000\000\000\000\000\000\000\000\000\000\000\000\0000\331ko\354<Q>\000\000\000\000\000\000\000\000\000\000\000\000\000\000\000\000\265fu\244\277\"\307=\000\000\000\000\000\000\000\000\000\000\000\000\000\000\000\000\000\000\000\000\000\000\000\000\000\000\000\000\000\000\000\000\000\000\000\000\000\000\000\000\000\000\000\000\000\000\000\000\000\000\000\000\000\000\000\000\000\000\000\000\000\000\000\000\000\000\000\000\000\000\000\000Jt\025TD\245\357?\000\000\000\000\000\000\000\000\345b\340\376\226\304\302?\000\000\000\000\000\000\000\000\247\211<\220\272R\227?\000\000\000\000\000\000\000\000\334\2632\001\322tk?\000\000\000\000\000\000\000\000\021\263\365y\340\r??\000\000\000\000\000\000\000\000\205_\2436\021\022\021?\000\000\000\000\000\000\000\000\274\342I\305\r`\342>\000\000\000\000\000\000\000\000\266\365z\221\265t\263>\000\000\000\000\000\000\000\000\256\376\254X\210S\204>\000\000\000\000\000\000\000\00001\0142\357\377T>\000\000\000\000\000\000\000\000\177\266\036+[}%>\000\000\000\000\000\000\000\000W\361\203\347M\317\365=\000\000\000\000\000\000\000\0005G\014)bV\306=xZW\334\242\255\353?u\024\315\010\310\310\321?Yd\031x\370\203v?\317^\375\372\334\246\310?x\363\214\325}\254\313?}u\326@\225K\304?cS\266\266\\\030\254?\005\017\217\233\010\230\243?\2026\000\034H\033\271?\362\221\361k\r\376\274?\264\007\002~\304u\267?\037\273\321\235\244K\250?}*\017\356\216\035_?\021\271\310H\221\253\245?\302\177 1\371\214\260?\212\243\342\320\357(\261?F&\"\376!,\253?\311\021\013:\201G\234?k\274\3169i\035\\?\000\351[C\311Q\231?\205\3140v\313\023\244?Vv\225\345Jp\247?\274\267-K\265!\244?pAa\330\353]\231?v\252\016\206\004R\203?]\336R\331k8\356?\000\000\000\000\000\000\000\000\000\000\000\000\000\000\000\000\000\000\000\000\000\000\000\000\000\000\000\000\000\000\000\000\000\000\000\000\000\000\000\000\000\000\000\000\000\000\000\000\000\000\000\000\000\000\000\000\000\000\000\000\000\000\000\000\000\000\000\000\000\000\000\000\000\000\000\000\000\000\000\000\000\000\000\000\000\000\000\000\000\000\000\000\000\000\000\000\000\000\000\000\000\000\000\000\000\000\000\000\000\000\000\000\000\000\000\000\000\000\000\000\000\000\000\000\000\000\000\000\000\000\000\000\000\000\000\000\000\000\000\000\000\000\000\000\000\000\000\000\000\000\000\000\000\000\000\000\000\000\000\000\000\000\000\000\000\000\000\000\000\000\000\000\000\000\000\000\000\000\000\000\000\000\000\000\222\340\343E\242\013\325?\256\2335\332\315\345\352?\331\205\3407\177U\341?\205+Z\021\002tz?\353za\340L\257c?\2312\316`\361=\365>V}W\247\354|\330>\2742\272\261w\223e>\326\346e\000\211\005E>\216h_\260X\n\320=[\272\313wJ\360\251=\000\000\000\000\000\000\000\000\000\000\000\000\000\000\000\000\000\000\000\000\000\000\000\000\000\000\000\000\000\000\000\000\000\000\000\000\000\000\000\000\000\000\000\000\000\000\000\000\000\000\000\000\000\000\000\000\000\000\000\000\000\000\000\000\000\000\000\000\000\000\000\000\000\000\000\000\000\000\000\000\000\000\000\000\000\000\000\000\000\000\000\000\000\000\000\000\000\000\000\000\000\000\000\000\000\000\000\000\000\000\000\000\000\000\000\000\000\000\000\000@<\311\376\377\377\357?\000\000\000\000\000\000\000\000\000\000\000\000\000\000\000\000\243\023L\205\346\240\021?\000\000\000\000\000\000\000\000\000\000\000\000\000\000\000\000\016\354\332$M_\021>\000\000\000\000\000\000\000\000\000\000\000\000\000\000\000\000\000\000\000\000\000\000\000\000\000\000\000\000\000\000\000\000\000\000\000\000\000\000\000\000\000\000\000\000\000\000\000\000\000\000\000\000\000\000\000\000\000\000\000\000\000\000\000\000\000\000\000\000\000\000\000\000\000\000\000\000\000\000\000\000\000\000\000\000\000\000\000\000\000\000\000\000\000\000\000\000\000\000\000\000\000\000\000\000\000\000\000\000\000\000\000\000\000\000\000\000\000\000\000\000\000\000\000\000\000\000\000\000\000\000\000\000\000\000\000\000\000\000\000\000\000\000\000\000\307\3062\\\265\255\356?\000\000\000\000\000\000\000\000\001U\033i*\020\321?\000\000\000\000\000\000\000\000X\345,q\231\220\267?\000\000\000\000\000\000\000\000\377\266_\262\337I\241?\000\000\000\000\000\000\000\000\345\270z\254S\026\212?\000\000\000\000\000\000\000\0006\315?\351\025\371s?\000\000\000\000\000\000\000\000a$\2765\244\323^?\000\000\000\000\000\000\000\000f\303S\361F\343G?\000\000\000\000\000\000\000\000\341!U\222\336\2132?\000\000\000\000\000\000\000\000\230\266\ns\344\320\034?\000\000\000\000\000\000\000\000\341\013\253\266\312a\006?\000\000\000\000\000\000\000\000~\256l\325\223_\361>\000\000\000\000\000\000\000\000\223\177E\341M\362\332>\234\004A=V\267\355?\014\244i_\247\017\275?\316\356\022\321I\017\321?\250\2459w\2650\307?{\206b\036\330\003\227?\024\'F[\215\232\273?\320m]\330\356`\260?\213\247\353G\016G\212?\225+r)\216o\250?9H\347-\242i\240?\021Y\371\037\305\240[?9\307\223\262\264?\226?{\000\310\234\233t\223?\262\256Wg\317\223o?\240\263x\275n\030\202?\017\332\302\200\366H\207?\370r\324\353\311\243v?\353\343eo\2333a?\263%\007\343\351\274x?\221BQ\022\361]t?A\313\002\361\177IR?\270\233\300g\267\370b??d\203RI\243k?\323\241\r\252\035^a?t\031\031|\223\250\006?\225\235\010\254\220\376\357?\000\000\000\000\000\000\000\000\000\000\000\000\000\000\000\000\000\000\000\000\000\000\000\000\000\000\000\000\000\000\000\000\000\000\000\000\000\000\000\000\000\000\000\000\000\000\000\000\000\000\000\000\000\000\000\000\000\000\000\000\000\000\000\000\000\000\000\000\000\000\000\000\000\000\000\000\000\000\000\000\000\000\000\000\000\000\000\000\000\000\000\000\000\000\000\000\024\227N\013;*\223?\000\000\000\000\000\000\000\000\000\000\000\000\000\000\000\000\000\000\000\000\000\000\000\000\000\000\000\000\000\000\000\000\000\000\000\000\000\000\000\000\000\000\000\000\000\000\000\000\000\000\000\000\000\000\000\000\000\000\000\000\000\000\000\000\000\000\000\000\000\000\000\000\000\000\000\000\000\000\000\000\000\000\000\000\000\000\000\000\210=\210\020*\376\357?\005\243\0046f\010\224?\000\033\316Qg\217\200?\262M*\304v\362\027?\307x\254\031\346\376\373>\342\200*\300\307[\217>\222\354\\\033\316\356m>\220\002lW)V\374=~\220\231+\256l\327=\000\000\000\000\000\000\000\000\000\000\000\000\000\000\000\000\000\000\000\000\000\000\000\000\000\000\000\000\000\000\000\000\000\000\000\000\000\000\000\000\000\000\000\000\000\000\000\000\000\000\000\000\000\000\000\000\000\000\000\000\000\000\000\000\000\000\000\000\000\000\000\000\000\000\000\000\000\000\000\000\000\000\000\000\000\000\000\000\000\000\000\000\000\000\000\000\000\000\000\000\000\000\000\000\000\000\000\000\000\000\000\000\000\000\000\000\000\000\000\000\000\000\000\000\000\000\000\000\303P\317Av\377\357?\000\000\000\000\000\000\000\000\000\000\000\000\000\000\000\000\252\340\341>\352x\207?\000\000\000\000\000\000\000\000\000\000\000\000\000\000\000\000\310)Z\225\022\315\376>\000\000\000\000\000\000\000\000\000\000\000\000\000\000\000\000\331\227\211J\324\270c>\000\000\000\000\000\000\000\000\000\000\000\000\000\000\000\000D S\363P6\277=\000\000\000\000\000\000\000\000\000\000\000\000\000\000\000\000\000\000\000\000\000\000\000\000\000\000\000\000\000\000\000\000\000\000\000\000\000\000\000\000\000\000\000\000\000\000\000\000\000\000\000\000\000\000\000\000\000\000\000\000\000\000\000\000\000\000\000\000\000\000\000\000\000\000\000\000\000\000\000\000\000\000\000\000\000\000\000\000\000\000\000\000\000\000\000\000\233\204S\031$\365\354?\000\000\000\000\000\000\000\000bk\330=0\201\327?\000\000\000\000\000\000\000\000\320@\226\004\310]\307?\000\000\000\000\000\000\000\000Y\327t[?|\270?\000\000\000\000\000\000\000\000x\213\361\262\243J\252?\000\000\000\000\000\000\000\000\320\217\204U\250\241\234?\000\000\000\000\000\000\000\000\317\242\347\372\215w\217?\000\000\000\000\000\000\000\000\026\024=iRg\201?\000\000\000\000\000\000\000\000\331\220|\327\342Ws?\000\000\000\000\000\000\000\000\031\364m\365#\224e?\000\000\000\000\000\000\000\000,\'\252\263\237$X?\000\000\000\000\000\000\000\000\235\372$K\245\023K?\000\000\000\000\000\000\000\000f=8\201Um>?\330\215\360\236\327\302\357?@\307\350\234\344\226\233?(\305\347\010\002\037\275?\321G\301\371\245\222\237?\353U\030Z\226\246\211?\207G\233\302!#\204?\264Z\361v\343\320B?\035\250W\277\272O`?\323\363\201v2\222L?V\327\3621\327\232\"?\364\016\317Q\356\0202?]w\370\351\236\343\024?\253cd;\225\002\004?1PG}\032Q\004?\r\035\352\032D\273\336>Px\344G\366l\337>\031H\347\002\017\035\330>w\376\223\344\270\324\245>+\307|\370\301I\267>,\347\235\233\200\250\256>\215\336U\017Y\022l>t#\224l\220J\221>\253\233\252\3576\001\205>\r\377\007\007\366\340.>\007\233\024\220\3579j>k\001\267\265\325\307\353?\000\000\000\000\000\000\000\000\000\000\000\000\000\000\000\000\000\000\000\000\000\000\000\000\000\000\000\000\000\000\000\000\000\000\000\000\000\000\000\000\000\000\000\000\000\000\000\000\000\000\000\000\000\000\000\000\000\000\000\000\000\000\000\000\000\000\000\000\000\000\000\000\000\000\000\000\000\000\000\000\000\000\000\000\000\000\000\000\000\000\000\000\000\000\000\000\000\000\000\000\000\000\000\000\312\242\304\323\225\303\337?\000\000\000\000\000\000\000\000\000\000\000\000\000\000\000\000\000\000\000\000\000\000\000\000\000\000\000\000\000\000\000\000\000\000\000\000\000\000\000\000\000\000\000\000\000\000\000\000\000\000\000\000\000\000\000\000\000\000\000\000\000\000\000\000\000\000\000\000\000\000\000\000\000\000\000\000\000\000\000\000\231x\263\331E\277\351?\371\333\246\225\270/\337?\231(\320\363u@\324?a\350\347\204/S\274?\245\362\276\3733\003\252?\353\361\377\221s.\214?\325\262\256\375\253!u?\022e\212Q9YS?\251\201k\004\n!9?\370\177V\317\264J\024?\213n9\334f\222\367>R.J0\2367\321>\231\237\324\t\372A\262>\376\232A\326\275\210\210>\366\312x`<\026h>\250A\032\271\326!>>\305\277:\341\025\254\033>\326,I39B\360=\"\324\364\300\240\'\314=\264`\020y\315D\237=\000\000\000\000\000\000\000\000\000\000\000\000\000\000\000\000\000\000\000\000\000\000\000\000\000\000\000\000\000\000\000\000\000\000\000\000\000\000\000\000\206\033.\267\346\377\357?\000\000\000\000\000\000\000\000\000\000\000\000\000\000\000\000\030\204\353\345\006\035t?\000\000\000\000\000\000\000\000\000\000\000\000\000\000\000\000\271\347\024y~\235\326>\000\000\000\000\000\000\000\000\000\000\000\000\000\000\000\000J\017m\251\276\320(>\000\000\000\000\000\000\000\000\000\000\000\000\000\000\000\000\000\000\000\000\000\000\000\000\000\000\000\000\000\000\000\000\000\000\000\000\000\000\000\000\000\000\000\000\000\000\000\000\000\000\000\000\000\000\000\000\000\000\000\000\000\000\000\000\000\000\000\000\000\000\000\000\000\000\000\000\000\000\000\000\000\000\000\000\000\000\000\000\000\000\000\000\000\000\000\000\000\000\000\000\000\000\000\000\000\000\000\000\000\000\000\000\000\000\000\000\000\000\000\0007u\355s,A\355?\000\000\000\000\000\000\000\000\275\316\026sh\267\326?\000\000\000\000\000\000\000\000v\343\374\325\247\232\305?\000\000\000\000\000\000\000\000\020\361\254\023l\250\265?\000\000\000\000\000\000\000\000\" \206\364\212?\246?\000\000\000\000\000\000\000\000P*8}\326-\227?\000\000\000\000\000\000\000\000~2\344\207%_\210?\000\000\000\000\000\000\000\000\255\001i\212\261\312y?\000\000\000\000\000\000\000\000\021N%j\002mk?\000\000\000\000\000\000\000\000\351W\344g\201E]?\000\000\000\000\000\000\000\000\356\230\340\334^UO?\000\000\000\000\000\000\000\000l|zQ\203\317@?\000\000\000\000\000\000\000\000APf\330\353\0222?D\256\372\201\223\003\355?\254*\002V\036,\316?4\212I\020\354\327\260?\321\206>\370\220\245\313?7\352\010\240l\020\307?6\264\204z\332_\264?\303\361\202\321\265\314\231?\217\226\037<\304\334\265?Kdt\352H.\270?\361\364G\357\014h\260?\213>\213\314~\017\222?\246\\]~\022\271\230?j\331\223\021\272\211\250?\366\030]X3\304\251? \225\331\365Z?\242?\303\332\250w\313\215\211?\303\265\313\001\204\267\204?,\325>\260\213\003\232?\310\305OM\211\033\237?\201\316\343\256\010>\232?\256\316J]JS\215?}w\272\371RLM?2\216\260\027\336\231\205?\016d~\257\014\343\221?vBcE_-\223?Z@;\247\224\277\350?\000\000\000\000\000\000\000\000\000\000\000\000\000\000\000\000\000\000\000\000\000\000\000\000\000\000\000\000\000\000\000\000\000\000\000\000\000\000\000\000\000\000\000\000\000\000\000\000\000\000\000\000\000\000\000\000\000\000\000\000\000\000\000\000\000\000\000\000\000\000\000\000\000\000\000\000\000\000\000\000\000\000\000\000\000\000\000\000\000\000\000\000\000\000\000\000\000\000\000\000\000\000\000\000\000\000\000\000\000\000\000\000\000\000\000\000\000\000\000\000\000\000\000\000\000\000\000\000\000\000\000\000\000\000\000\000\000\000\000\000\000\000\000\000\030\242\323\0302I\344?\000\000\000\000\000\000\000\000\000\000\000\000\000\000\000\000\000\000\000\000\000\000\000\000\000\000\000\000\000\000\000\000\000\000\000\000\000\000\000\000\\9U\351U\276\352?Q`\313\314\033c\305?\027\221\3125\035#\340?\347\315I\240\226\315\255?\n\036ur=\315\277?`<\352\010P\277\206?\036\3348\273\222\321\223?\300\331\274\2638\366W?\344\222\247\244n\024b?\026C\031L:G#?\255\210\204\216C\005*?\033\354\'\273\272\030\351>\324\355\222\277$\354\356>\354$\244b9o\253>\262\017\241U\246K\257>}\242?\371%\331i>\217\331\240{\347\224k>\301#t\r\033f%>q\250w\324*\207%>\323\216*P\357\230\337=\376\226\266\226&(\336=x{\220t1\013\225=J0\225Pa\266\222=\000\000\000\000\000\000\000\000\000\000\000\000\000\000\000\000\316\001w~\032\375\357?\000\000\000\000\000\000\000\000\000\000\000\000\000\000\000\000x\264\217\312K:\233?\000\000\000\000\000\000\000\000\000\000\000\000\000\000\000\000\2656M\036\211\272$?\000\000\000\000\000\000\000\000\000\000\000\000\000\000\000\000\0269\206V\025\315\236>\000\000\000\000\000\000\000\000\000\000\000\000\000\000\000\0005\311b\222\332G\014>\000\000\000\000\000\000\000\000\000\000\000\000\000\000\000\000\000\000\000\000\000\000\000\000\000\000\000\000\000\000\000\000\000\000\000\000\000\000\000\000\000\000\000\000\000\000\000\000\000\000\000\000\000\000\000\000\000\000\000\000\000\000\000\000\000\000\000\000\000\000\000\000\000\000\000\000\000\000\000\000\000\000\000\000\000\000\000\000\000\000\000\000\000\000\000\000\244BL(\025\362\357?\000\000\000\000\000\000\000\000\331\035\251\276Z\257\247?\000\000\000\000\000\000\000\000\267\226\014\027\262>\237?\000\000\000\000\000\000\000\000T}oy\375\010\221?\000\000\000\000\000\000\000\000\013\'9\027@|z?\000\000\000\000\000\000\000\000\362V\255\252\n\004b?\000\000\000\000\000\000\000\000\213\177\220\326\263\255F?\000\000\000\000\000\000\000\000]M\263\377#\371*?\000\000\000\000\000\000\000\000f\362S\350\341\213\016?\000\000\000\000\000\000\000\000c\020;\211\317|\360>\000\000\000\000\000\000\000\000t\340<\003\013\360\320>\000\000\000\000\000\000\000\000\272s\002\204;\244\260>\000\000\000\000\000\000\000\000vs#\274el\220>\027\3249\0066\370\345?6U\330~\030-\321?\001\2551\265Iz\245?\272\232^y\254u\316?9\025\237?\255\202\320?\205\261\360\344C\277\304?\027\313\005\350\030U\221?+.\213\200V\263\273?\003\211\260&\247)\306?\020\332\010Q\221S\305?&bH7y\232\272?FcP!\333`\217?\007\375\201\"\272J\261?\343\306\'\r8\231\277? .i\010Hs\301?)\264\331\254\001w\271?\"\340\303}\002\217\247?3\236{\370\252Hs?\336\214\3614\307\r\261?5H@\254\031\264\301?l\367\217?W5\270?\031xNnR\205\242?P\205m\020\316\367\262?\214\030)\236\276[\231?\310\001\217\343V\311\264?\214\027\376\346\257>\357?\000\000\000\000\000\000\000\000\000\000\000\000\000\000\000\000\000\000\000\000\000\000\000\000\000\000\000\000\000\000\000\000\000\000\000\000\000\000\000\000\000\000\000\000\000\000\000\000\000\000\000\000\000\000\000\000\000\000\000\000\000\000\000\000\000\000\000\000\000\000\000\000\000\000\000\000\000\000\000\000\000\000\000\000\000\000\000\000\000\000\000\000\000\000\000\000\000\000\000\000\000\000\000\000\000\000\000\000\000\000\000\000\000\000\000\000\000\000\000\000\000\000\000\000\000\000\000\000\000\000\000\000\000\000\000\000\000\000\000\000\000\000\000\000\000\000\000\000\000\000\000\000\000\000\000\000\000\000\000\000\000\000\000\000\000\000\000\000\000\000\000\000\000\000\000\000\000\000\000\000\000\000\000\000\260\016U\330\222\244\313?\010\226\345\332\355\266\351?\273\344\217\033\241\t\337?\320\276%\374\035\227\324?\003\361\014\353\202\262\274?\373s\007\227f\354\252?\254#\367\277\342\020\215?\202\244k5\352Cv?\207\226\350\371\250PT?8\273\320\3407\364:?\230\241E9f\260\025?O\257.\357(\275\371>\037gQ\n\356\273\322>@\037]\340\214K\264>\233\330k\247\034-\213>\370\334J\221\273Ak>\342\256\3650/\375@>\304\311n\016\262\340\037>H\033\337\331\363\251\362=\264\343\350`?\202\320=\322\202\373\276\027I\242=\000\000\000\000\000\000\000\000\000\000\000\000\000\000\000\000\000\000\000\000\000\000\000\000\000\000\000\000\000\000\000\000\000\000\000\000\000\000\000\000~\316e\230\230m\356?\000\000\000\000\000\000\000\000\000\000\000\000\000\000\000\000{1\356\310\222\302\323?\000\000\000\000\000\000\000\000\000\000\000\000\000\000\000\000\016\267\t\017w\364\226?\000\000\000\000\000\000\000\000\000\000\000\000\000\000\000\000\320\274\000\225\023\006J?\000\000\000\000\000\000\000\000\000\000\000\000\000\000\000\000\267\250)Q\356:\362>\000\000\000\000\000\000\000\000\000\000\000\000\000\000\000\000v@x\004\237\302\221>\000\000\000\000\000\000\000\000\000\000\000\000\000\000\000\000Z\030\277\006\033\327)>\000\000\000\000\000\000\000\000\000\000\000\000\000\000\000\000\206\265e\353\324r\275=\000\000\000\000\000\000\000\000\000\000\000\000\000\000\000\000\000\000\000\000\000\000\000\000\323\025\355\327\034\371\356?\000\000\000\000\000\000\000\000\\\253\332C\022\346\317?\000\000\000\000\000\000\000\000\262\177\335\211X|\240?\000\000\000\000\000\000\000\000\323_(\301\257\266i?\000\000\000\000\000\000\000\000\220\207\366\227\334\3750?\000\000\000\000\000\000\000\0009\251\023\355\016\020\364>\000\000\000\000\000\000\000\000vjKHX\314\265>\000\000\000\000\000\000\000\000\357\255v\267C3v>\000\000\000\000\000\000\000\000^\021\356\001yu5>\000\000\000\000\000\000\000\000\252OM3^\353\363=\000\000\000\000\000\000\000\000\304\210\361\360\203\376\261=\000\000\000\000\000\000\000\000\000\000\000\000\000\000\000\000\000\000\000\000\000\000\000\000\000\000\000\000\000\000\000\000\255a\210;x\321\355?m@\273\t\021<\317?B+\352\233\327\206\270?\373\302!\'\213\327\272?\275I\341\373I\223\300?6J\345x \266\300?\006\346\030\022\225\264\263?\n\362\203\002F\303\234?6D\2443\017\375\222?\371\272\320\023\230\203\246?NZ\352\337\343a\253?-^^^O\342\247?Y\322x\215\336\023\240?)\314\226\300<\t\211?@=\362pS\276t?\375\304}\232#)\222?\224\327\255\212\367\241\230?F\367q\331\274\370\230?\032-\025b\212@\224?\360\002\301\265\2112\211?cf\036\256\212\370o?(S\311\274\004\031o?6\205\245\254RS\203?]\312\250p2\177\211?[IU\215\240m\212?Y\005y\315\013\345\351?\000\000\000\000\000\000\000\000\257\312\301\177\366\314\342?\000\000\000\000\000\000\000\000\000\000\000\000\000\000\000\000\000\000\000\000\000\000\000\000\000\000\000\000\000\000\000\000\000\000\000\000\000\000\000\000\000\000\000\000\000\000\000\000\000\000\000\000\000\000\000\000\000\000\000\000\000\000\000\000\000\000\000\000\000\000\000\000\000\000\000\000\000\000\000\000\000\000\000\000\000\000\000\000\000\000\000\000\000\000\000\000\000\000\000\000\000\000\000\000\000\000\000\000\000\000\000\000\000\000\000\000\000\000\000\000\000\000\000\000\000\000\000\000\000\000\000\000\000\000\000\000\000\000\000\000\000\000\000\000\000\000\000\000\000\000\000\000\000\000\000\000\000\000\000\000\000\000\000\000\000\000\000\000\000\000\000\000\000\000\000\000i \314\032\013\375\355?C\312>\333\244i\307?\242\311\256LV\277\322?\025\347\252\264\233\346\240?\367qT=\203#\243?~\370\032d\250\272j?\277\006\230G\316\266h?\263\270\'\253\313+-?Y:\224\370\276[\'?\036\034\224-\263P\350>\253\310\224\347#j\341>!\224\224p\272e\240>\002\306\244R\362p\225>Yr\237H*\222R>@\360m\210f{F>(h\301h\274 \002>\007\261\3060\367\205\364=\013\202\337\031\303\030\257=S{YM\003\316\240=\000\000\000\000\000\000\000\000\000\000\000\000\000\000\000\000\000\000\000\000\000\000\000\000\000\000\000\000\000\000\000\000\000\000\000\000\000\000\000\000\000\000\000\000\000\000\000\000q\370(%\351\377\357?\000\000\000\000\000\000\000\000\000\000\000\000\000\000\000\000\245\007?\346d\037s?\000\000\000\000\000\000\000\000\000\000\000\000\000\000\000\000\007F\\T,q\324>\000\000\000\000\000\000\000\000\000\000\000\000\000\000\000\000G\315\211\377oS%>\000\000\000\000\000\000\000\000\000\000\000\000\000\000\000\000\000\000\000\000\000\000\000\000\000\000\000\000\000\000\000\000\000\000\000\000\000\000\000\000\000\000\000\000\000\000\000\000\000\000\000\000\000\000\000\000\000\000\000\000\000\000\000\000\000\000\000\000\000\000\000\000\000\000\000\000\000\000\000\000\000\000\000\000\000\000\000\000\000\000\000\000\000\000\000\000\000\000\000\000\000\000\000\000\000\000\000\000\000\000\000\000\000\000\000\000\000\000\000\000\215\270:`\234o\357?\000\000\000\000\000\000\000\000\0367|\333\017\320\304?\000\000\000\000\000\000\000\000\"\323\255#\351\305\265?\000\000\000\000\000\000\000\000\310\372\266\250V \241?\000\000\000\000\000\000\000\0002PZ}\006\251\207?\000\000\000\000\000\000\000\000\025\267\234\r\n\361n?\000\000\000\000\000\000\000\000:\257\321X\274\364S?\000\000\000\000\000\000\000\000\r\034\335\022{\026:?\000\000\000\000\000\000\000\000\243\364\253\326\245\203!?\000\000\000\000\000\000\000\000E\301\007 \303 \010?\000\000\000\000\000\000\000\000`\323_\231\222\342\360>\000\000\000\000\000\000\000\000\036\343\000?\261\301\327>\000\000\000\000\000\000\000\000#\351\310\364u\255\300>al\031!X\033\355?\004\271H\252\027\354{?+\334\336\2534\033\327?\'\0045\014\223d\213?\270\036BXnl\306?\361\240Qq\322V\214?l\024Sc\022\331\266?\242\261\315\251\037\346\207?;\362\374 \342\265\247?\230xE&\206,\202?\000\315\306\010\022\277\230?\207\367L\344\006\357y?\263\256\211\215(\310\211?\301\233\246\207\315\263q?0\252\230\305\325\250z?\366\271L\245i_g?X\351{\313\0356k?\022(kP\273\t^?p\301\341\n=?[?\n\330I\207\001\335R?\005sK\316\"\214J?C\3377\310\2705G?$.\327\361\355\3348?H\026\343\251B\004<?\212c,rV\352%?\345\305p\364]\217\351?\000\000\000\000\000\000\000\000\000\000\000\000\000\000\000\000\000\000\000\000\000\000\000\000\000\000\000\000\000\000\000\000\000\000\000\000\000\000\000\000\000\000\000\000\000\000\000\000\000\000\000\000\000\000\000\000\000\000\000\000\000\000\000\000\000\000\000\000\000\000\000\000\351 \240\201\320@\343?\000\000\000\000\000\000\000\000\000\000\000\000\000\000\000\000\000\000\000\000\000\000\000\000\000\000\000\000\000\000\000\000\000\000\000\000\000\000\000\000\000\000\000\000\000\000\000\000\000\000\000\000\000\000\000\000\000\000\000\000\000\000\000\000\000\000\000\000\000\000\000\000\000\000\000\000\000\000\000\000\000\000\000\000\000\000\000\000\000\000\000\000\000\000\000\000\000\000\000\000\000\000\000\000\000\000\000\000\000\000\000\000s\353\307\336\246j\352?\354\355\002r\234^\273?x\261%LT\025\341?-\267\226\312\016p\244?\202\016\230\316f\n\302?\273\235\310c\327\267\200?\307\304\307\277;\031\230?\305\001PP\274\337R?^\331w\240\252\217g?*{\252\252+F ?\274\334\365\213\277+2?]\301\226\365\232\264\346>\032\367\211\301\232$\367>\033\013\245\027\336\231\252>0\275\274\2131\032\271>\035\t\177[^\334j>\002\023f\333\332\265w>\007\340\313\252\r\325\'>\037\203Afy\3253>\371\251\363\352~\333\342=9\3142\253\323\306\355=\034aP\207\307\355\232=\236=3\005\177E\244=\000\000\000\000\000\000\000\000\000\000\000\000\000\000\000\000\354Tc//\374\357?\000\000\000\000\000\000\000\000\000\000\000\000\000\000\000\000s\363\316a\352?\237?\000\000\000\000\000\000\000\000\000\000\000\000\000\000\000\000\212Q\0234\322N+?\000\000\000\000\000\000\000\000\000\000\000\000\000\000\000\000\272\224\226\003\311I\247>\000\000\000\000\000\000\000\000\000\000\000\000\000\000\000\000\354\2736&:\213\030>\000\000\000\000\000\000\000\000\000\000\000\000\000\000\000\000\341\223\3503L\336\200=\000\000\000\000\000\000\000\000\000\000\000\000\000\000\000\000\000\000\000\000\000\000\000\000\000\000\000\000\000\000\000\000\000\000\000\000\000\000\000\000\000\000\000\000\000\000\000\000\000\000\000\000\000\000\000\000\000\000\000\000\000\000\000\000\000\000\000\000\000\000\000\000\233\010*\322\302\246\351?\000\000\000\000\000\000\000\000\327\231|\326j\230\327?\000\000\000\000\000\000\000\000*m:\np\237\320?\000\000\000\000\000\000\000\000\017\364}\0271\246\313?\000\000\000\000\000\000\000\000.\221\254\216}\254\307?\000\000\000\000\000\000\000\000\303kX\203\017\t\304?\000\000\000\000\000\000\000\000\034\277\225\352\236\251\300?\000\000\000\000\000\000\000\000\200\255#\205\360K\273?\000\000\000\000\000\000\000\000\244\275%\267j\030\266?\000\000\000\000\000\000\000\000!~\344\376 \272\261?\000\000\000\000\000\000\000\000\365\035\363WkB\254?\000\000\000\000\000\000\000\000-r\215\325\rk\246?\000\000\000\000\000\000\000\000\3050\010^Z\271\241?\3024\r?{\264\356?\230&\240\326\342\024\307?\255\312\333\331K\247\247?\027@\207\311\010+\304?\365\364\357\274\":\274?Mn\021\354\333\364\244?n\365\r6LZ\225?u\220x\325\354\204\247?x\276\346+\203\343\245?\005\335\261\265\2248\227?f\206\r\200\240\244L?\311B\220\030U\356\214?\021\036\275\306*m\223?\336\'*\204X\254\217?p\010}\316f\271~?,\265\301\234\222\270H?\252s\266\320\272vz?\004h\350$K`\201?\007\244\362\005\205\237}?}-\3011\177hp?W\3754\006\201I6?%\"{\332M\306d?\276\2078\302\340=p?0\263$,\242\341o?Y,BW\334*f?\316\034y\350)\353\357?\000\000\000\000\000\000\000\000\000\000\000\000\000\000\000\000\000\000\000\000\000\000\000\000\000\000\000\000\000\000\000\000\000\000\000\000\000\000\000\000\000\000\000\000\000\000\000\000\000\000\000\000\000\000\000\000\000\000\000\000\000\000\000\000\000\000\000\000\000\000\000\000\000\000\000\000\000\000\000\000\000\000\000\000\000\000\000\000\000\000\000\000\000\000\000\000\000\000\000\000\000\000\000\000\000\000\000\000\000\000\000\000\000\000\000\000\000\000\000\000\000\000\000\000\000\000\000\000\000\000\000\000\000\000\000\000\000\000\000\000\000\000\000\000\000\000\000\000\000\000\000\000\000\000\000\000\000\000\000\000uEy$B?\262?\000\000\000\000\000\000\000\000\000\000\000\000\000\000\000\000\000\000\000\000\000\000\000\000V\260 