node {
  name: "global_step/Initializer/zeros"
  op: "Const"
  attr {
    key: "_class"
    value {
      list {
        s: "loc:@global_step"
      }
    }
  }
  attr {
    key: "_output_shapes"
    value {
      list {
        shape {
        }
      }
    }
  }
  attr {
    key: "dtype"
    value {
      type: DT_INT64
    }
  }
  attr {
    key: "value"
    value {
      tensor {
        dtype: DT_INT64
        tensor_shape {
        }
        int64_val: 0
      }
    }
  }
}
node {
  name: "global_step"
  op: "VariableV2"
  attr {
    key: "_class"
    value {
      list {
        s: "loc:@global_step"
      }
    }
  }
  attr {
    key: "_output_shapes"
    value {
      list {
        shape {
        }
      }
    }
  }
  attr {
    key: "container"
    value {
      s: ""
    }
  }
  attr {
    key: "dtype"
    value {
      type: DT_INT64
    }
  }
  attr {
    key: "shape"
    value {
      shape {
      }
    }
  }
  attr {
    key: "shared_name"
    value {
      s: ""
    }
  }
}
node {
  name: "global_step/Assign"
  op: "Assign"
  input: "global_step"
  input: "global_step/Initializer/zeros"
  attr {
    key: "T"
    value {
      type: DT_INT64
    }
  }
  attr {
    key: "_class"
    value {
      list {
        s: "loc:@global_step"
      }
    }
  }
  attr {
    key: "_output_shapes"
    value {
      list {
        shape {
        }
      }
    }
  }
  attr {
    key: "use_locking"
    value {
      b: true
    }
  }
  attr {
    key: "validate_shape"
    value {
      b: true
    }
  }
}
node {
  name: "global_step/read"
  op: "Identity"
  input: "global_step"
  attr {
    key: "T"
    value {
      type: DT_INT64
    }
  }
  attr {
    key: "_class"
    value {
      list {
        s: "loc:@global_step"
      }
    }
  }
  attr {
    key: "_output_shapes"
    value {
      list {
        shape {
        }
      }
    }
  }
}
node {
  name: "global_step/IsVariableInitialized"
  op: "IsVariableInitialized"
  input: "global_step"
  attr {
    key: "_class"
    value {
      list {
        s: "loc:@global_step"
      }
    }
  }
  attr {
    key: "_output_shapes"
    value {
      list {
        shape {
        }
      }
    }
  }
  attr {
    key: "dtype"
    value {
      type: DT_INT64
    }
  }
}
node {
  name: "global_step/cond/Switch"
  op: "Switch"
  input: "global_step/IsVariableInitialized"
  input: "global_step/IsVariableInitialized"
  attr {
    key: "T"
    value {
      type: DT_BOOL
    }
  }
  attr {
    key: "_output_shapes"
    value {
      list {
        shape {
        }
        shape {
        }
      }
    }
  }
}
node {
  name: "global_step/cond/switch_t"
  op: "Identity"
  input: "global_step/cond/Switch:1"
  attr {
    key: "T"
    value {
      type: DT_BOOL
    }
  }
  attr {
    key: "_output_shapes"
    value {
      list {
        shape {
        }
      }
    }
  }
}
node {
  name: "global_step/cond/switch_f"
  op: "Identity"
  input: "global_step/cond/Switch"
  attr {
    key: "T"
    value {
      type: DT_BOOL
    }
  }
  attr {
    key: "_output_shapes"
    value {
      list {
        shape {
        }
      }
    }
  }
}
node {
  name: "global_step/cond/pred_id"
  op: "Identity"
  input: "global_step/IsVariableInitialized"
  attr {
    key: "T"
    value {
      type: DT_BOOL
    }
  }
  attr {
    key: "_output_shapes"
    value {
      list {
        shape {
        }
      }
    }
  }
}
node {
  name: "global_step/cond/read"
  op: "Identity"
  input: "global_step/cond/read/Switch:1"
  attr {
    key: "T"
    value {
      type: DT_INT64
    }
  }
  attr {
    key: "_output_shapes"
    value {
      list {
        shape {
        }
      }
    }
  }
}
node {
  name: "global_step/cond/read/Switch"
  op: "RefSwitch"
  input: "global_step"
  input: "global_step/cond/pred_id"
  attr {
    key: "T"
    value {
      type: DT_INT64
    }
  }
  attr {
    key: "_class"
    value {
      list {
        s: "loc:@global_step"
      }
    }
  }
  attr {
    key: "_output_shapes"
    value {
      list {
        shape {
        }
        shape {
        }
      }
    }
  }
}
node {
  name: "global_step/cond/Switch_1"
  op: "Switch"
  input: "global_step/Initializer/zeros"
  input: "global_step/cond/pred_id"
  attr {
    key: "T"
    value {
      type: DT_INT64
    }
  }
  attr {
    key: "_class"
    value {
      list {
        s: "loc:@global_step"
      }
    }
  }
  attr {
    key: "_output_shapes"
    value {
      list {
        shape {
        }
        shape {
        }
      }
    }
  }
}
node {
  name: "global_step/cond/Merge"
  op: "Merge"
  input: "global_step/cond/Switch_1"
  input: "global_step/cond/read"
  attr {
    key: "N"
    value {
      i: 2
    }
  }
  attr {
    key: "T"
    value {
      type: DT_INT64
    }
  }
  attr {
    key: "_output_shapes"
    value {
      list {
        shape {
        }
        shape {
        }
      }
    }
  }
}
node {
  name: "global_step/add/y"
  op: "Const"
  attr {
    key: "_output_shapes"
    value {
      list {
        shape {
        }
      }
    }
  }
  attr {
    key: "dtype"
    value {
      type: DT_INT64
    }
  }
  attr {
    key: "value"
    value {
      tensor {
        dtype: DT_INT64
        tensor_shape {
        }
        int64_val: 0
      }
    }
  }
}
node {
  name: "global_step/add"
  op: "Add"
  input: "global_step/cond/Merge"
  input: "global_step/add/y"
  attr {
    key: "T"
    value {
      type: DT_INT64
    }
  }
  attr {
    key: "_output_shapes"
    value {
      list {
        shape {
        }
      }
    }
  }
}
node {
  name: "dnn/input_from_feature_columns/input_layer/coefficients/Const"
  op: "Const"
  attr {
    key: "_output_shapes"
    value {
      list {
        shape {
          dim {
            size: 5000
          }
          dim {
            size: 25
          }
        }
      }
    }
  }
  attr {
    key: "dtype"
    value {
      type: DT_DOUBLE
    }
  }
  attr {
    key: "value"
    value {
      tensor {
        dtype: DT_DOUBLE
        tensor_shape {
          dim {
            size: 5000
          }
          dim {
            size: 25
          }
        }
        tensor_content: "\000\000\000\000\000\000\000\000\000\000\000\000\000\000\000\000\000\000\000\000\000\000\000\000\000\000\000\000\000\000\000\000\000\000\000\000\000\000\000\000\000\000\000\000\000\000\360?\000\000\000\000\000\000\000\000\000\000\000\000\000\000\000\000\000\000\000\000\000\000\000\000\000\000\000\000\000\000\000\000\000\000\000\000\000\000\000\000\000\000\000\000\000\000\000\000\000\000\000\000\000\000\000\000\000\000\000\000\000\000\000\000\000\000\000\000\000\000\000\000\000\000\000\000\000\000\000\000\000\000\000\000\000\000\000\000\000\000\000\000\000\000\000\000\000\000\000\000\000\000\000\000\000\000\000\000\000\000\000\000\000\000\000\000\000\000\000\000\000\000\000\000\000\000\000\000\000\000\000\000\000\000\000\000\000\000\000\000\000\000\000\000\000\000\000\000\000\000\000\000V\355d\031\010\346\350?\013\230\275\rY\345\343?Q\343\255\017\237\315\264?\361\024\310\207\3551\243?\313\276\216\243Abl?H\326y)QIT?\224\n\347K2~\030?\020_\t\310\371\226\375>U!pjk\360\276>k\222U\331Z{\240>R$\341=\004\324^>~\352\027=\272\265=>?\0338\321?]\371=\331\204U\215?|\326=G\305\006\313\034R\221=\000\000\000\000\000\000\000\000\000\000\000\000\000\000\000\000\000\000\000\000\000\000\000\000\000\000\000\000\000\000\000\000\000\000\000\000\000\000\000\000\000\000\000\000\000\000\000\000\000\000\000\000\000\000\000\000\000\000\000\000\000\000\000\000\000\000\000\000\000\000\000\000\000\000\000\000\000\000\000\000\257\312Cg\331\377\357?\000\000\000\000\000\000\000\000\000\000\000\000\000\000\000\000\017\267U\207\257\331x?\000\000\000\000\000\000\000\000\000\000\000\000\000\000\000\000q\302`\346\324B\341>\000\000\000\000\000\000\000\000\000\000\000\000\000\000\000\000\232\222\255\343\264f7>\000\000\000\000\000\000\000\000\000\000\000\000\000\000\000\000 .+\204\332W\203=\000\000\000\000\000\000\000\000\000\000\000\000\000\000\000\000\000\000\000\000\000\000\000\000\000\000\000\000\000\000\000\000\000\000\000\000\000\000\000\000\000\000\000\000\000\000\000\000\000\000\000\000\000\000\000\000\000\000\000\000\000\000\000\000\000\000\000\000\000\000\000\000\000\000\000\000\000\000\000\000\000\000\000\000\000\000\000\000\000\000\000\000\000\000\000\000\336\246^b\200\\\357?\000\000\000\000\000\000\000\000\017\210>m\241\260\310?\000\000\000\000\000\000\000\000\351?\200\257P\316\247?\000\000\000\000\000\000\000\000\t\321\373\374\3321\210?\000\000\000\000\000\000\000\000\320I\326\016_2i?\000\000\000\000\000\000\000\000\023\253A\257\257\234J?\000\000\000\000\000\000\000\0002\335\310\203\214],?\000\000\000\000\000\000\000\000\237O\337\234\363m\016?\000\000\000\000\000\000\000\000\357\213\004\030_f\360>\000\000\000\000\000\000\000\000\312\331\275H\r\276\321>\000\000\000\000\000\000\000\000s\235\320b6@\263>\000\000\000\000\000\000\000\000\263\230\310G\343\357\224>\000\000\000\000\000\000\000\000M\311\306\276\323\320v>\263f\351`\211\341\357?^\301\243\304\362\200\250??\020G\031\213\211\260?\027\316\325n\256g\236?\240q\301(\\\272i?t\014\216\034y\303\200?|\213\007G}\267G?J\357\330%\345\313,?3\003\317\341\272}O?\034F\356\3733t#?\346\203\210\254]\214%?\373N\234\376\247Q\023?\332\017\254\033Y<\376>~\212\311\244\222\177\006?\376\3260\36381\326>\342L\233\003~\352\270>\232a;\007\365I\333>\246\'\341\223U\310\312>\326\022\262\032\300\225\302>S\223-\241UTg>\010\312Wau\214\232>\200\321.\300\221\261\244>\004()j\177\217\223>\203\336\\\321v*~>\361\353\220\263\2240k>\000\000\000\000\000\000\000\000\000\000\000\000\000\000\000\000\000\000\000\000\000\000\000\000\000\000\000\000\000\000\000\000\000\000\000\000\000\000\000\000\000\000\000\000\000\000\000\000\000\000\000\000\000\000\000\000\000\000\000\000\000\000\000\000\000\000\000\000\000\000\360?\000\000\000\000\000\000\000\000\000\000\000\000\000\000\000\000\000\000\000\000\000\000\000\000\000\000\000\000\000\000\000\000\000\000\000\000\000\000\000\000\000\000\000\000\000\000\000\000\000\000\000\000\000\000\000\000\000\000\000\000\000\000\000\000\000\000\000\000\000\000\000\000\000\000\000\000\000\000\000\000\000\000\000\000\000\000\000\000\000\000\000\000\000\000\000\000\000\000\000\000\000\000\000\000\000\000\000\000\000\000\000\000\000\000\000\000\000\000\000\000\000\000\000\000\000\000\000\000\030\272\350HH\005\354?\2071\253,z\364\322?P\224\000\334\307\235\327?\204>q\036sr\262?\364B\332ru@\260?D=\273+\220\252\203?x\236\326\250\006K|?\241]\355\216\225\357L?A\\(x\235\006B?\0336(}+B\020?#NL\263>\036\002?\371\210G\2154\220\315>\340\016\353U\010\023\276>\003\251\342\201\346\221\206>x\240\353?\304Au>+\335\236\r\311\263=>\262\0006X\347**>~\260\340bF,\361=\"\363}\0170\207\334=U\205\270Z\224\265\241=\305:\230&\306\334\213=\000\000\000\000\000\000\000\000\000\000\000\000\000\000\000\000\000\000\000\000\000\000\000\000\000\000\000\000\000\000\000\000\226\207C\324n\223\356?\000\000\000\000\000\000\000\000\000\000\000\000\000\000\000\000\200c\017\036\331\325\322?\000\000\000\000\000\000\000\000\000\000\000\000\000\000\000\000\202\3415E\206\301\224?\000\000\000\000\000\000\000\000\000\000\000\000\000\000\000\000iQ\305!9RF?\000\000\000\000\000\000\000\000\000\000\000\000\000\000\000\000\3604\221\350V\252\355>\000\000\000\000\000\000\000\000\000\000\000\000\000\000\000\000\031\2426r>j\213>\000\000\000\000\000\000\000\000\000\000\000\000\000\000\000\000W\261\264H%\353\">\000\000\000\000\000\000\000\000\000\000\000\000\000\000\000\000=\247\\\230\266s\264=\000\000\000\000\000\000\000\000\000\000\000\000\000\000\000\000\000\000\000\000\000\000\000\000\367\220\224\360\341\242\354?\000\000\000\000\000\000\000\000\036\205~`?\265\330?\000\000\000\000\000\000\000\000\2708]\316\270\231\311?\000\000\000\000\000\000\000\000\024#6r\t;\267?\000\000\000\000\000\000\000\000\207k\203\007\253/\244?\000\000\000\000\000\000\000\000T\216X@NQ\221?\000\000\000\000\000\000\000\000\202\001\014\325\266\215}?\000\000\000\000\000\000\000\000\242=\002\277\335\025i?\000\000\000\000\000\000\000\000\322\317\320\300\376(U?\000\000\000\000\000\000\000\000\316\224[r\367\272A?\000\000\000\000\000\000\000\0001\360\352\203\230\205-?\000\000\000\000\000\000\000\000\367}\275v\013o\030?\000\000\000\000\000\000\000\000%,\024\2668\036\004?jLf\320\220A\357?>\023\265#~\271\257?\020\002Mq\246\222\311?w;\035\017\030\326\212?\323\2040\016\001&\244?]\337\010\351\004\216\222?\331\266\236<e\241{?\330\365\254\260E\016\203?\366\211g\241l\263^?\355H\"\341\037\264j?3z\361VZ\345S?h\344\343\207j@L?Z\331*\370)\257H?\'\244\353\317\266\226,?\330\n\363\271\240\2726?\247y\334\033zw\032?tL\244Y\325\256\036?V\315>*bt\022?\246\267~\000`Y\377>g2>i\024\246\005?\244(\r\275\361\265\342>\335\366\234g\325\210\362>\367\301M\320>\001\332>4ca\315\355\255\325>\372\322t\017\004}\324>\000\000\000\000\000\000\000\000\000\000\000\000\000\000\000\000\000\000\000\000\000\000\000\000\000\000\000\000\000\000\000\000\000\000\000\000\000\000\000\000\000\000\000\000\000\000\000\000\000\000\000\000\000\000\000\000\000\000\000\000\000\000\000\000\000\000\000\000\000\000\000\000\000\000\000\000\000\000\000\000\000\000\000\000\000\000\000\000\000\000\000\000\000\000\000\000\000\000\000\000\000\000\000\000\000\000\000\000\000\000\000\000\000\000\000\000\000\000\000\000\000\000\000\000\000\000\000\000\000\000\000\000\000\000\000\000\000\000\000\000\000\000\000\000\000\000\000\000\000\000\000\000\000\000\000\000\000\000\000\000\000\000\000\000\000\000\360?\000\000\000\000\000\000\000\000\000\000\000\000\000\000\000\000\000\000\000\000\000\000\000\000\000\000\000\000\000\000\000\000\212\272-*\007A\357?\253\313\230\004\375x\313?+\323\371\267\276\027o?\261f\020\354\027\217??\233O\2761\222A\331>\271B?\215M\333\243>\035\r\276\225(\3639>\265C|3->\001>=\317\345A\342+\222=\000\000\000\000\000\000\000\000\000\000\000\000\000\000\000\000\000\000\000\000\000\000\000\000\000\000\000\000\000\000\000\000\000\000\000\000\000\000\000\000\000\000\000\000\000\000\000\000\000\000\000\000\000\000\000\000\000\000\000\000\000\000\000\000\000\000\000\000\000\000\000\000\000\000\000\000\000\000\000\000\000\000\000\000\000\000\000\000\000\000\000\000\000\000\000\000\000\000\000\000\000\000\000\000\000\000\000\000\000\000\000\000\000\000\000\000\000\000\000\000\000\000\000\000\000\000\000\000+\304\327[|\351\357?\000\000\000\000\000\000\000\000\000\000\000\000\000\000\000\000\223\006\366\307\310\366\262?\000\000\000\000\000\000\000\000\000\000\000\000\000\000\000\000\204\206TH\326(T?\000\000\000\000\000\000\000\000\000\000\000\000\000\000\000\000\220\r;\230\367\351\344>\000\000\000\000\000\000\000\000\000\000\000\000\000\000\000\0005\010g\2641\320j>\000\000\000\000\000\000\000\000\000\000\000\000\000\000\000\000e\271\n-g\347\347=\000\000\000\000\000\000\000\000\000\000\000\000\000\000\000\000\000\000\000\000\000\000\000\000\000\000\000\000\000\000\000\000\000\000\000\000\000\000\000\000\000\000\000\000\000\000\000\000\000\000\000\000\000\000\000\000\000\000\000\000\000\000\000\000\000\000\000\000\000\000\000\000V\261\010\274E=\356?\000\000\000\000\000\000\000\000B\310$\374HE\317?\000\000\000\000\000\000\000\000\315\363;UGJ\306?\000\000\000\000\000\000\000\000+~\217\351\246\340\273?\000\000\000\000\000\000\000\000\225\334 7\3149\257?\000\000\000\000\000\000\000\000\272\215\266\356~\216\240?\000\000\000\000\000\000\000\000\342\364E\355<\"\221?\000\000\000\000\000\000\000\000\214\314\274\323\311\236\201?\000\000\000\000\000\000\000\000\020~sD\3523r?\000\000\000\000\000\000\000\000\342x\020u\276\373b?\000\000\000\000\000\000\000\000M\226\tF1\376S?\000\000\000\000\000\000\000\000 \362\232\315\2326E?\000\000\000\000\000\000\000\000\3018\365\306\347\2316?\007\203-/\350\321\354?p\323h\222A\210\245?\27320\035\n\337\327?\333\317\302\007R\252\220?\353\2730\327\312\320\307?\023\277\226\020l\213P?\223I\242p\026\263\270?\036e\324\016\320\007w?Aw\254\316)\374\251?\321\032\210\001!\'~?\036\217\rU\346\226\233?\342g+_h\353{?\321\3263\242\266\236\215?\266\300\234:Mev?\344\321hf\302*\200?\rU\365\tO\216p?\315\240\363\213\257\022r?\265\270\004 \0344g?\005Qz.\242\322d?D\n\361\007\034T_?\254\321\030\357[\317X?\324!\205N\306\230T?\'v\032\014\275\211N?\226\327\tr\224\230J?\332\225\030\245\362PC?\000\000\000\000\000\000\000\000\000\000\000\000\000\000\000\000\000\000\000\000\000\000\360?\000\000\000\000\000\000\000\000\000\000\000\000\000\000\000\000\000\000\000\000\000\000\000\000\000\000\000\000\000\000\000\000\000\000\000\000\000\000\000\000\000\000\000\000\000\000\000\000\000\000\000\000\000\000\000\000\000\000\000\000\000\000\000\000\000\000\000\000\000\000\000\000\000\000\000\000\000\000\000\000\000\000\000\000\000\000\000\000\000\000\000\000\000\000\000\000\000\000\000\000\000\000\000\000\000\000\000\000\000\000\000\000\000\000\000\000\000\000\000\000\000\000\000\000\000\000\000\000\000\000\000\000\000\000\000\000\000\000\000\000\000\000\000\000\000\000\000\000\000\000\000\000\000\000\000\000\000\000\000\000\000\000\000\000\000\000\000\000\000\000\000\000\000\000\000\000HA\037afS\354?\03405\034\205\221\335?\032\017R\206u\335\252?\032[\246\360\3450\220?d$[b\330\315T?;\257\216Q\217l3?G\025\n\313\333`\364>\3035\374a\224\024\320>2\2336ql8\215>\211DM0\272Ud>\"15\377q\206 >Z (w\360\315\364=\307\n\003\304\235\331\256=\372M\261\3670yr=\000\000\000\000\000\000\000\000\000\000\000\000\000\000\000\000\000\000\000\000\000\000\000\000\000\000\000\000\000\000\000\000\000\000\000\000\000\000\000\000\000\000\000\000\000\000\000\000\000\000\000\000\000\000\000\000\000\000\000\000\000\000\000\000\000\000\000\000\000\000\000\000\000\000\000\000\000\000\000\000\000\000\000\000\000\000\000\0003@*\266\224\304\357?\000\000\000\000\000\000\000\000\000\000\000\000\000\000\000\000\253\224\016\333*\304\276?\000\000\000\000\000\000\000\000\000\000\000\000\000\000\000\000\3728\007\314\213\246j?\000\000\000\000\000\000\000\000\000\000\000\000\000\000\000\000\343\252\251\231q\207\006?\000\000\000\000\000\000\000\000\000\000\000\000\000\000\000\000=\310\023`L\211\227>\000\000\000\000\000\000\000\000\000\000\000\000\000\000\000\000i\335hS\007\031!>\000\000\000\000\000\000\000\000\000\000\000\000\000\000\000\000\376)aF\250\214\242=\000\000\000\000\000\000\000\000\000\000\000\000\000\000\000\000\000\000\000\000\000\000\000\000\000\000\000\000\000\000\000\000\000\000\000\000\000\000\000\000\000\000\000\000\000\000\000\000\263\t\272\277D#\357?\000\000\000\000\000\000\000\000\211\316\330\016\177B\315?\000\000\000\000\000\000\000\000\236s\371\261\340\266\236?\000\000\000\000\000\000\000\000\372<\004\210gKi?\000\000\000\000\000\000\000\000\317`\000\230w\0062?\000\000\000\000\000\000\000\000\222\021\216C\304B\367>\000\000\000\000\000\000\000\000k\027r\334\245\341\273>\000\000\000\000\000\000\000\000\014\277\337\261\324\213\177>\000\000\000\000\000\000\000\000\027\325N\210\370\007A>\000\000\000\000\000\000\000\000\206\010\3057:\260\001>\000\000\000\000\000\000\000\000\202)\230\300\301\303\301=\000\000\000\000\000\000\000\000P\\w\330\223\251\200=\000\000\000\000\000\000\000\000\000\000\000\000\000\000\000\000&M\321\235\314\344\356?\214\3708\216\277\036\303?\357\236\367jpw\311?>P]a\251\201\231?\206\2565\333\203\362F?Im\310~\257D\255?q]\354\305y\034\234?P\357\2461\"\246\240?\355=\334eI\273\203?\005\300\253\352\374\256x?\332\273^/r\253u?O\272c\207\005\002x?>\314\357\335U|\201?\300\272\306\2770*y?\335c\206\020]\207t?\tdV\257\341\343a?\247c\255\003\224\037E?0+wX\347ZQ?\014\372\336\004\304u[?\217\031I\340\230\000a?:\316\347\010\265\323]?-\027{S]\365W?\002\353I\227\367\236L?\204\251\'\240\006<8?\343\314\235\330q\342\032?\000\000\000\000\000\000\000\000\000\000\000\000\000\000\000\000\000\000\000\000\000\000\000\000\000\000\000\000\000\000\000\000\000\000\000\000\000\000\360?\000\000\000\000\000\000\000\000\000\000\000\000\000\000\000\000\000\000\000\000\000\000\000\000\000\000\000\000\000\000\000\000\000\000\000\000\000\000\000\000\000\000\000\000\000\000\000\000\000\000\000\000\000\000\000\000\000\000\000\000\000\000\000\000\000\000\000\000\000\000\000\000\000\000\000\000\000\000\000\000\000\000\000\000\000\000\000\000\000\000\000\000\000\000\000\000\000\000\000\000\000\000\000\000\000\000\000\000\000\000\000\000\000\000\000\000\000\000\000\000\000\000\000\000\000\000\000\000\000\000\000\000\000\000\000\000\000\000\000\000\000\000\000\000\000\000\000\000\000\000\000\000\000\000\000\000\000\000\000\000\227\275\327\332&G\347?\257\001\360\307\326\t\343?\031\345\0239\253\204\323?\265\3264\371\332n\302?j\312\0245\247\271\252?\207^\205\246\336\214\223?\326\334\035B\305$w?\026\227N\010\n\236\\?\237\020\026H\253V=?\253wK|a\376\037?\002z`\023RV\375>\243 ^l\"\360\334>&\001\276\311\'9\270>\247\352\235\371\236\372\225>\027\315\252v\204\010q>G.\376f\242\306L>\227\214\004\nF\334$>\304\316s2D\215\000>\035J\211<\022\240\326=4\345QS$\373\260=\273\300vO\333#\205=\000\000\000\000\000\000\000\000\000\000\000\000\000\000\000\000\000\000\000\000\000\000\000\000\000\000\000\000\000\000\000\000\016\257\352\377\377\377\357?\000\000\000\000\000\000\000\000\000\000\000\000\000\000\000\000\371P\337U\300w\362>\000\000\000\000\000\000\000\000\000\000\000\000\000\000\000\000v\335M=\326\020\323=\000\000\000\000\000\000\000\000\000\000\000\000\000\000\000\000\000\000\000\000\000\000\000\000\000\000\000\000\000\000\000\000\000\000\000\000\000\000\000\000\000\000\000\000\000\000\000\000\000\000\000\000\000\000\000\000\000\000\000\000\000\000\000\000\000\000\000\000\000\000\000\000\000\000\000\000\000\000\000\000\000\000\000\000\000\000\000\000\000\000\000\000\000\000\000\000\000\000\000\000\000\000\000\000\000\000\000\000\000\000\000\000\000\000\000\000\000\000\000\000\000\000\000\000\000\000\000\000\000\000\000\000\000\000\000\000\000\000\000\000\000\000\000\000\246\313)\006X\023\347?\000\000\000\000\000\000\000\000\311\313L\215\240<\334?\000\000\000\000\000\000\000\000w\252%\216@\373\324?\000\000\000\000\000\000\000\000\316\n\366d2O\320?\000\000\000\000\000\000\000\000\004jJPl\316\311?\000\000\000\000\000\000\000\000\024[\013\321\031\225\304?\000\000\000\000\000\000\000\000\370\307a+\255z\300?\000\000\000\000\000\000\000\000\362BFd\331n\272?\000\000\000\000\000\000\000\000\342/Q\375\0076\265?\000\000\000\000\000\000\000\000\253\350\001V\313\004\261?\000\000\000\000\000\000\000\000\262\213\264\035\336K\253?\000\000\000\000\000\000\000\000In\365\322\342\337\245?\000\000\000\000\000\000\000\000O\207R\007\316\203\241?\305\241\021|\204\216\356?\272_m\025\302\220\265?a\371j\226\020\\\321?\261\241\304\037vYc?\251\023u\364\035\026\264?rz\214\272g\344\225?J\244u\242\333$\223?5!\240\251\037\213\223?Y\035\332\222\252\037m?\006\363\017\242\201\255\206?m\017dx\t\366U?\364\256\217\367\024\340s?\203,Z\301e\217X? 4<8e\337Y?\035\247e\207^^W?\377|\025_\330$6?_\273\022X\304UP?8Q\352J>%\020?\245[\223\341@9A?-\220T\017\016C\026?\002NZ\342\255\013*?k\377r\203\250O ?}\302\375\240\374J\004?9\322QZvB\036?iZ\255\016y!\343>\000\000\000\000\000\000\000\000\000\000\000\000\000\000\000\000\000\000\000\000\000\000\000\000\000\000\000\000\000\000\000\000\000\000\000\000\000\000\000\000\000\000\000\000\000\000\000\000\000\000\000\000\000\000\000\000\000\000\000\000\000\000\000\000\000\000\000\000\000\000\000\000\000\000\000\000\000\000\000\000\000\000\000\000\000\000\000\000\000\000\000\000\000\000\000\000\000\000\000\000\000\000\000\000\000\000\000\000\000\000\000\000\000\000\000\000\000\000\360?\000\000\000\000\000\000\000\000\000\000\000\000\000\000\000\000\000\000\000\000\000\000\000\000\000\000\000\000\000\000\000\000\000\000\000\000\000\000\000\000\000\000\000\000\000\000\000\000\000\000\000\000\000\000\000\000\000\000\000\000\000\000\000\000\000\000\000\000\000\000\000\000\000\000\000\000\000\000\000\000\243o\025\257Qq\357?\216\002\320c*\252\306?\217\020<]\027\263\254?\371\267\234\241E\343w?\262Glw\207cU?7\307\244\335q\224\033?A%FW\277)\364>na\237\2355\371\265>[\3406|\004\323\213>y\317\0005\363\275J>\333\370U\210\234I\036>\014i\237\001\232T\332=H\3142_ 9\253=\000\000\000\000\000\000\000\000\000\000\000\000\000\000\000\000\000\000\000\000\000\000\000\000\000\000\000\000\000\000\000\000\000\000\000\000\000\000\000\000\000\000\000\000\000\000\000\000\000\000\000\000\000\000\000\000\000\000\000\000\000\000\000\000\000\000\000\000\000\000\000\000\000\000\000\000\000\000\000\000\000\000\000\000\000\000\000\000\000\000\000\000\000\000\000\000\260M \001\321\377\357?\000\000\000\000\000\000\000\000\000\000\000\000\000\000\000\000bh\204\207\320k{?\000\000\000\000\000\000\000\000\000\000\000\000\000\000\000\000\324m\013\'k\004\345>\000\000\000\000\000\000\000\000\000\000\000\000\000\000\000\000\263\250\345\212\377p?>\000\000\000\000\000\000\000\000\000\000\000\000\000\000\000\000\370\313\004\324i\317\213=\000\000\000\000\000\000\000\000\000\000\000\000\000\000\000\000\000\000\000\000\000\000\000\000\000\000\000\000\000\000\000\000\000\000\000\000\000\000\000\000\000\000\000\000\000\000\000\000\000\000\000\000\000\000\000\000\000\000\000\000\000\000\000\000\000\000\000\000\000\000\000\000\000\000\000\000\000\000\000\000\000\000\000\000\000\000\000\000\000\000\000\000\000\000\000\000\316\344\257\225\377\013\351?\000\000\000\000\000\000\000\0008\267-\222a\366\333?\000\000\000\000\000\000\000\000V\023&\003\370>\323?\000\000\000\000\000\000\000\000A\332\260\332\206\346\313?\000\000\000\000\000\000\000\000\033\344\355\232@\240\304?\000\000\000\000\000\000\000\000\361!!T\003\275\276?\000\000\000\000\000\000\000\000\n\300\225\t\027\367\266?\000\000\000\000\000\000\000\000\t\203cR\006)\261?\000\000\000\000\000\000\000\000\'}\263\014\033\236\251?\000\000\000\000\000\000\000\000j\2261r\376\026\243?\000\000\000\000\000\000\000\000\032r\330{\211e\234?\000\000\000\000\000\000\000\000\021\245\305\323#\024\225?\000\000\000\000\000\000\000\000R\2245-m;\217?\3354\037\037\266U\356?\336}]0\"i\263?\337\341\013\024\302\232\322?d\014X\254\364\315{?d\305q!\r\302\270?o\305\237a\030\336\220?\000\247;E\230r\236?e[}C\314\226\221?$e\027h\nn\201?b}\032\251\200z\207?\232\236\"dM\225g?c\311\320`1\353x?\374\320\214\223\366\216[?S8\327\027\272\"f?\013\313\362\350\244\307U?\246\340Io8\335P?\200\371g\245R+P?l\370p\300\024\3767?\343\022\277\342\215{D?\227\364R\002rq%?\325\327\312\322a\3215?Q\372\353\372\217\226\036?\333\000.\245hO#?\304\320\206<\246\307\031?\032x\367\267R\376\013?\000\000\000\000\000\000\000\000\000\000\000\000\000\000\000\000\000\000\000\000\000\000\000\000\000\000\000\000\000\000\000\000\000\000\000\000\000\000\000\000\000\000\000\000\000\000\000\000\000\000\000\000\000\000\000\000\000\000\000\000\000\000\000\000\000\000\000\000\000\000\000\000\000\000\000\000\000\000\000\000\000\000\000\000\000\000\000\000\000\000\000\000\000\000\000\000\000\000\000\000\000\000\000\000\000\000\000\000\000\000\000\000\000\000\000\000\000\000\000\000\000\000\000\000\000\000\000\000\000\000\000\000\000\000\000\000\000\000\000\000\000\000\360?\000\000\000\000\000\000\000\000\000\000\000\000\000\000\000\000\000\000\000\000\000\000\000\000\000\000\000\000\000\000\000\000\000\000\000\000\000\000\000\000\000\000\000\000\000\000\000\000\000\000\000\000\000\000\000\000X8s\301_V\356?\010\240:\\\214\356\310?\306\363h4\316\312\317?z\206]-Z+\236?\360\267\"n\3723\233?k\270\304\032\353\376c?V\356\211cEq]?\334\301\240\010mJ\"?\312Y\2059\336R\027?\250(l\364\237\216\331>\323\246\273\237$&\315>F\302}\261\032\344\214>\245h\024\326\226\024~>\341\253\306\347\322l;>\221\371\203P\235o*>7\3757m&p\346=j\030,\026O4\324=h\243\237\231j!\220=\000\000\000\000\000\000\000\000\000\000\000\000\000\000\000\000\000\000\000\000\000\000\000\000\000\000\000\000\000\000\000\000\000\000\000\000\000\000\000\000\000\000\000\000\000\000\000\000\000\000\000\000\000\000\000\000\212\036\n\010VR\357?\000\000\000\000\000\000\000\000\000\000\000\000\000\000\000\000\255\3342\311\n0\312?\000\000\000\000\000\000\000\000\000\000\000\000\000\000\000\000N\376\372\337k\225\203?\000\000\000\000\000\000\000\000\000\000\000\000\000\000\000\000\377\357\264\212\222\225,?\000\000\000\000\000\000\000\000\000\000\000\000\000\000\000\000\213\215e\231\302\307\311>\000\000\000\000\000\000\000\000\000\000\000\000\000\000\000\000\253\177l\302\376*`>\000\000\000\000\000\000\000\000\000\000\000\000\000\000\000\000bl\200+9I\356=\000\000\000\000\000\000\000\000\000\000\000\000\000\000\000\000\000\000\000\000\000\000\000\000\000\000\000\000\000\000\000\000\000\000\000\000\000\000\000\000\000\000\000\000\000\000\000\000J\353\374\2648\302\354?\000\000\000\000\000\000\000\000\201|\344N6\371\327?\000\000\000\000\000\000\000\000~eE\261\200~\310?\000\000\000\000\000\000\000\000:\037\314\2530f\272?\000\000\000\000\000\000\000\000\356\223:\222\t-\255?\000\000\000\000\000\000\000\000\000]\227w\315\\\240?\000\000\000\000\000\000\000\000\022\332_\204\337\210\222?\000\000\000\000\000\000\000\000\312xl\343\032%\205?\000\000\000\000\000\000\000\000\230&\235\026\375@x?\000\000\000\000\000\000\000\000\232\250\216\222\215\360k?\000\000\000\000\000\000\000\000\247\253\221\301>&`?\000\000\000\000\000\000\000\000\370\242\030\000S\271R?\000\000\000\000\000\000\000\000[1i\003d\303E?\375\267\254 \204v\357?\215\2721c\320\372\300?\257O$Z\243 \264?\227:\215B\017+\262?\330^\317\301\024~\247?\221A_*\036}\246?\270\0306\374\205l\207?\005Fp\374\206\0372?\343\274\360Aa\001\206?)\312\363\003\365M\204?\206-w\354\360t\177?\246\377Ljt\255h?\361\177\004t,\302\034?(\t1\307>jb?\357w\2140\247\335e?\354\177\0233\262\200b?Z\'\033W\007\354T?6R\010d\360\0006?\240h\340\350.\2509?\366\362\266e5SH?\274n~\216O\301I?\rA\006F\345\266C?\366\273\022\350Q]5?/\207\235,\023\262\013?\273\313\353C\306&#?\000\000\000\000\000\000\000\000\000\000\000\000\000\000\000\000\000\000\000\000\000\000\360?\000\000\000\000\000\000\000\000\000\000\000\000\000\000\000\000\000\000\000\000\000\000\000\000\000\000\000\000\000\000\000\000\000\000\000\000\000\000\000\000\000\000\000\000\000\000\000\000\000\000\000\000\000\000\000\000\000\000\000\000\000\000\000\000\000\000\000\000\000\000\000\000\000\000\000\000\000\000\000\000\000\000\000\000\000\000\000\000\000\000\000\000\000\000\000\000\000\000\000\000\000\000\000\000\000\000\000\000\000\000\000\000\000\000\000\000\000\000\000\000\000\000\000\000\000\000\000\000\000\000\000\000\000\000\000\000\000\000\000\000\000\000\000\000\000\000\000\000\000\000\000\000\000\000\000\000\000\000\000\000\000\000\000\000\000\000\000\000\000\000\000\000\000\000\000\000\203\363\035!\025\316\357?)\277\n\352\225\356\247?E\330\360\3264\206\271?\335\332\230\033X-f?\250\262\020\301\225\271p?)\315\262]/\203\026?\364\270\253\246\203\271\033?0Ni\3026\212\277>\2527\036O\265\321\300>31\321\254\323\337`>\334\322\013\333\326\030`>K<v\332R7\375=\333\374\345\331[q\371=\006|\000\264\t=\225=\353\0033dw\037\221=\000\000\000\000\000\000\000\000\000\000\000\000\000\000\000\000\000\000\000\000\000\000\000\000\000\000\000\000\000\000\000\000\000\000\000\000\000\000\000\000\000\000\000\000\000\000\000\000\000\000\000\000\000\000\000\000\000\000\000\000\000\000\000\000\000\000\000\000\000\000\000\000\000\000\000\000\000\000\000\000x\271Yfu\362\357?\000\000\000\000\000\000\000\000\000\000\000\000\000\000\000\000/O\303\346\237l\255?\000\000\000\000\000\000\000\000\000\000\000\000\000\000\000\000ASB>Y=H?\000\000\000\000\000\000\000\000\000\000\000\000\000\000\000\000\000\')\373\276|\323>\000\000\000\000\000\000\000\000\000\000\000\000\000\000\000\000T\330\\d\177\\S>\000\000\000\000\000\000\000\000\000\000\000\000\000\000\000\000\034\344\370Lz\300\312=\000\000\000\000\000\000\000\000\000\000\000\000\000\000\000\000\000\000\000\000\000\000\000\000\000\000\000\000\000\000\000\000\000\000\000\000\000\000\000\000\000\000\000\000\000\000\000\000\000\000\000\000\000\000\000\000\000\000\000\000\000\000\000\000\000\000\000\000\000\000\000\000\013\3335J\0270\352?\000\000\000\000\000\000\000\000\223.[\316\021h\333?\000\000\000\000\000\000\000\000V\242p\"\251\240\321?\000\000\000\000\000\000\000\000\3137h>&\376\307?\000\000\000\000\000\000\000\000P\341\257\021\317\313\300?\000\000\000\000\000\000\000\000\300\274q\035\'\361\267?\000\000\000\000\000\000\000\000\332\265\211\305MI\261?\000\000\000\000\000\000\000\000\313@\243\207\3106\251?\000\000\000\000\000\000\000\000\304\027\310\205\006\212\242?\000\000\000\000\000\000\000\000~@o\261\245r\233?\000\000\000\000\000\000\000\000\220cx/Eo\224?\000\000\000\000\000\000\000\000\324\207\215\177\304\222\216?\000\000\000\000\000\000\000\000=\271\334\024\315\366\206?\326\327o\372\035\260\345?I\2517\363\210rO?\r\344\351.\206>\333?\261C\361\230\266WO?\302\201Co1\365\324?<\357\272\245\nGL?i\345\014\rs\376\320?\341\373\232\300)eH?\031sc\010y=\314?{e/\3650lD?\327\336r0\025\314\307?\326\200j\']\213@?\215e\303\276\005=\304?2\017[\365\317\271:?\242a[<\033R\301?n\017\205rAs3?3?\372\304\037\317\275?\307\245\032TZ\303+?]\327%\212,\262\271?\300\312\036\353p\005/?\t\270-\235gK\266?l\rs\227ry\023?9D\266Z\316Q\263?\246\2347\267\235\274%?\304\305\3406:\313\260?\000\000\000\000\000\000\000\000\000\000\000\000\000\000\000\000\000\000\000\000\000\000\000\000\000\000\000\000\000\000\000\000\000\000\000\000\000\000\000\000\000\000\000\000\000\000\000\000\000\000\000\000\000\000\000\000\000\000\000\000\000\000\360?\000\000\000\000\000\000\000\000\000\000\000\000\000\000\000\000\000\000\000\000\000\000\000\000\000\000\000\000\000\000\000\000\000\000\000\000\000\000\000\000\000\000\000\000\000\000\000\000\000\000\000\000\000\000\000\000\000\000\000\000\000\000\000\000\000\000\000\000\000\000\000\000\000\000\000\000\000\000\000\000\000\000\000\000\000\000\000\000\000\000\000\000\000\000\000\000\000\000\000\000\000\000\000\000\000\000\000\000\000\000\000\000\000\000\000\000\000\000\000\000\000\000\000\000\000\000\000\000\000\000\000\000\000\000\000\000j>\206\362\311\345\232?\374b\247m3q\356?OxR\002y\227\215?\2403\034\276\021V\323?SN\251\366\337\224j?\030\220\020\274\212\350\252?xl\025\r\3723>?\264\200t\366\016\327y?\232\354=\326>\036\t?\237\212\342\"\300\363B?\027?~rLz\320>j\014\177\024\343}\006?`\376\r\001\363\331\221>@Vdt\004j\306>a>\312\267YxP>\020\364L\220{@\203>(\244\352\0333w\n>\204\223-\371\026\017=>\207)\005&\326\324\302=\374\254\217\377\342\216\363=h\321f\237]<v=\217\343\242\371\323\301\247=\000\000\000\000\000\000\000\000\000\000\000\000\000\000\000\000\000\000\000\000\000\000\000\000\260\005n\245\376\377\357?\000\000\000\000\000\000\000\000\000\000\000\000\000\000\000\000\356F\352\357\313\235R?\000\000\000\000\000\000\000\000\000\000\000\000\000\000\000\000S*\356\352\265_\223>\000\000\000\000\000\000\000\000\000\000\000\000\000\000\000\000S>Ya\037\255\303=\000\000\000\000\000\000\000\000\000\000\000\000\000\000\000\000\000\000\000\000\000\000\000\000\000\000\000\000\000\000\000\000\000\000\000\000\000\000\000\000\000\000\000\000\000\000\000\000\000\000\000\000\000\000\000\000\000\000\000\000\000\000\000\000\000\000\000\000\000\000\000\000\000\000\000\000\000\000\000\000\000\000\000\000\000\000\000\000\000\000\000\000\000\000\000\000\000\000\000\000\000\000\000\000\000\000\000\000\000\000\000\000\000\000\000\000\000\000\000\000\201\340\3473\252\247\356?\000\000\000\000\000\000\000\000}\360g0K9\321?\000\000\000\000\000\000\000\000\224\240o[\351\261\267?\000\000\000\000\000\000\000\000\314^#:i,\241?\000\000\000\000\000\000\000\000\022\234?V\240\177\211?\000\000\000\000\000\000\000\000\221\023\022h\3310s?\000\000\000\000\000\000\000\000\315A\217\343m$]?\000\000\000\000\000\000\000\000y\257\340\223\036CF?\000\000\000\000\000\000\000\000\"\224\203\330\364\0241?\000\000\000\000\000\000\000\000\357\0258\241>M\032?\000\000\000\000\000\000\000\000\343\336\246\3365M\004?\000\000\000\000\000\000\000\000\276\344@\207\261g\357>\000\000\000\000\000\000\000\000O\346\326m\271T\330>7Q\014\016P\374\347?]n\236\206fgu?95q\2065\020\334?pL\n\025\231\254r?_~\024a\354\032\324?\227\313\236!\207\366l?\023:e\n\024]\316?v\245\036q\222\346d?\362\331\306\020\026~\307?\306[\365\177q\335[?^\373\006\010\017o\302?\344<Ni/\241P?\224\306\342u\3130\275?8\371\313\323\326\373>?\245#\345\304\237C\267?\017\014\256\233\364\033\020?p\222\'\035\320\240\262?Si0e\032\305/?\224\241\223\2335\360\255?\351\306O\020\247\224=?\230z\203\\\032!\250?\n\306\312\252{PC?\316p-s\220~\243? \370F\310\347DF?\r\003\2006?\217\237?\000\000\000\000\000\000\000\000\000\000\000\000\000\000\360?\000\000\000\000\000\000\000\000\000\000\000\000\000\000\000\000\000\000\000\000\000\000\000\000\000\000\000\000\000\000\000\000\000\000\000\000\000\000\000\000\000\000\000\000\000\000\000\000\000\000\000\000\000\000\000\000\000\000\000\000\000\000\000\000\000\000\000\000\000\000\000\000\000\000\000\000\000\000\000\000\000\000\000\000\000\000\000\000\000\000\000\000\000\000\000\000\000\000\000\000\000\000\000\000\000\000\000\000\000\000\000\000\000\000\000\000\000\000\000\000\000\000\000\000\000\000\000\000\000\000\000\000\000\000\000\000\000\000\000\000\000\000\000\000\000\000\000\000\000\000\000\000\000\000\000\000\000\000\000\000\000\000\000\000\000\000\000\000\000\000\000\000\000\000\000\000\000\000\000\000\000\000\000\000k\311\253\316\037^\345?\276\207]\362t\206\343?\345<\027e\021\226\327?D\370\264j\372\342\310?\024\216\201\311\356A\265?\246\025\374\364\266_\241?0Nxa\363;\210?ftA\022^\275p?\036\304\274j\2528T?\031MF\304\021\2438?\325\273\"\245\202\236\032?\323\230d@\363U\375>\217\033\000\2350\357\334>(yf\034\371T\275>\332c\346A\325\310\232>\205nF.\024Gy>wP\030\257o\227U>!\371\240\240\005$3>jD\325\2346\324\016>dE\024\226\350\331\351=n\262\'\035\021\300\303=\246A9\341\202\201\237=\000\000\000\000\000\000\000\000\000\000\000\000\000\000\000\000\000\000\000\000\000\000\000\000\200\217\367\377\377\377\357?\000\000\000\000\000\000\000\000\000\000\000\000\000\000\000\000L\312\035\013\226=\347>\000\000\000\000\000\000\000\000\000\000\000\000\000\000\000\000\037\025\t\227\2401\276=\000\000\000\000\000\000\000\000\000\000\000\000\000\000\000\000\000\000\000\000\000\000\000\000\000\000\000\000\000\000\000\000\000\000\000\000\000\000\000\000\000\000\000\000\000\000\000\000\000\000\000\000\000\000\000\000\000\000\000\000\000\000\000\000\000\000\000\000\000\000\000\000\000\000\000\000\000\000\000\000\000\000\000\000\000\000\000\000\000\000\000\000\000\000\000\000\000\000\000\000\000\000\000\000\000\000\000\000\000\000\000\000\000\000\000\000\000\000\000\000\000\000\000\000\000\000\000\000\000\000\000\000\000\000\000\000\000\000\000\000\000\000\000\000\244 E\305b\316\356?\000\000\000\000\000\000\000\000\r8c\300~i\320?\000\000\000\000\000\000\000\000\366S\351\217\273\347\264?\000\000\000\000\000\000\000\000\257\031\313\251\257@\233?\000\000\000\000\000\000\000\000\245\246\301\257\005\245\201?\000\000\000\000\000\000\000\000\336t\033\007\335\356f?\000\000\000\000\000\000\000\000\345\202\3676YXP?\000\000\000\000\000\000\000\000C\376\205\206\2706=?\000\000\000\000\000\000\000\000\353\265 \027\200\003/?\000\000\000\000\000\000\000\000\025\262\344\2654\000!?\000\000\000\000\000\000\000\000\275\027x\016\204;\022?\000\000\000\000\000\000\000\000{\267\321\276\351\375\002?\000\000\000\000\000\000\000\000\364\313\010Q\014J\363>(u\277\344\3603\306?s\216\337\254!N\261?\345~\352\035\3654\275?9?\240\0026\026\265?\230\213\303+\002\224\312?\272\010}\030\203h\264?\217\322\354\220v\336\274?g\324\300\027t\032\256?\305\002\301\206\274H\220?\'\337p\352W\017\275?\216\217\013D\2132\205?\2424\253\311\177V\251?\244\363\032/$\204\274?\027\334\275\376\327\030\271?\351\267n#E\346\307?8\353N\241\265W\274?d&\226\275\331\341\306?\226\214\202\357\021\324\203?\322\014\002/\013\334\241?\344\017e(\371\207\206?\3721\251V y\224?Q\321:+\177\316\314?\034\204\250\300Ws\242?\353A\355f|\t\275?v\242c&\273\034\246?\000\000\000\000\000\000\000\000\000\000\000\000\000\000\000\000\000\000\000\000\000\000\000\000\000\000\000\000\000\000\000\000\000\000\000\000\000\000\000\000\000\000\000\000\000\000\000\000\000\000\000\000\000\000\360?\000\000\000\000\000\000\000\000\000\000\000\000\000\000\000\000\000\000\000\000\000\000\000\000\000\000\000\000\000\000\000\000\000\000\000\000\000\000\000\000\000\000\000\000\000\000\000\000\000\000\000\000\000\000\000\000\000\000\000\000\000\000\000\000\000\000\000\000\000\000\000\000\000\000\000\000\000\000\000\000\000\000\000\000\000\000\000\000\000\000\000\000\000\000\000\000\000\000\000\000\000\000\000\000\000\000\000\000\000\000\000\000\000\000\000\000\000\000\000\000\000\000\000\000\000\000\000\000\000\000\000\000\000\000\000\000\000\000\000\000\000\000\000\000 \302\373\027\204\314\357?\274\227\022\326\260\246\274?5\035\024\007\232\210`?\211oCn\2263!?U\275\356R}\023\274>\321~#`P\240v>P\260\210\326H\'\016>b\3328\265\232\211\304=\000\000\000\000\000\000\000\000\000\000\000\000\000\000\000\000\000\000\000\000\000\000\000\000\000\000\000\000\000\000\000\000\000\000\000\000\000\000\000\000\000\000\000\000\000\000\000\000\000\000\000\000\000\000\000\000\000\000\000\000\000\000\000\000\000\000\000\000\000\000\000\000\000\000\000\000\000\000\000\000\000\000\000\000\000\000\000\000\000\000\000\000\000\000\000\000\000\000\000\000\000\000\000\000\000\000\000\000\000\000\000\000\000\000\000\000\000\000\000\000\000\000\000\000\000\000\000\000\000\000\000\000\000\000\000\000\206\024\367q\340k\357?\000\000\000\000\000\000\000\000\000\000\000\000\000\000\000\0000\260C\307\\5\310?\000\000\000\000\000\000\000\000\000\000\000\000\000\000\000\000\270f\350\337\244\256\200?\000\000\000\000\000\000\000\000\000\000\000\000\000\000\000\000\032\205E\233\002p&?\000\000\000\000\000\000\000\000\000\000\000\000\000\000\000\000\001C\205\354\317\245\302>\000\000\000\000\000\000\000\000\000\000\000\000\000\000\000\000\321\031\331y\234\215U>\000\000\000\000\000\000\000\000\000\000\000\000\000\000\000\0005\205\376\266\026\232\342=\000\000\000\000\000\000\000\000\000\000\000\000\000\000\000\000\000\000\000\000\000\000\000\000\000\000\000\000\000\000\000\000\000\000\000\000\000\000\000\000\000\000\000\000\000\000\000\000\215P# \201\251\354?\000\000\000\000\000\000\000\000C6\"\263\035\311\333?\000\000\000\000\000\000\000\000\002\260;\014iV\270?\000\000\000\000\000\000\000\000\306\222\367\303r\241\215?\000\000\000\000\000\000\000\000d\301\267\317|\307\\?\000\000\000\000\000\000\000\000\370\240\364\r\r\332\'?\000\000\000\000\000\000\000\000q;\032\222\231\212\361>\000\000\000\000\000\000\000\000\220Y\214h\324z\267>\000\000\000\000\000\000\000\000BYre]\032}>\000\000\000\000\000\000\000\000\017P#\207\007\352@>\000\000\000\000\000\000\000\000`\270\002\245\367\233\002>\000\000\000\000\000\000\000\000\305\223\362~\022\257\303=\000\000\000\000\000\000\000\000z6}\270\"\346\203=F\206em\033\304\345?\365\250Y\341*\016]?\354[~W J\333?\222\323\214.p\332\\?\361%\250\014\266\363\324?\023\222w0\273\372Y?0\346\317\304\326\364\320?,{\031\346S\010V?f\nd\222\250\037\314?\030G%\333\270YS?\006\305\367\247m\245\307?\014N\316\237\306/K?e\344\345\275\232\027\304?\231\373\333,\270\261I?\300\312\304\232#!\301?\376\024q\355\225TB?\206o]<\246r\275?\312HnP\230\2619?\nD\277\204\035e\271?!\372\013~j\204&?\270\277NY\241\350\265?\352k\203u\216\365\"?\247)c\304\023\370\262?i\347\246\032@\240\'?\345\343?\317Gw\260?\000\000\000\000\000\000\000\000\000\000\000\000\000\000\000\000\000\000\000\000\000\000\000\000\000\000\000\000\000\000\000\000\000\000\000\000\000\000\000\000\000\000\000\000\000\000\000\000\000\000\000\000\000\000\000\000\000\000\000\000\000\000\000\000\000\000\000\000\000\000\000\000\000\000\000\000\000\000\000\000\000\000\000\000\000\000\000\000\000\000\000\000\000\000\000\000\000\000\000\000\000\000\000\000\000\000\000\000\000\000\000\000\000\000\000\000\000\000\000\000\000\000\000\000\000\000\000\000\000\000\000\000\000\000\000\000\000\000\000\000\000\000\000\000\000\000\000\000\000\000\000\000\000\000\000\000\000\000\360?\000\000\000\000\000\000\000\000\000\000\000\000\000\000\000\000\000\000\000\000\000\000\000\000\000\000\000\000\000\000\000\000\000\000\000\000\000\000\000\000\3659B\357\256\025\357?\"\262\340\"kj\306?j8\020kN_\304?\365\366C6\246\366\220?\036\032\252%\225\315\205?\r%w\372\026 L?\331\244\273\020\r\204=?\311o,\323\346\026\000?\267\353\354\035\331>\355>o\351\200\224\205\036\254>_\024\307\014\236\333\226>\023\365\274\014&\341S>a\177\207g\365\200=>\201*\035\312k\232\367=\313\344E\247A7\340=\0030\3307n\'\230=\223\032\272\242B\033x=\000\000\000\000\000\000\000\000\000\000\000\000\000\000\000\000\000\000\000\000\000\000\000\000\000\000\000\000\000\000\000\000\000\000\000\000\000\000\000\000\000\000\000\000\000\000\000\000\000\000\000\000\000\000\000\000\000\000\000\000\000\000\000\000j\317\322\026\247\353\357?\000\000\000\000\000\000\000\000\000\000\000\000\000\000\000\000\230\335\')\235\007\262?\000\000\000\000\000\000\000\000\000\000\000\000\000\000\000\0005!t#\2417R?\000\000\000\000\000\000\000\000\000\000\000\000\000\000\000\000\203\023z\007\225\366\341>\000\000\000\000\000\000\000\000\000\000\000\000\000\000\000\000\216q\363A\313\343e>\000\000\000\000\000\000\000\000\000\000\000\000\000\000\000\000\302y\003\317b\214\342=\000\000\000\000\000\000\000\000\000\000\000\000\000\000\000\000\000\000\000\000\000\000\000\000\000\000\000\000\000\000\000\000\000\000\000\000\000\000\000\000\000\000\000\000\000\000\000\000\000\000\000\000\000\000\000\000\000\000\000\000\000\000\000\000\000\000\000\000\000\000\000\000\302\177(\330\301\210\355?\000\000\000\000\000\000\000\000\t\022B\212\257\203\325?\000\000\000\000\000\000\000\000T\271}Q\302\205\304?\000\000\000\000\000\000\000\000\024\334({\326$\265?\000\000\000\000\000\000\000\000\241\235$^\341Q\246?\000\000\000\000\000\000\000\000\3720\234\033\210\253\227?\000\000\000\000\000\000\000\000\232\n\366\227\352\t\211?\000\000\000\000\000\000\000\0000\252pdG\\z?\000\000\000\000\000\000\000\0006\246\n\303\363\233k?\000\000\000\000\000\000\000\000w\307\302\212\333\306\\?\000\000\000\000\000\000\000\000\245\303x\235\005\335M?\000\000\000\000\000\000\000\000\027.ucg\337>?\000\000\000\000\000\000\000\000~\220\344\224R\317/?r\214\226u\334#\325?\244\010\357F\323\327\021??\256{\003\350\263\315?\212\256\177\341\332\270=?\337)HR\272\262\311?\0334H\333\371\322Q?\322\206fu\035\310\306?\224\250\355G\204\023\001?\333\032]]\177k\306?\270\271\261\374\037\033x?\003\204\014\324\337\317\303?a\255e\017\337\036\212?\225R@\241[Y\302?\220m\243V\361w\177?>\3051\200\006\365\304?\014B\336\371!\215\211?\177\352\310\345[\347\300?i\3130H=\372\227?\320\327\353,\251h\275?\030G\320\207l\214]?\025vf\312/\321\303? \014\354\370o\361\234?\006O8\341\021o\301?\375v\377\212\"\264\222?\355\302\001EM\020\267?\000\000\000\000\000\000\000\000\000\000\000\000\000\000\000\000\000\000\000\000\000\000\000\000\000\000\000\000\000\000\000\000\000\000\000\000\000\000\000\000\000\000\000\000\000\000\000\000\000\000\000\000\000\000\000\000\000\000\000\000\000\000\360?\000\000\000\000\000\000\000\000\000\000\000\000\000\000\000\000\000\000\000\000\000\000\000\000\000\000\000\000\000\000\000\000\000\000\000\000\000\000\000\000\000\000\000\000\000\000\000\000\000\000\000\000\000\000\000\000\000\000\000\000\000\000\000\000\000\000\000\000\000\000\000\000\000\000\000\000\000\000\000\000\000\000\000\000\000\000\000\000\000\000\000\000\000\000\000\000\000\000\000\000\000\000\000\000\000\000\000\000\000\000\000\000\000\000\000\000\000\000\000\000\000\000\000\000\000\000\000\000\000\000\000\000\000\000\000\000\311\225\037\311\036\361\347?\017\255\346j\207\207\333?\010\231\334L\203\301\335?\267B\244\020\373\300\303?\021\240\327B\0162\276?Kv\236S\374\r\237?\331\215*|%a\223?\266\007\332s:\330p?\034\330\337-\3754b?\366wD\207\340\351;?\3019\210\346c\374*?\021\311\277\303&\266\002?\314\234.\327v\203\360>\331\3243\177\265\020\305>%\345\332h36\261>&p\276\032\231p\204>\225\301M\270\200>o>t\243\300\2126mA>W\306O=]\035)>\372\357nm\020\200\372=o\rf\301\241\035\342=\242\020\245\304\241.\262=\314#\270,s\230\227=\000\000\000\000\000\000\000\000\000\000\000\000\000\000\000\000\346\210\241\363\020\375\357?\000\000\000\000\000\000\000\000\000\000\000\000\000\000\000\000,\036\207/\376f\233?\000\000\000\000\000\000\000\000\000\000\000\000\000\000\000\000\376\000\311\227\325\376$?\000\000\000\000\000\000\000\000\000\000\000\000\000\000\000\000B\213\213\354\321e\237>\000\000\000\000\000\000\000\000\000\000\000\000\000\000\000\000}b\314[s\003\r>\000\000\000\000\000\000\000\000\000\000\000\000\000\000\000\000\000\000\000\000\000\000\000\000\000\000\000\000\000\000\000\000\000\000\000\000\000\000\000\000\000\000\000\000\000\000\000\000\000\000\000\000\000\000\000\000\000\000\000\000\000\000\000\000\000\000\000\000\000\000\000\000\000\000\000\000\000\000\000\000\000\000\000\000\000\000\000\000\000\000\000\000\000\000\000\000\016\313\200G\310\241\357?\000\000\000\000\000\000\000\000\026l!\221i\363\302?\000\000\000\000\000\000\000\000Y14\330\201\374\236?\000\000\000\000\000\000\000\000F\035\342\010\222\261w?\000\000\000\000\000\000\000\0002\316\227}`HQ?\000\000\000\000\000\000\000\000\375@\233H\271\221(?\000\000\000\000\000\000\000\000|\0048\200\3724\001?\000\000\000\000\000\000\000\000\244\364\343h\326\337\327>\000\000\000\000\000\000\000\000u\t\270\003\304r\260>\000\000\000\000\000\000\000\000BOs\213\032\211\206>\000\000\000\000\000\000\000\000\013_\255\323\203\270^>\000\000\000\000\000\000\000\000\227EV\214\363\3274>\000\000\000\000\000\000\000\000\344\266\351\311+*\014>\364rd~v\"\340?73\354\244\351\323\035?ff$\202\216\021\326?y\n\240\300\'\223 ?B\"\206\026\231z\322?6_\3455q\3560?\327\313g\332\330W\320?\357\244V\302\350\374H?\317i\364\321\213h\315?\210(\347`s\244n?T\371jG\352#\313?\200\026\257M[\007\200?j)\214\020\027~\311?\240\230Xs\265j\202?|\264\313\014]\226\306?\313\250\230\217\225\264`?\022\242jZ\030\356\305?@\205\374\256z\236g?\036MZNp\235\305?\270\302y&\311\265H?\010\237:\024\310)\303?T\224\220Y\332:5?s\265\025\360\333u\301?\370M\345-n\034u?;\241r\020\254F\301?\000\000\000\000\000\000\000\000\000\000\000\000\000\000\000\000\000\000\000\000\000\000\000\000\000\000\000\000\000\000\000\000\000\000\000\000\000\000\000\000\000\000\000\000\000\000\000\000\000\000\000\000\000\000\000\000\000\000\000\000\000\000\000\000\000\000\000\000\000\000\000\000\000\000\000\000\000\000\000\000\000\000\000\000\000\000\000\000\000\000\000\000\000\000\000\000\000\000\000\000\000\000\000\000\000\000\000\000\000\000\000\000\000\000\000\000\000\000\000\000\000\000\000\000\000\000\000\000\000\000\000\000\000\000\000\000\000\000\000\000\000\000\000\000\000\000\000\000\000\000\000\000\000\000\000\000\000\000\000\000\000\000\000\000\000\000\000\000\000\000\000\000\000\000\000\000\000\000\000\000\000\000\000\000\000\000\000\000\000\000\360?\000\000\000\000\000\000\000\000N^\342D\203\237\352?~9\300\000,\363\331?L\251\002\274\267\373\326?\271\227M\007#\336\271?\244\024D:>3\260?\373\026;\2707?\214?\211F\306\250R\343|?jW\351j\372HU?e\222/\243\013\332B?R\177\353\340\003\200\030?$\324\263/\211h\003?\005\312Mn\301\320\326>DA\355\323\303\177\300>$Od\210[\327\221>\r\352\264\\\311\343w>\334\271\245d\243\014H>\227\0353Qn\037.>\032\365Cm\003|\374=B\006z\262\226\321\340=\310\366>\000W\026\256=&9\360x\316\261\221=\000\000\000\000\000\000\000\000\000\000\000\000\000\000\000\000\000\000\000\000\000\000\000\000\000\000\000\000\000\000\000\000\253F\372\377\377\377\357?\000\000\000\000\000\000\000\000\000\000\000\000\000\000\000\000\251\032\330V\313#\343>\000\000\000\000\000\000\000\000\000\000\000\000\000\000\000\000\261+\321\034\207z\264=\000\000\000\000\000\000\000\000\000\000\000\000\000\000\000\000\000\000\000\000\000\000\000\000\000\000\000\000\000\000\000\000\000\000\000\000\000\000\000\000\000\000\000\000\000\000\000\000\000\000\000\000\000\000\000\000\000\000\000\000\000\000\000\000\000\000\000\000\000\000\000\000\000\000\000\000\000\000\000\000\000\000\000\000\000\000\000\000\000\000\000\000\000\000\000\000\000\000\000\000\000\000\000\000\000\000\000\000\000\000\000\000\000\000\000\000\000\000\000\000\000\000\000\000\000\000\000\000\000\000\000\000\000\000\000\000\000\000\000\000\000\000\000\000UR\357\203\342e\352?\000\000\000\000\000\000\000\000}\210R\264\236\\\333?\000\000\000\000\000\000\000\000\351\353\034\n\333\\\321?\000\000\000\000\000\000\000\000\234\201\312\036O8\307?\000\000\000\000\000\000\000\000\360\010\376\372\377\316\277?\000\000\000\000\000\000\000\000(\323\244\256d\026\266?\000\000\000\000\000\000\000\000N\324\177\275\311\361\256?\000\000\000\000\000\000\000\000\351Ye/\271\316\245?\000\000\000\000\000\000\000\000rZ/\023\342\336\236?\000\000\000\000\000\000\000\000\360\320;\031\317\353\225?\000\000\000\000\000\000\000\000u\344>\201\2445\217?\000\000\000\000\000\000\000\000\035\323\370\356\202B\206?\000\000\000\000\000\000\000\000\270\356P\2456\315\177?\313\315\304R\334\034\347??\327&\201\013Vd?\372\355 \212\372\342\333?\250\'\3659\341\317b?\017Q\276\251\231\232\324?\010R\333\327\260<_?\203\2659\031\334\013\320?\247u\351r\260\177X?\201c\225~J\234\311?\265\267)!]MR?\224\361\270tP\272\304?\312\006\273{\023\244I?L%%\260\342\355\300?\314\020_4\253.A?\306$v\373\271\325\273?} \256\031?\0361?\006\342\260%h\376\266?\314k}]\265# ?\213\373\225\237\247\016\263?\263j|\032\2502\003?\343\224c\214\215\261\257?\352,0\214H\227#?Qu\006@\237m\252?\203\330E\214f\n.?\345\322\346\320\316\017\246?\000\000\000\000\000\000\000\000\000\000\000\000\000\000\000\000\000\000\000\000\000\000\000\000\000\000\000\000\000\000\000\000\000\000\000\000\000\000\000\000\000\000\000\000\000\000\000\000\000\000\000\000\000\000\000\000\000\000\000\000\000\000\000\000\000\000\000\000\000\000\000\000\000\000\000\000\000\000\000\000\000\000\000\000\000\000\000\000\000\000\000\000\000\000\000\000\000\000\000\000\000\000\000\000\000\000\000\000\000\000\000\000\000\000\000\000\000\000\000\000\000\000\000\000\000\000\000\000\000\000\000\000\000\000\000\000\000\000\000\000\000\000\000\000\000\000\000\000\000\000\000\000\000\000\000\000\000\000\000\000\000\000\000\000\000\000\000\000\000\000\000\000\000\000\000\000\000\000\000\000\000\000\000\000\000\000\000\000\000\000\000\000\000\000\000\000\000\000\360?\'\314\370Y\263\323\344?l\352\214\242\317\034\350?\2114\022~Y\274\263?J%WdKb\252?0\342L\331,\212n?\260pVF\362\237_?\351\026\305\256\203\343\035?\302%\307\rw(\n?\201\227\004\303\363h\305>7\014\321\307g\206\260>\224>\350\017\3621h>\316\241\203\rS\344P>\324\020\267\226\315\223\006>\013@\0028\253\377\354=\252\321\235A$\360\241=\000\000\000\000\000\000\000\000\000\000\000\000\000\000\000\000\000\000\000\000\000\000\000\000\000\000\000\000\000\000\000\000\000\000\000\000\000\000\000\000\000\000\000\000\000\000\000\000\000\000\000\000\000\000\000\000\000\000\000\000\000\000\000\000\000\000\000\000\000\000\000\000\000\000\000\000\000\000\000\000\311\331Z\315\225\030\357?\000\000\000\000\000\000\000\000\000\000\000\000\000\000\000\000\362\\\372\335\'*\316?\000\000\000\000\000\000\000\000\000\000\000\000\000\000\000\000KV\303\036\t,\212?\000\000\000\000\000\000\000\000\000\000\000\000\000\000\000\000\314b\343\211\033)6?\000\000\000\000\000\000\000\000\000\000\000\000\000\000\000\000:\320\253\242f0\327>\000\000\000\000\000\000\000\000\000\000\000\000\000\000\000\000\035%\265\336y\337p>\000\000\000\000\000\000\000\000\000\000\000\000\000\000\000\000|o@\200\332U\002>\000\000\000\000\000\000\000\000\000\000\000\000\000\000\000\000\240\355C\302\357\327\216=\000\000\000\000\000\000\000\000\000\000\000\000\000\000\000\000\000\000\000\000\000\000\000\000\234O\271\023@\355\357?\000\000\000\000\000\000\000\000\242fv\344}\211\260?\000\000\000\000\000\000\000\000!\016u\263\\\265\223?\000\000\000\000\000\000\000\000X\367\351]\371yu?\000\000\000\000\000\000\000\000A\010\000\346B\254S?\000\000\000\000\000\000\000\0006\344u\303\\~0?\000\000\000\000\000\000\000\000\177|\246\214\345N\n?\000\000\000\000\000\000\000\000L\226\270\324\370e\344>\000\000\000\000\000\000\000\000\035+T#\305@\277>\000\000\000\000\000\000\000\000;K\366\261\315\376\227>\000\000\000\000\000\000\000\000\365\021\324\345\315\261r>\000\000\000\000\000\000\000\000G\320\320\177!\314M>\000\000\000\000\000\000\000\000cJ\305\206\005S(>\352\025\266\257\265@\355?tx\2779\250V\222?\002\t\r\246\336\271\326?\366\266?\302Zyv?-\031\373\226\261\212\305?\031vi\034\000FG?\374\007\203A\220w\265?\334Y\321\003\343Zg?\232S\267\333\327\343\245?\276\322\260!\355(i?X\033\253\201\262\242\226?6\0061\200\020\026e?\215\"|\341\332\246\207?*\201w\316\261\212_?\374\003\271\242o\360x?\234\362\'\327\\\026V?\007a\373?K\207j?\006z\325ym\241M?\266\330\024Y\ny\\?<\271\033e\246HC?\211\337\377mu\330N?v\335\237\244\367\2148?g\321\\\364\310\336@?\023g1Yg\275.?{%\201\351\013\2432?\000\000\000\000\000\000\000\000\000\000\000\000\000\000\000\000\000\000\000\000\000\000\000\000\000\000\000\000\000\000\000\000\000\000\000\000\000\000\000\000\000\000\000\000\000\000\000\000\000\000\000\000\000\000\000\000\000\000\000\000\000\000\000\000\000\000\000\000\000\000\000\000\000\000\000\000\000\000\000\000\000\000\000\000\000\000\000\000\000\000\000\000\000\000\000\000\000\000\000\000\000\000\000\000\000\000\000\000\000\000\000\000\000\000\000\000\000\000\000\000\000\000\000\000\000\000\360?\000\000\000\000\000\000\000\000\000\000\000\000\000\000\000\000\000\000\000\000\000\000\000\000\000\000\000\000\000\000\000\000\000\000\000\000\000\000\000\000\000\000\000\000\000\000\000\000\000\000\000\000\000\000\000\000\000\000\000\000\000\000\000\000\000\000\000\000\000\000\000\000\303\336\275\2320\377\357?]\200 \215\035\013\204?\200\202R=\321\256\204?\311\275\272t\302\353\r?\265bg:\021\325\005?\320g\275\331\363v\210>\3117\374\263\216&}>*b\210\'\343\225\373=o\020 \254\360|\354=\000\000\000\000\000\000\000\000\000\000\000\000\000\000\000\000\000\000\000\000\000\000\000\000\000\000\000\000\000\000\000\000\000\000\000\000\000\000\000\000\000\000\000\000\000\000\000\000\000\000\000\000\000\000\000\000\000\000\000\000\000\000\000\000\000\000\000\000\000\000\000\000\000\000\000\000\000\000\000\000\000\000\000\000\000\000\000\000\000\000\000\000\000\000\000\000\000\000\000\000\000\000\000\000\000\000\000\000\000\000\000\000\000\000\000\000\000\000\000\000\000\000\000\000\000\000\000\000F\305\013\036\257\377\357?\000\000\000\000\000\000\000\000\000\000\000\000\000\000\000\000\037\023\351h\233\374\201?\000\000\000\000\000\000\000\000\000\000\000\000\000\000\000\000\315\033\267A\020\026\362>\000\000\000\000\000\000\000\000\000\000\000\000\000\000\000\000\254\205\227\247u\277Q>\000\000\000\000\000\000\000\000\000\000\000\000\000\000\000\000\310\257}\217\351\205\245=\000\000\000\000\000\000\000\000\000\000\000\000\000\000\000\000\000\000\000\000\000\000\000\000\000\000\000\000\000\000\000\000\000\000\000\000\000\000\000\000\000\000\000\000\000\000\000\000\000\000\000\000\000\000\000\000\000\000\000\000\000\000\000\000\000\000\000\000\000\000\000\000\000\000\000\000\000\000\000\000\000\000\000\000\000\000\000\000\000\000\000\000\000\000\000\000\310@\235\372\373\361\357?\000\000\000\000\000\000\000\000\371\'K\2609\334\255?\000\000\000\000\000\000\000\000\204\375Y\257Y\035q?\000\000\000\000\000\000\000\000\254\332%\311h\2654?\000\000\000\000\000\000\000\000)\330\256\223\213\266\371>\000\000\000\000\000\000\000\000\207\307Q\354\3026\300>\000\000\000\000\000\000\000\000\324\377\357y\366\252\204>\000\000\000\000\000\000\000\000\"q/\335v\216J>\000\000\000\000\000\000\000\000\030\367\2370w+\021>\000\000\000\000\000\000\000\000\336\036SKrQ\326=\000\000\000\000\000\000\000\000\353\263ygu\352\235=\000\000\000\000\000\000\000\000\000\000\000\000\000\000\000\000\000\000\000\000\000\000\000\000\000\000\000\000\000\000\000\000\033\324/\346\221\206\320?\270k\234\336\326\265D?\200\212\004\244_\275\306?8f\260\311\224\222Z?\324Vl\371\016\373\304?\223\032\326\214\237\327\203?\234v\361<\245\343\302?\364\263\032\267^Xq?>\037\214\0211y\277?\233KZ+P\004\222?\274\217\203L\005\325\273?\340W?\202\263\376\202?\332[\231oyF\302?@i\000M?pH?f\332E\001XV\301?D\013N\214<x\244?y<\277)\222\376\272?9\370\334\241\003\257\222?\313\315jw6\370\270?X\3243 \3004\242?\277\215\365\204\317\274\254?~\350\037\337\305O\220?\333Zp\357R\020\310?\274%\237\270ZXh?|!XJ\204\307\215?\000\000\000\000\000\000\000\000\000\000\000\000\000\000\000\000\000\000\000\000\000\000\360?\000\000\000\000\000\000\000\000\000\000\000\000\000\000\000\000\000\000\000\000\000\000\000\000\000\000\000\000\000\000\000\000\000\000\000\000\000\000\000\000\000\000\000\000\000\000\000\000\000\000\000\000\000\000\000\000\000\000\000\000\000\000\000\000\000\000\000\000\000\000\000\000\000\000\000\000\000\000\000\000\000\000\000\000\000\000\000\000\000\000\000\000\000\000\000\000\000\000\000\000\000\000\000\000\000\000\000\000\000\000\000\000\000\000\000\000\000\000\000\000\000\000\000\000\000\000\000\000\000\000\000\000\000\000\000\000\000\000\000\000\000\000\000\000\000\000\000\000\000\000\000\000\000\000\000\000\000\000\000\000\000\000\000\000\000\000\000\000\000\000\000\000\000\000\000\000N\351\326\316\227\270\357?\221\006\305\224d\307\274?w\353\244L\351\212\261?\336\304\314\246\255`r?>{\025?e\257_?R\005\361\017\"\266\031?8\231\342\242\360\030\002?\306\357\376@\256\322\270>V\205Aj1C\236>?q\376?\300MR>=\302YFu\3653>X\231^\344\255\326\345=P O\203\016\275\305==$z\026\014\032s=\000\000\000\000\000\000\000\000\000\000\000\000\000\000\000\000\000\000\000\000\000\000\000\000\000\000\000\000\000\000\000\000\000\000\000\000\000\000\000\000\000\000\000\000\000\000\000\000\000\000\000\000\000\000\000\000\000\000\000\000\000\000\000\000\000\000\000\000\000\000\000\000\000\000\000\000\000\000\000\000\000\000\000\000\000\000\000\000\225o\375\007\030\316\357?\000\000\000\000\000\000\000\000\000\000\000\000\000\000\000\000\224\035N\240\2724\274?\000\000\000\000\000\000\000\000\000\000\000\000\000\000\000\000\014\030\342\334\223_f?\000\000\000\000\000\000\000\000\000\000\000\000\000\000\000\000\035L\024\032\263Q\001?\000\000\000\000\000\000\000\000\000\000\000\000\000\000\000\000\333b:\362\200\221\220>\000\000\000\000\000\000\000\000\000\000\000\000\000\000\000\000\217\373\037\276\374\n\026>\000\000\000\000\000\000\000\000\000\000\000\000\000\000\000\000\245\303\316>+\247\225=\000\000\000\000\000\000\000\000\000\000\000\000\000\000\000\000\000\000\000\000\000\000\000\000\000\000\000\000\000\000\000\000\000\000\000\000\000\000\000\000\000\000\000\000\000\000\000\000H\035\226\361\0310\357?\000\000\000\000\000\000\000\000_i!\202\013\216\313?\000\000\000\000\000\000\000\000\260\255\033\313|\017\256?\000\000\000\000\000\000\000\000K\306\211\244|\206\221?\000\000\000\000\000\000\000\000_iP\212\257\\u?\000\000\000\000\000\000\000\0004\343\341/-\022[?\000\000\000\000\000\000\000\000>\222\006k(\306A?\000\000\000\000\000\000\000\000Q\333\215\341T\020(?\000\000\000\000\000\000\000\000\320R\334h\025\256\020?\000\000\000\000\000\000\000\0009\357&\365\326\201\367>\000\000\000\000\000\000\000\000\233\300B\275\337\273\340>\000\000\000\000\000\000\000\000\030\253&)v\364\307>\000\000\000\000\000\000\000\000\245\306\263}0/\261>\300l\2313\214\327\355?#\305\352\246\032\272\252?\327H\213\335\204\316\324?%w*\317R\177\205?\214\255\363E\223\013\301?\257\222\325T\361\226|?\177%\303\222\241u\254?\246\252\361\205\026\323\205?\202\2519\306\325\345\227?\267\302\241\t\325q\202?\026Z\336\310|\211\204?\232?\263,\223ly?\265q\316h@\264r?]$\303\352\314No?hN\016t]\255b?\\{\231\324\374\355a?\362|\3475\361\217T?\346E*\350F\235S?<\221\375OH<H?\221\253\340J\315\374D?-\315~\371\341Y=?\263\212\256o\313\2006?\315\243T\226\207\2651?\301\347\347Wt\267(? \277BzC\370$?\000\000\000\000\000\000\000\000\000\000\000\000\000\000\000\000\000\000\000\000\000\000\000\000\000\000\000\000\000\000\000\000\000\000\000\000\000\000\000\000\000\000\000\000\000\000\000\000\000\000\000\000\000\000\000\000\000\000\000\000\000\000\000\000\000\000\000\000\000\000\000\000\000\000\000\000\000\000\000\000\000\000\000\000\000\000\000\000\000\000\000\000\000\000\000\000\000\000\000\000\000\000\000\000\000\000\000\000\000\000\000\000\000\000\000\000\000\000\000\000\000\000\000\000\000\000\000\000\000\000\000\000\000\000\000\000\000\000\000\000\000\000\000\000\000\000\000\000\000\000\000\000\000\000\000\000\000\000\000\000\000\000\000\000\000\000\360?\000\000\000\000\000\000\000\000\000\000\000\000\000\000\000\000\000\000\000\000\000\000\000\000\000\000\000\000\000\000\000\000\257\3144\030G\010\354?\024\007Y\350\205\217\336?\260Z\235\336[\211\260?\363\207\023E%\321\224?%\245#\327&\334_?:\r\270m\013\021??\2317\232[0i\003?\257\247\025\324K\376\337>p&\001z\322O\241>\017WF0\r*y>\033\310\r\006\247[8>\316w\366\200b\003\020>\325\027\371_\237L\314=\201\373\372/\247\033\241=\000\000\000\000\000\000\000\000\000\000\000\000\000\000\000\000\000\000\000\000\000\000\000\000\000\000\000\000\000\000\000\000\000\000\000\000\000\000\000\000\000\000\000\000\000\000\000\000\000\000\000\000\000\000\000\000\000\000\000\000\000\000\000\000\000\000\000\000\000\000\000\000\000\000\000\000\000\000\000\000\000\000\000\000\000\000\000\000\302\027\022\317`\371\357?\000\000\000\000\000\000\000\000\000\000\000\000\000\000\000\000\016\203\274\300\323\224\244?\000\000\000\000\000\000\000\000\000\000\000\000\000\000\000\000H\257/\306\334\2627?\000\000\000\000\000\000\000\000\000\000\000\000\000\000\000\000\tK\237\020j\241\272>\000\000\000\000\000\000\000\000\000\000\000\000\000\000\000\000w\305\262\005\273}2>\000\000\000\000\000\000\000\000\000\000\000\000\000\000\000\000\t\354\036\311\037\333\241=\000\000\000\000\000\000\000\000\000\000\000\000\000\000\000\000\000\000\000\000\000\000\000\000\000\000\000\000\000\000\000\000\000\000\000\000\000\000\000\000\000\000\000\000\000\000\000\000\000\000\000\000\000\000\000\000\000\000\000\000\000\000\000\000\000\000\000\000\000\000\000\000D\265U\177Y}\343?\000\000\000\000\000\000\000\000/\0105\361\236Z\336?\000\000\000\000\000\000\000\000y\355\330\201T\"\331?\000\000\000\000\000\000\000\000\221S\256\322\360R\324?\000\000\000\000\000\000\000\000w|\256\371\225\n\320?\000\000\000\000\000\000\000\000\307Th!~\322\310?\000\000\000\000\000\000\000\000\231\226O\254b\345\302?\000\000\000\000\000\000\000\000bV(\210Cc\274?\000\000\000\000\000\000\000\000}\224\206P\027\026\265?\000\000\000\000\000\000\000\000\227hq\'@\007\257?\000\000\000\000\000\000\000\000WB&\255@\244\246?\000\000\000\000\000\000\000\000\334\t\037\213.g\240?\000\000\000\000\000\000\000\000\221^/m\244\235\227?\206\255_T6}\344?\024\0140\260\374\323C?\344\337\266\232\327m\332?l\030\020\301\033\272D?\306\212\314(]\340\324?\366)\315\360\013\257C?\372Y\254\260\342a\321?\365\025kx\231\371A?\324\251\255\254,\251\315?\355\\]@\206\357??nD\'%\242\252\311?vN\361O\026\271;?\3364\333C\251h\306?\253\361\344\315\034\263:?\255X\263\261V\265\303?\233F\026\250$>\"?EN\235`\305c\301?\337r\034\251\t\247E?B\207\2274\363\315\276?\370\006\262oX!5?\303n\346\327\006\211\273?6\234\2242ch=?\361\256\344-\255T\270?o\265%L\222M*?DPQ\037\243\304\265?\000\000\000\000\000\000\000\000\000\000\000\000\000\000\000\000\000\000\000\000\000\000\000\000\000\000\000\000\000\000\000\000\000\000\000\000\000\000\000\000\000\000\000\000\000\000\000\000\000\000\000\000\000\000\000\000\000\000\000\000\000\000\000\000\000\000\000\000\000\000\000\000\000\000\000\000\000\000\000\000\000\000\000\000\000\000\000\000\000\000\000\000\000\000\000\000\000\000\000\000\000\000\360?\000\000\000\000\000\000\000\000\000\000\000\000\000\000\000\000\000\000\000\000\000\000\000\000\000\000\000\000\000\000\000\000\000\000\000\000\000\000\000\000\000\000\000\000\000\000\000\000\000\000\000\000\000\000\000\000\000\000\000\000\000\000\000\000\000\000\000\000\000\000\000\000\000\000\000\000\000\000\000\000\000\000\000\000\000\000\000\000\000\000\000\000\000\000\000\000\311\316\345$V\013\357?\211+\332\227\234m\315?\224\315i\217\275\233\263?=\020\025:\215v\205?\221\227y\322\2179d?\234:}a\337%1?\301\201_\302\017c\n?\324\302\300\323\204\350\322>\375F%\366\2302\251>\273\010\225\310\r\331o>\2544\250\313\365\372B>[1\033\347\016\263\005>\250>s\236^\234\327=/a)\273A\336\230=\000\000\000\000\000\000\000\000\000\000\000\000\000\000\000\000\000\000\000\000\000\000\000\000\000\000\000\000\000\000\000\000\000\000\000\000\000\000\000\000\000\000\000\000\000\000\000\000\000\000\000\000\000\000\000\000\000\000\000\000\000\000\000\000\000\000\000\000\000\000\000\000\000\000\000\000\000\000\000\000\000\000\000\000\000\000\000\000\204\206\301\336\312\320\357?\000\000\000\000\000\000\000\000\000\000\000\000\000\000\000\000\210\367>G}o\273?\000\000\000\000\000\000\000\000\000\000\000\000\000\000\000\000H\330\231L&)e?\000\000\000\000\000\000\000\000\000\000\000\000\000\000\000\000\\,p\210\000\333\377>\000\000\000\000\000\000\000\000\000\000\000\000\000\000\000\000G(\n\277\337\241\215>\000\000\000\000\000\000\000\000\000\000\000\000\000\000\000\000\303n\275\306\274*\023>\000\000\000\000\000\000\000\000\000\000\000\000\000\000\000\000;<\245n\352\203\222=\000\000\000\000\000\000\000\000\000\000\000\000\000\000\000\000\000\000\000\000\000\000\000\000\000\000\000\000\000\000\000\000\000\000\000\000\000\000\000\000\000\000\000\000\000\000\000\000\374yx\374\370y\354?\000\000\000\000\000\000\000\000\346\303\371,Z\263\330?\000\000\000\000\000\000\000\000BW\357\017$\364\311?\000\000\000\000\000\000\000\000;K\020\244\200|\274?\000\000\000\000\000\000\000\000\363\253\330R\304\313\257?\000\000\000\000\000\000\000\000\324\264\326\005\200\341\241?\000\000\000\000\000\000\000\000>\261G\321\004/\224?\000\000\000\000\000\000\000\000\250nc\215\307\321\206?\000\000\000\000\000\000\000\000\247=q]\013\320y?\000\000\000\000\000\000\000\000\324D\323\310\0212m?\000\000\000\000\000\000\000\000;\230\304\010\337\200`?\000\000\000\000\000\000\000\000\t\2477\036;\245R?\000\000\000\000\000\000\000\000\031=\244 \221\014E?\375\331\306\311X\325\330?\323/i\376?\345\324>u\036\210z\025\\\321?\366\2347E[\227\275>\311a\277\034s\271\315?\345\272}h\332\313\362>+\006\217\314r\324\312?\014\345\237 \202c\321>)G\277\210\033\314\310?[<ih\217\304\023?\203\362\307i\245E\307?\365\210\311\236\376\252(?>\307<3\315\n\306?\262\376[o\303\316\017?\333X\270\021{\361\304?8\352\204zp\364J?\001M\331\205+\027\304?\"\223\203\246\242CY?\217}_\366\250!\303?\201\302\332s\374`T?rD\2228\320q\303?\223\370\300\325/{T?[\312\354\203\2043\300?l\036\340c[\034\202?\334\317\350h\233\365\302?\000\000\000\000\000\000\000\000\000\000\000\000\000\000\000\000\000\000\000\000\000\000\000\000\000\000\000\000\000\000\000\000\000\000\000\000\000\000\000\000\000\000\000\000\000\000\000\000\000\000\000\000\000\000\000\000\000\000\000\000\000\000\000\000\000\000\000\000\000\000\000\000\000\000\000\000\000\000\000\000\000\000\000\000\000\000\000\000\000\000\000\000\000\000\000\000\000\000\000\000\000\000\000\000\000\000\000\000\000\000\000\000\000\000\000\000\000\000\000\000\000\000\000\000\000\000\000\000\000\000\000\000\000\000\000\000\000\000\000\000\000\000\000\000\000\000\000\000\000\000\000\000\000\000\000\000\000\000\000\000\000\000\000\000\000\000\000\000\000\000\000\000\000\000\000\000\000\000\000\000\000\000\000\000\000\000\000\000\000\000\000\000\000\000\000\000\000\000\360?\244T\273\247\275\316\332?\252\336v-Z\363\352?\020\204bNR\337\313?\246\261k\225\216-\320?V?X\337]\251\247?\216\177\032\334\306F\245?I\330\315\373\200hy?\351\364\300v,Os?\231\211\260\007=\370C?<@\322~\256\304:?.w\217\271\332\302\010?\026\273\374\371\272\005\376>Ty@-\000Z\311>\257\226\223\204kF\274>\205\004=\232\337\032\206>\036V\000q\243\363v>c3\2640\315\310@>\255\014\224{\277^0>]\375\013u\305\222\366=\033\212\203*A\323\344=\275\225t\217\2767\253=r\006\223\327x^\230=\000\000\000\000\000\000\000\000\000\000\000\000\000\000\000\000\000\000\000\000\000\000\000\000\317\233;\\\025\377\357?\000\000\000\000\000\000\000\000\000\000\000\000\000\000\000\000\177\262\353y\207\242\216?\000\000\000\000\000\000\000\000\000\000\000\000\000\000\000\000\3135\367\303\024<\n?\000\000\000\000\000\000\000\000\000\000\000\000\000\000\000\000q\t\303\306\321\354u>\000\000\000\000\000\000\000\000\000\000\000\000\000\000\000\000\273\343\304 \004\245\326=\000\000\000\000\000\000\000\000\000\000\000\000\000\000\000\000\000\000\000\000\000\000\000\000\000\000\000\000\000\000\000\000\000\000\000\000\000\000\000\000\000\000\000\000\000\000\000\000\000\000\000\000\000\000\000\000\000\000\000\000\000\000\000\000\000\000\000\000\000\000\000\000\000\000\000\000\000\000\000\000\000\000\000\000\000\000\000\000\000\000\000\000\000\000\000\000n\235\364\363Z\r\355?\000\000\000\000\000\000\000\000H\372\033W)\245\327?\000\000\000\000\000\000\000\000\275\024\221\352i\223\306?\000\000\000\000\000\000\000\000\254Q\302\341\207\275\264?\000\000\000\000\000\000\000\000\325\332^\234Nd\242?\000\000\000\000\000\000\000\000\351\177\206|\306\320\217?\000\000\000\000\000\000\000\000s\303|j\227\007{?\000\000\000\000\000\000\000\000\332\275\326\341\224\247f?\000\000\000\000\000\000\000\0001\304 \274\347\310R?\000\000\000\000\000\000\000\000\353\255eg\234\340>?\000\000\000\000\000\000\000\000\262\024\000\021\366/)?\000\000\000\000\000\000\000\000\001\231\000-\230i\024?\000\000\000\000\000\000\000\000\032f\332\211\270r\000?\351\262\342\330\316\020\357?\300\230\332#\237\363\256?\n\330\254\306)\270\314?\263\025\233\274\336\300\200?\334\225\231\222\370\215\253?d,|l3~\221?\270R\'Y\220\212\210?J\223\001y\227\235\205?\344\264\276\311\300\363i?\034!\237l\323\326r?\006uu?FGX?\016\260E@\274]Z?#b\021\216\345\240M?\230;^\362+\177@?f_h\010D.@?\037\320\333\277\306\272\'?X\255\016\022\316\023-?\204\207\360\215\005\236\030?\2142\026W,\263\025?S?\260mc\353\r?(B9l\252_\375>\256Gr}Ht\000?TxTYL~\347>S\244\003T\212\356\355>7\032\244`\0323\333>\000\000\000\000\000\000\000\000\000\000\000\000\000\000\000\000\000\000\000\000\000\000\000\000\000\000\000\000\000\000\000\000\000\000\000\000\000\000\000\000\000\000\000\000\000\000\000\000\000\000\000\000\000\000\000\000\000\000\000\000\000\000\360?\000\000\000\000\000\000\000\000\000\000\000\000\000\000\000\000\000\000\000\000\000\000\000\000\000\000\000\000\000\000\000\000\000\000\000\000\000\000\000\000\000\000\000\000\000\000\000\000\000\000\000\000\000\000\000\000\000\000\000\000\000\000\000\000\000\000\000\000\000\000\000\000\000\000\000\000\000\000\000\000\000\000\000\000\000\000\000\000\000\000\000\000\000\000\000\000\000\000\000\000\000\000\000\000\000\000\000\000\000\000\000\000\000\000\000\000\000\000\000\000\000\000\000\000\000\000\000\000\000\000\000\000\000\000\000\000T\030\226\277G\030\353?\330<\335\226\213\362\340?\313eh\036\013\202\250?\276\032\273\266k\263\221?Hb\240-\245\031R?\221\245\027\244\231@4?\026\323q\224\264\350\360>\004-{\371\327\372\317>j\2172\370\220\037\207>!\233\302\205\316Hc>\215\305\232{~\361\030>{Z\303/\375\320\362=\207\225T>\2507\246=\000\000\000\000\000\000\000\000\000\000\000\000\000\000\000\000\000\000\000\000\000\000\000\000\000\000\000\000\000\000\000\000\000\000\000\000\000\000\000\000\000\000\000\000\000\000\000\000\000\000\000\000\000\000\000\000\000\000\000\000\000\000\000\000\000\000\000\000\000\000\000\000\000\000\000\000\000\000\000\000\000\000\000\000\000\000\000\000\000\000\000\000\000\000\000\000J\321P)\001\376\357?\000\000\000\000\000\000\000\000\000\000\000\000\000\000\000\000%\236\373R\237\231\226?\000\000\000\000\000\000\000\000\000\000\000\000\000\000\000\000\351\371\013R=\217\034?\000\000\000\000\000\000\000\000\000\000\000\000\000\000\000\000v\245\274\'>\234\221>\000\000\000\000\000\000\000\000\000\000\000\000\000\000\000\000 \224\264M\337\326\372=\000\000\000\000\000\000\000\000\000\000\000\000\000\000\000\000\000\000\000\000\000\000\000\000\000\000\000\000\000\000\000\000\000\000\000\000\000\000\000\000\000\000\000\000\000\000\000\000\000\000\000\000\000\000\000\000\000\000\000\000\000\000\000\000\000\000\000\000\000\000\000\000\000\000\000\000\000\000\000\000\000\000\000\000\000\000\000\000\000\000\000\000\000\000\000\000\333e\322\211\350<\357?\000\000\000\000\000\000\000\000\017\335\345\301\261\313\312?\000\000\000\000\000\000\000\0008\177#\303\215\005\254?\000\000\000\000\000\000\000\000\020-\021x-\261\216?\000\000\000\000\000\000\000\000\201L\0065#\033q?\000\000\000\000\000\000\000\000\023\2253)\2525S?\000\000\000\000\000\000\000\000\247\216\364\345\261\2425?\000\000\000\000\000\000\000\000\221\253\374\246\331b\030?\000\000\000\000\000\000\000\000%\376l\333\336y\373>\000\000\000\000\000\000\000\000L\233\007eq\355\336>\000\000\000\000\000\000\000\000\351\337x[Xb\301>\000\000\000\000\000\000\000\000\226\226w{\370\203\243>\000\000\000\000\000\000\000\000\t\274\366`Q\340\205>\335\210K\371\376M\350?\360e\346;\235;z?]G\002\305Q\024\334?\"\356\r\315;Uv?\325s\223\342\354\334\323?4>\212\3058\321p?\365\267\371\210@\236\315?\024\353\230\301\263[g?\035c\216\232\022\240\306?\177y\202\363\352v]?lM\306\324\317\206\301?\034#\315\221\264\324O?\\\2479\032\370f\273?>CH\247]\3315?\302f\260d\361\216\265?\235\006\320\234Y<!?\204X\342\003\223\n\261?\256\314;0\226\344=?Jme\247\312\t\253?\0133j\211x\034F?S\3032\272\004\203\245?\037\330V\220\262\206J?\"!5\215:(\241?\377\337\273\354\004\331L?\317\316\017\017\341k\233?\000\000\000\000\000\000\000\000\000\000\000\000\000\000\000\000\000\000\000\000\000\000\000\000\000\000\000\000\000\000\000\000\000\000\000\000\000\000\000\000\000\000\000\000\000\000\000\000\000\000\000\000\000\000\000\000\000\000\000\000\000\000\000\000\000\000\000\000\000\000\000\000\000\000\000\000\000\000\000\000\000\000\000\000\000\000\000\000\000\000\000\000\000\000\000\000\000\000\000\000\000\000\000\000\000\000\000\000\000\000\000\000\000\000\000\000\000\000\000\000\000\000\000\000\000\000\000\000\000\000\000\000\000\000\000\000\000\000\000\000\000\000\360?\000\000\000\000\000\000\000\000\000\000\000\000\000\000\000\000\000\000\000\000\000\000\000\000\000\000\000\000\000\000\000\000\000\000\000\000\000\000\000\000\000\000\000\000\000\000\000\000\000\000\000\000\000\000\000\000\233\266\004\342\322\177\336?H\353\203=\251\327\353?\331\211\236\215,%\266?5\365\033\210\360W\267?\365\036\200\351\355Az?\327\355\224w\207pu?#\243\240\267\310\2603?7N\307\320\020-+?\216\322\220\210|\235\345>\204\305L\232CO\332>\253\003\353y\202\267\222>\023=\340!_\233\204>\305\251c\375\342\303:>\272\200\316=L\033+>\301\005P\\=L\340=\003,\"\261c\273\316=4oSD\322\354y=\000\000\000\000\000\000\000\000\000\000\000\000\000\000\000\000\000\000\000\000\000\000\000\000\000\000\000\000\000\000\000\000\000\000\000\000\000\000\000\000\000\000\000\000\000\000\000\000\000\000\000\000\000\000\000\000\000\000\000\000\000\000\000\000\300\206\267\325\352\300\357?\000\000\000\000\000\000\000\000\000\000\000\000\000\000\000\000:$D\267?\262\277?\000\000\000\000\000\000\000\000\000\000\000\000\000\000\000\000E\320=8\202Ll?\000\000\000\000\000\000\000\000\000\000\000\000\000\000\000\000\010\351\362l\035\250\010?\000\000\000\000\000\000\000\000\000\000\000\000\000\000\000\000R\315\242p\267\214\232>\000\000\000\000\000\000\000\000\000\000\000\000\000\000\000\000\371\210x\325\365\340#>\000\000\000\000\000\000\000\000\000\000\000\000\000\000\000\000\311\212R\'}:\246=\000\000\000\000\000\000\000\000\000\000\000\000\000\000\000\000\000\000\000\000\000\000\000\000\000\000\000\000\000\000\000\000\000\000\000\000\000\000\000\000\000\000\000\000\000\000\000\000\340he\177\253e\353?\000\000\000\000\000\000\000\000C\027\216i:L\332?\000\000\000\000\000\000\000\000\002L,\353\301\321\317?\000\000\000\000\000\000\000\000\263\361#\273)\206\303?\000\000\000\000\000\000\000\000\035C\200\263y\235\267?\000\000\000\000\000\000\000\000\350\332\234\201\334\033\254?\000\000\000\000\000\000\000\000\017\037\345Q\'\201\240?\000\000\000\000\000\000\000\000\225s\206\013\024,\223?\000\000\000\000\000\000\000\000?\214\2003\212\023\206?\000\000\000\000\000\000\000\000\010\256X\230\334<y?\000\000\000\000\000\000\000\000\374\206\205s\237\255l?\000\000\000\000\000\000\000\000Q_8\036\3135`?\000\000\000\000\000\000\000\000\36505\316X>R?\2512.\177\334\252\357?.\203M\007G\275\252?\261>\240\310\251\275\300?I9\n\314\272\262\226?\006\313}\377\256[\211?(>_\324\263\276\213?e\317\276\361\301\232T?ey=\344\315\274m?%%\266\317\032\217Q?6\2751\tVRA?\254\341\227\334\337@D?\307 \263TZ\217\023?\271(\036Y\350\273(?v\205\263\347\022Q\020?\017E\203[\315\351\375>>\355\374\371\036\362\004?Q2g9\201\022\310>\217\366\321\2070\320\353>\025\215p\363\253\223\320>\2415=<R\035\275>;{d\177\314\351\312>\332s\360H\276\033\200>\020+aKp\305\263>\207\344U[\247:\217>=~\270\026h\224\177>\000\000\000\000\000\000\000\000\000\000\000\000\000\000\000\000\000\000\000\000\000\000\000\000\000\000\000\000\000\000\000\000\000\000\000\000\000\000\000\000\000\000\000\000\000\000\000\000\000\000\000\000\000\000\000\000\000\000\000\000\000\000\000\000\000\000\000\000\000\000\000\000\000\000\000\000\000\000\000\000\000\000\000\000\000\000\000\000\000\000\000\000\000\000\000\000\000\000\000\000\000\000\000\000\000\000\000\000\000\000\000\000\000\000\000\000\000\000\000\000\000\000\000\000\000\000\360?\000\000\000\000\000\000\000\000\000\000\000\000\000\000\000\000\000\000\000\000\000\000\000\000\000\000\000\000\000\000\000\000\000\000\000\000\000\000\000\000\000\000\000\000\000\000\000\000\000\000\000\000\000\000\000\000\000\000\000\000\000\000\000\000\000\000\000\000\000\000\000\000L}}6\2645\351?\001\230\264\247\241\344\327?\304\272s\243\'l\335?DY\375\375\217\031\300?+I\275\341\254\t\274?3\027v\302\231\304\227?\304\342\037>\353\345\220?\351\356\323\372\2256h?d`\332E\023\321]?\t\334[\313\357\3262?\376\356m\363\020\300$?\306\207c\"\373\267\367>\305\005\213\263\025\331\347>\372\277C6<\023\271>\007$87uW\247>6S\314\326\030\331v>mJ\221>\025\345c>\013\244\205M\363J2>\035\271\207\366\352\010\036>\311\035WCP\037\352=8C\232\0376X\324=\2136\316\262\346\315\240=\207\230\"{\225\344\210=\000\000\000\000\000\000\000\000\000\000\000\000\000\000\000\000\003\034E\2434\351\357?\000\000\000\000\000\000\000\000\000\000\000\000\000\000\000\000K0\242\255\330\024\263?\000\000\000\000\000\000\000\000\000\000\000\000\000\000\000\000S\276\366\355 iT?\000\000\000\000\000\000\000\000\000\000\000\000\000\000\000\000$A\346\374jN\345>\000\000\000\000\000\000\000\000\000\000\000\000\000\000\000\000\035\032\317\372\205|k>\000\000\000\000\000\000\000\000\000\000\000\000\000\000\000\000<[D7\030\250\350=\000\000\000\000\000\000\000\000\000\000\000\000\000\000\000\000\000\000\000\000\000\000\000\000\000\000\000\000\000\000\000\000\000\000\000\000\000\000\000\000\000\000\000\000\000\000\000\000\000\000\000\000\000\000\000\000\000\000\000\000\000\000\000\000\000\000\000\000\000\000\000\000 #\325\247\217\301\356?\000\000\000\000\000\000\000\000\321F\377\367(\250\320?\000\000\000\000\000\000\000\000\016\306Lq\316\030\266?\000\000\000\000\000\000\000\000\222\255D\3144\346\236?\000\000\000\000\000\000\000\000\267q\304`4#\206?\000\000\000\000\000\000\000\000/\021\020s\321\025p?\000\000\000\000\000\000\000\000u\245/\3314\227W?\000\000\000\000\000\000\000\000\023\211\257\2039iA?\000\000\000\000\000\000\000\000\316\025\024\020\331\322)?\000\000\000\000\000\000\000\000\270,\2068\2468\023?\000\000\000\000\000\000\000\000\034\330}\335\256\262\374>\000\000\000\000\000\000\000\000G3I\375\204y\345>\000\000\000\000\000\000\000\000\362\232\335B\362\031\320>\3473\365\322\203m\343?\217\006\361\373\000\367??n\262\021\261c\212\331?\2565\313\275\221IA?^\351\302\306\267\217\324?\214\362H\246\030\355@?\265\023G\354\355r\321?\263\n\255\022\366Z@?\204[[\206QV\316?j\357\251\357\237\301>?\245\204Fy\354\311\312?d\033\0009\317\317+?=\252\257\205\034\301\307?\324\275g\2311\025S?l.\325_\311f\305?\272\243\327s\311\250S?\250\220\034\375Q6\303?\007y\276F8J[?\350\301.\213nG\301?\343\273\232\034k\2713?YE\241\307\024X\277?\261\350\304\200\266\335@?\325\n\377\322/\334\274?\377\265!\347Ta\026?\370p:&\223\006\272?\000\000\000\000\000\000\000\000\000\000\000\000\000\000\000\000\000\000\000\000\000\000\000\000\000\000\000\000\000\000\000\000\000\000\000\000\000\000\000\000\000\000\000\000\000\000\000\000\000\000\000\000\000\000\000\000\000\000\000\000\000\000\000\000\000\000\000\000\000\000\000\000\000\000\000\000\000\000\000\000\000\000\000\000\000\000\000\000\000\000\000\000\000\000\000\000\000\000\000\000\000\000\000\000\000\000\000\000\000\000\000\000\000\000\000\000\000\000\360?\000\000\000\000\000\000\000\000\000\000\000\000\000\000\000\000\000\000\000\000\000\000\000\000\000\000\000\000\000\000\000\000\000\000\000\000\000\000\000\000\000\000\000\000\000\000\000\000\000\000\000\000\000\000\000\000\000\000\000\000\000\000\000\000\000\000\000\000\000\000\000\000\000\000\000\000\000\000\000\000\224;\355\222\333\367\357?R\215\221\254\204Y\246?%\022H\263\307x\202?r\367\270\364\336\322-?\260)\037\301\362m\001?\220\223S\372<\314\245>\200\314\225\222~\315t>\025[\033\\\350\374\025>\200\332e\001=,\342=\342\371\3545\245\360\200=\000\000\000\000\000\000\000\000\000\000\000\000\000\000\000\000\000\000\000\000\000\000\000\000\000\000\000\000\000\000\000\000\000\000\000\000\000\000\000\000\000\000\000\000\000\000\000\000\000\000\000\000\000\000\000\000\000\000\000\000\000\000\000\000\000\000\000\000\000\000\000\000\000\000\000\000\000\000\000\000\000\000\000\000\000\000\000\000\000\000\000\000\000\000\000\000\000\000\000\000\000\000\000\000\000\000\000\000\000\000\000\000\000\000\000\000\000\000\000\000\240\216:2O\305\357?\000\000\000\000\000\000\000\000\000\000\000\000\000\000\000\000bO\210\002\363\223\276?\000\000\000\000\000\000\000\000\000\000\000\000\000\000\000\000\326\235\200\231\251Rj?\000\000\000\000\000\000\000\000\000\000\000\000\000\000\000\000\227U\266\271&\035\006?\000\000\000\000\000\000\000\000\000\000\000\000\000\000\000\000\326\216\311\033\205\365\226>\000\000\000\000\000\000\000\000\000\000\000\000\000\000\000\000I\r\3004(\223 >\000\000\000\000\000\000\000\000\000\000\000\000\000\000\000\000\037H@\322\323\336\241=\000\000\000\000\000\000\000\000\000\000\000\000\000\000\000\000\000\000\000\000\000\000\000\000\000\000\000\000\000\000\000\000\000\000\000\000\000\000\000\000\000\000\000\000\000\000\000\000*\263q\3010$\355?\000\000\000\000\000\000\000\000\022\325\257.\347\016\327?\000\000\000\000\000\000\000\0001\000^\267\311A\306?\000\000\000\000\000\000\000\000\241o\373h\257\220\266?\000\000\000\000\000\000\000\000\270&\220\367\n^\247?\000\000\000\000\000\000\000\000\026\350L\001Lx\230?\000\000\000\000\000\000\000\000\303\320~\306\316\312\211?\000\000\000\000\000\000\000\000\240+zQ\272K{?\000\000\000\000\000\000\000\000\'\347N\345\030\366l?\000\000\000\000\000\000\000\000f\254]\227{\307^?\000\000\000\000\000\000\000\000\265\212\214\213r_P?\000\000\000\000\000\000\000\000\3145\031\257\036nA?\000\000\000\000\000\000\000\000\354\2641\240\002\2202?\226IN\013\021\312\341?\027\300\335\2123\346.?\365{\335\302$\355\327?v\221\256%\255l1?\342\360\336\300\375\264\323?\377=\250\3377\3140?\332\036\002\0343\033\321?\206\204}\033;\231:?X\303n\247\036t\316?\2751\300\177\273\3649?\305\014\032\316\361z\313?L\231J\361\"5a?\007|,Nw\324\310?\344\002G\027\203\357e?\375\023\215rYd\307?R\271\302\354\233za?\3179\032\216\226\230\304?\022\3262y\332\250E?\247G\"\234\243{\303?\223R\021\350\325O;?\031\330\271\377\236\203\302?\323\314-E\177\307b?=8\037\370\263\300\300?E\243\224\177\2041@?\337f\204\370\035\356\276?\000\000\000\000\000\000\000\000\000\000\000\000\000\000\000\000\000\000\000\000\000\000\000\000\000\000\000\000\000\000\360?\000\000\000\000\000\000\000\000\000\000\000\000\000\000\000\000\000\000\000\000\000\000\000\000\000\000\000\000\000\000\000\000\000\000\000\000\000\000\000\000\000\000\000\000\000\000\000\000\000\000\000\000\000\000\000\000\000\000\000\000\000\000\000\000\000\000\000\000\000\000\000\000\000\000\000\000\000\000\000\000\000\000\000\000\000\000\000\000\000\000\000\000\000\000\000\000\000\000\000\000\000\000\000\000\000\000\000\000\000\000\000\000\000\000\000\000\000\000\000\000\000\000\000\000\000\000\000\000\000\000\000\000\000\000\000\000\000\000\000\000\000\000\000\000\000\000\000\000\000\000\000\000\000\000\000\000\000\000\000\000\000\000\000\000\000\000\000\000u\035(/b\024\353?\303\300p@\365\215\271?\207\014\236\014~8\340?\306\270\325t\327\254\241?\357\017\240\026\236\273\277?KF\340R\305\310z?:\354\273\t\240\241\223?\325\200\335\352\035\002L?\232\0367\3706\307a?\274\210\257\244\206^\026?D5\367\375Mf)?\005`\315~j\350\334>\315\207\003\003\321\366\355>~|[ \273^\237>\235\nx;\255\032\256>h\3117s\'W]>\231\310\033.\207Vj>6\033\256_\321\034\030>5\244\211\367=h$>\262/\270&\030\254\321=\305\221\303\317\310`\334=\327$\215\237\344\271\206=kS\251F\007\345\221=\000\000\000\000\000\000\000\000\000\000\000\000\000\000\000\000K\256\372\331\277\270\357?\000\000\000\000\000\000\000\000\000\000\000\000\000\000\000\000\375%\024i}\326\300?\000\000\000\000\000\000\000\000\000\000\000\000\000\000\000\000\301\r\225\247\321\371o?\000\000\000\000\000\000\000\000\000\000\000\000\000\000\000\000\205\302y\330M\241\r?\000\000\000\000\000\000\000\000\000\000\000\000\000\000\000\000\311G.*9\367\240>\000\000\000\000\000\000\000\000\000\000\000\000\000\000\000\000\325\036\006\247\374\004+>\000\000\000\000\000\000\000\000\000\000\000\000\000\000\000\000\353F\344\243\360\020\260=\000\000\000\000\000\000\000\000\000\000\000\000\000\000\000\000\000\000\000\000\000\000\000\000\000\000\000\000\000\000\000\000\000\000\000\000\000\000\000\000\000\000\000\000\000\000\000\000&a\340[\032\257\354?\000\000\000\000\000\000\000\0003\367)h\315\324\323?\000\000\000\000\000\000\000\0000\305\335\024\013\377\306?\000\000\000\000\000\000\000\000\304\235\346\256\207&\303?\000\000\000\000\000\000\000\000\'_\372\347\357\225\300?\000\000\000\000\000\000\000\000\332\324\352\207\214\212\273?\000\000\000\000\000\000\000\000T\202\014\251\370\371\265?\000\000\000\000\000\000\000\000\\P\341hM\010\261?\000\000\000\000\000\000\000\000UJ\277\337D\334\251?\000\000\000\000\000\000\000\0002\270\362\272\347X\243?\000\000\000\000\000\000\000\000\200&^\252#\250\234?\000\000\000\000\000\000\000\000\330J|\367t\024\225?\000\000\000\000\000\000\000\000D\316\302,\254\342\216?\026P\372%Pv\322?\337\234\306\0279\323\315?k4\335\310\224I\334?\216#P\3467/\323?\\\372\346>\333\223\331?\030\2673\302U\256\231?q\035\032\034\321\321g?\222\240\020\330nP\307?\361\276\324\037\340\235\241?\355u\000\3715n\230?\341\334O\345,\203\303?~\321^\025C\371\300?\020\001^\352[\265\306?|\006\033P\216\271\253?\202\254v4\221T\231?\215C\367\272\317\304\264?\3536\366\242\t\032\263?\2505\031\204R!\270?5\003\0333g\333\202?\242Y\354\225oT\233?\270\014~\025\006z\270?\232\"X\016\227\221\267?;\022\327[\270\343\272?\267\261\211\244{\021\245?\326\247\035\022PT\215?\000\000\000\000\000\000\000\000\000\000\000\000\000\000\000\000\000\000\000\000\000\000\000\000\000\000\000\000\000\000\000\000\000\000\000\000\000\000\000\000\000\000\000\000\000\000\000\000\000\000\000\000\000\000\000\000\000\000\000\000\000\000\000\000\000\000\000\000\000\000\000\000\000\000\000\000\000\000\000\000\000\000\000\000\000\000\000\000\000\000\000\000\000\000\000\000\000\000\000\000\000\000\000\000\000\000\000\000\000\000\360?\000\000\000\000\000\000\000\000\000\000\000\000\000\000\000\000\000\000\000\000\000\000\000\000\000\000\000\000\000\000\000\000\000\000\000\000\000\000\000\000\000\000\000\000\000\000\000\000\000\000\000\000\000\000\000\000\000\000\000\000\000\000\000\000\000\000\000\000\000\000\000\000\000\000\000\000\000\000\000\000\000\000\000\000\000\000\000\000L\222\233`9\271\357?y\245\267\377\302\304\300?B\365\325ap\227z?N\204\250\227\371:@?\304\2602\027\0253\362>C\034X5t5\261>5\202!\377\347\202_>\364\340\262B\243.\031>!(\013\253\205\367\303=\000\000\000\000\000\000\000\000\000\000\000\000\000\000\000\000\000\000\000\000\000\000\000\000\000\000\000\000\000\000\000\000\000\000\000\000\000\000\000\000\000\000\000\000\000\000\000\000\000\000\000\000\000\000\000\000\000\000\000\000\000\000\000\000\000\000\000\000\000\000\000\000\000\000\000\000\000\000\000\000\000\000\000\000\000\000\000\000\000\000\000\000\000\000\000\000\000\000\000\000\000\000\000\000\000\000\000\000\000\000\000\000\000\000\000\000\000\000\000\000\000\000\000\000\000\000\000\000\334\346\311y\270\375\357?\000\000\000\000\000\000\000\000\000\000\000\000\000\000\000\000\303!\003\243{\'\230?\000\000\000\000\000\000\000\000\000\000\000\000\000\000\000\000\311\224\346\025\323O ?\000\000\000\000\000\000\000\000\000\000\000\000\000\000\000\000\311\021\323\273\032\200\225>\000\000\000\000\000\000\000\000\000\000\000\000\000\000\000\000\2430%K\347\202\001>\000\000\000\000\000\000\000\000\000\000\000\000\000\000\000\000\000\000\000\000\000\000\000\000\000\000\000\000\000\000\000\000\000\000\000\000\000\000\000\000\000\000\000\000\000\000\000\000\000\000\000\000\000\000\000\000\000\000\000\000\000\000\000\000\000\000\000\000\000\000\000\000\000\000\000\000\000\000\000\000\000\000\000\000\000\000\000\000\000\000\000\000\000\000\000\000o\301\262y\226g\341?\000\000\000\000\000\000\000\0001\261tt\234\233\334?\000\000\000\000\000\000\000\000\257\340\371\377$8\331?\000\000\000\000\000\000\000\000dG\226\312W\273\325?\000\000\000\000\000\000\000\000gZ\371\\\214G\322?\000\000\000\000\000\000\000\000\021\3369\330\220$\316?\000\000\000\000\000\000\000\000\237AR\"\366s\310?\000\000\000\000\000\000\000\0006\265\004\201\025\223\303?\000\000\000\000\000\000\000\000\313\211\356\334\317\375\276?\000\000\000\000\000\000\000\000\007\260\261\310aM\270?\000\000\000\000\000\000\000\000\314\020v\205\325\346\262?\000\000\000\000\000\000\000\000Z\3068\ts1\255?\000\000\000\000\000\000\000\000n&S7\362f\246?\010\210\345\223\361\370\343?\271k\334\037\201}A?\376\350\273g\234\003\332?\343\360\242\221\252\231B?\224\363\217\211\316\277\324?I`\242\311*\377A?)\005\213\007\357q\321?\376\371\203\227\351\276@?\256ql\324F\017\316?u\337B\362^\355=?b\3778UzB\312?\3445\302*\3009??+\353u\314\312*\307?\300\214|/\303o ?+\016\224\322\254\215\304?\0208\324_F\361L?\020\313E\316\031I\302?\332\000\225X\rQ>?3\372\2260\013\203\300?Ms\307\225c{C?[\330\022r\255D\275?\315c\325\332M\3065?m\374,?iq\272?@^e\230D?5?\324\333\201f*\022\270?\000\000\000\000\000\000\000\000\000\000\000\000\000\000\000\000\000\000\000\000\000\000\000\000\000\000\000\000\000\000\000\000\000\000\000\000\000\000\000\000\000\000\000\000\000\000\000\000\000\000\000\000\000\000\000\000\000\000\000\000\000\000\000\000\000\000\000\000\000\000\000\000\000\000\000\000\000\000\000\000\000\000\000\000\000\000\000\000\000\000\000\000\000\000\000\000\000\000\000\000\000\000\000\000\000\000\000\000\000\000\000\000\000\000\000\000\000\000\000\000\000\000\000\000\000\000\000\000\000\000\000\000\000\000\360?\000\000\000\000\000\000\000\000\000\000\000\000\000\000\000\000\000\000\000\000\000\000\000\000\000\000\000\000\000\000\000\000\000\000\000\000\000\000\000\000\000\000\000\000\000\000\000\000\000\000\000\000\000\000\000\000\000\000\000\000\000\000\000\000W\242V\220\000\'\350?\032\314\351\022\245\021\344?.\235\352D\026\035\306?\214\350\203\033\2557\265?\365\216\211^\026\210\220?\340fD\325\241\222x?\356\310\351\320\333CO?&\223Y4k\2433?\316\355\232u\241\243\005?\376e<\252e\371\347>?\r\225\241\275\240\267>\374\372\030\035\257\255\227>\232\202\244\t\232Me>*\330\023\217Q\243C>(\326M\327{[\020>\212\025|\207=\023\354=\n\005\372%\357\337\265=\210\336\r\374\013\301\222=\000\000\000\000\000\000\000\000\000\000\000\000\000\000\000\000\000\000\000\000\000\000\000\000\000\000\000\000\000\000\000\000\000\000\000\000\000\000\000\000\000\000\000\000\000\000\000\000\000\000\000\000\000\000\000\000\353D\006\375\377\377\357?\000\000\000\000\000\000\000\000\000\000\000\000\000\000\000\000HI\322\352v\231\033?\000\000\000\000\000\000\000\000\000\000\000\000\000\000\000\000\355\277\323y\200J%>\000\000\000\000\000\000\000\000\000\000\000\000\000\000\000\000\000\000\000\000\000\000\000\000\000\000\000\000\000\000\000\000\000\000\000\000\000\000\000\000\000\000\000\000\000\000\000\000\000\000\000\000\000\000\000\000\000\000\000\000\000\000\000\000\000\000\000\000\000\000\000\000\000\000\000\000\000\000\000\000\000\000\000\000\000\000\000\000\000\000\000\000\000\000\000\000\000\000\000\000\000\000\000\000\000\000\000\000\000\000\000\000\000\000\000\000\000\000\000\000\000\000\000\000\000\000\000\000\000\000\000\000\000\000\000\000\000\000\000\000\000\000\000\000\004\\\204QER\355?\000\000\000\000\000\000\000\000\367\212\246\225\022\246\326?\000\000\000\000\000\000\000\000\256\230K\227\r\376\304?\000\000\000\000\000\000\000\000w\221\360\364q\032\264?\000\000\000\000\000\000\000\000\343\r\342\014 \222\243?\000\000\000\000\000\000\000\000\256L\305\264%\007\224?\000\000\000\000\000\000\000\000\'\215v\316\226G\207?\000\000\000\000\000\000\000\000a-\263[Z\277\177?\000\000\000\000\000\000\000\000\314`\317nT\254w?\000\000\000\000\000\000\000\000qi\007\010F\365q?\000\000\000\000\000\000\000\000\220\314\367\034\331\352j?\000\000\000\000\000\000\000\000\265\265\266v\205\315c?\000\000\000\000\000\000\000\000i\355\016\353x\240\\?\336\277\364\223t\360\332?\367b\323X\311\342\331>\010\345O5`\277\322?I\227\264\273MF\334>\3566\207\010@\365\317?\025Gf\256\032b\350>C\243rHX\266\314?\344m\356\257dd\320>\331\351\274\336\037n\312?ICu\266@o\372>\245PHi\004\260\310?o\226\277\037$\033\003?\316q\301\360)>\307?\264\233W\313\"\026#?\305\000\356*j\r\306?\2566/\350\276H/?\305\200\002>*\016\305?\3137$\220\264^\n?\266@\251\206w\r\304?,:\306FkFB?\230\206\227h6@\303?\264d\362G!tA?\324\215\334\273\313\251\302?\0222<\200\020\3707?H\327$\332c\331\301?\000\000\000\000\000\000\000\000\000\000\000\000\000\000\000\000\000\000\000\000\000\000\000\000\000\000\000\000\000\000\000\000\000\000\000\000\000\000\000\000\000\000\000\000\000\000\000\000\000\000\000\000\000\000\000\000\000\000\000\000\000\000\000\000\000\000\000\000\000\000\000\000\000\000\000\000\000\000\000\000\000\000\000\000\000\000\000\000\000\000\000\000\000\000\000\000\000\000\000\000\000\000\360?\000\000\000\000\000\000\000\000\000\000\000\000\000\000\000\000\000\000\000\000\000\000\000\000\000\000\000\000\000\000\000\000\000\000\000\000\000\000\000\000\000\000\000\000\000\000\000\000\000\000\000\000\000\000\000\000\000\000\000\000\000\000\000\000\000\000\000\000\000\000\000\000\000\000\000\000\000\000\000\000\000\000\000\000\000\000\000\000\000\000\000\000\000\000\000\000\317\024u\263(\362\270?1\270y\006g\235\357?\215Q)\203u\253\224? gL\n{?\276?\024\246f\035\266\367[?\013\035\325\226\317\263\177?\261t\321\271\367\356\027?mAf\\\272\3556?-\3523\325>\373\315>t8\235\342\274T\351>P\305\017\334;\240}>V\022\007\263\034\244\226>\300\302\25697,(>\204\0328uB\376@>7\335\201\014\005\314\320=\263\023,kI\374\345=*r\225-0Gs=\006\177\2148\254\037\207=\000\000\000\000\000\000\000\000\000\000\000\000\000\000\000\000\000\000\000\000\000\000\000\000\000\000\000\000\000\000\000\000\000\000\000\000\000\000\000\000\000\000\000\000\000\000\000\000\000\000\000\000\000\000\000\000U\210|\327\350\377\357?\000\000\000\000\000\000\000\000\000\000\000\000\000\000\000\000\200\267\343\020\310?s?\000\000\000\000\000\000\000\000\000\000\000\000\000\000\000\000D4\347\252\245\266\324>\000\000\000\000\000\000\000\000\000\000\000\000\000\000\000\000w\266\212\275\203\300%>\000\000\000\000\000\000\000\000\000\000\000\000\000\000\000\000\000\000\000\000\000\000\000\000\000\000\000\000\000\000\000\000\000\000\000\000\000\000\000\000\000\000\000\000\000\000\000\000\000\000\000\000\000\000\000\000\000\000\000\000\000\000\000\000\000\000\000\000\000\000\000\000\000\000\000\000\000\000\000\000\000\000\000\000\000\000\000\000\000\000\000\000\000\000\000\000\000\000\000\000\000\000\000\000\000\000\000\000\000\000\000\000\000\000\000\000\000\000\000\000\230ct\201M\216\357?\000\000\000\000\000\000\000\000t\241\236\324j\364\304?\000\000\000\000\000\000\000\000\215~\235\371w\001\234?\000\000\000\000\000\000\000\000\230q.\204\246\244p?\000\000\000\000\000\000\000\000\304R\021Ws\024C?\000\000\000\000\000\000\000\000\tY:\203\234\213\025?\000\000\000\000\000\000\000\000?\245.\212\244\016\350>\000\000\000\000\000\000\000\000X\302\356/>\223\272>\000\000\000\000\000\000\000\0006\321\257\312\212\017\215>\000\000\000\000\000\000\000\000\t\033\216\323J}_>\000\000\000\000\000\000\000\000\342\321\324\343\207\3540>\000\000\000\000\000\000\000\000[\r\227\223n\020\002>\000\000\000\000\000\000\000\000 